{
  "version": "1.0",
  "truncation": null,
  "padding": null,
  "added_tokens": [
    {
      "id": 0,
      "content": "<s>",
      "single_word": false,
      "lstrip": false,
      "rstrip": false,
      "normalized": false,
      "special": true
    },
    {
      "id": 1,
      "content": "<pad>",
      "single_word": false,
      "lstrip": false,
      "rstrip": false,
      "normalized": false,
      "special": true
    },
    {
      "id": 2,
      "content": "</s>",
      "single_word": false,
      "lstrip": false,
      "rstrip": false,
      "normalized": false,
      "special": true
    },
    {
      "id": 3,
      "content": "<unk>",
      "single_word": false,
      "lstrip": false,
      "rstrip": false,
      "normalized": false,
      "special": true
    },
    {
      "id": 4,
      "content": "<mask>",
      "single_word": false,
      "lstrip": false,
      "rstrip": false,
      "normalized": false,
      "special": true
    }
  ],
  "normalizer": {
    "type": "Sequence",
    "normalizers": [
      {
        "type": "StripAccents"
      },
      {
        "type": "Strip",
        "strip_left": true,
        "strip_right": true
      }
    ]
  },
  "pre_tokenizer": {
    "type": "Sequence",
    "pretokenizers": [
      {
        "type": "Whitespace"
      },
      {
        "type": "Punctuation",
        "behavior": "Isolated"
      }
    ]
  },
  "post_processor": {
    "type": "TemplateProcessing",
    "single": [
      {
        "SpecialToken": {
          "id": "<s>",
          "type_id": 0
        }
      },
      {
        "Sequence": {
          "id": "A",
          "type_id": 0
        }
      },
      {
        "SpecialToken": {
          "id": "</s>",
          "type_id": 0
        }
      }
    ],
    "pair": [
      {
        "SpecialToken": {
          "id": "<s>",
          "type_id": 0
        }
      },
      {
        "Sequence": {
          "id": "A",
          "type_id": 0
        }
      },
      {
        "SpecialToken": {
          "id": "</s>",
          "type_id": 0
        }
      },
      {
        "Sequence": {
          "id": "B",
          "type_id": 1
        }
      },
      {
        "SpecialToken": {
          "id": "</s>",
          "type_id": 1
        }
      }
    ],
    "special_tokens": {
      "</s>": {
        "id": "</s>",
        "ids": [
          2
        ],
        "tokens": [
          "</s>"
        ]
      },
      "<s>": {
        "id": "<s>",
        "ids": [
          0
        ],
        "tokens": [
          "<s>"
        ]
      }
    }
  },
  "decoder": null,
  "model": {
    "type": "BPE",
    "dropout": null,
    "unk_token": null,
    "continuing_subword_prefix": null,
    "end_of_word_suffix": null,
    "fuse_unk": false,
    "byte_fallback": false,
    "ignore_merges": false,
    "vocab": {
      "<s>": 0,
      "<pad>": 1,
      "</s>": 2,
      "<unk>": 3,
      "<mask>": 4,
      "\u0001": 5,
      "\u0002": 6,
      "\u0003": 7,
      "\u0004": 8,
      "\u0012": 9,
      "\u0017": 10,
      "\u001b": 11,
      "\u001f": 12,
      "!": 13,
      "\"": 14,
      "#": 15,
      "$": 16,
      "%": 17,
      "&": 18,
      "'": 19,
      "(": 20,
      ")": 21,
      "*": 22,
      "+": 23,
      ",": 24,
      "-": 25,
      ".": 26,
      "/": 27,
      "0": 28,
      "1": 29,
      "2": 30,
      "3": 31,
      "4": 32,
      "5": 33,
      "6": 34,
      "7": 35,
      "8": 36,
      "9": 37,
      ":": 38,
      ";": 39,
      "<": 40,
      "=": 41,
      ">": 42,
      "?": 43,
      "@": 44,
      "A": 45,
      "B": 46,
      "C": 47,
      "D": 48,
      "E": 49,
      "F": 50,
      "G": 51,
      "H": 52,
      "I": 53,
      "J": 54,
      "K": 55,
      "L": 56,
      "M": 57,
      "N": 58,
      "O": 59,
      "P": 60,
      "Q": 61,
      "R": 62,
      "S": 63,
      "T": 64,
      "U": 65,
      "V": 66,
      "W": 67,
      "X": 68,
      "Y": 69,
      "Z": 70,
      "[": 71,
      "\\": 72,
      "]": 73,
      "^": 74,
      "_": 75,
      "`": 76,
      "a": 77,
      "b": 78,
      "c": 79,
      "d": 80,
      "e": 81,
      "f": 82,
      "g": 83,
      "h": 84,
      "i": 85,
      "j": 86,
      "k": 87,
      "l": 88,
      "m": 89,
      "n": 90,
      "o": 91,
      "p": 92,
      "q": 93,
      "r": 94,
      "s": 95,
      "t": 96,
      "u": 97,
      "v": 98,
      "w": 99,
      "x": 100,
      "y": 101,
      "z": 102,
      "{": 103,
      "|": 104,
      "}": 105,
      "~": 106,
      "in": 107,
      "re": 108,
      "se": 109,
      "on": 110,
      "at": 111,
      "er": 112,
      "or": 113,
      "th": 114,
      "st": 115,
      "en": 116,
      "al": 117,
      "ar": 118,
      "de": 119,
      "an": 120,
      "le": 121,
      "me": 122,
      "ti": 123,
      "the": 124,
      "ur": 125,
      "lf": 126,
      "self": 127,
      "if": 128,
      "ce": 129,
      "is": 130,
      "te": 131,
      "to": 132,
      "ro": 133,
      "fi": 134,
      "co": 135,
      "ge": 136,
      "ing": 137,
      "ame": 138,
      "for": 139,
      "lo": 140,
      "ue": 141,
      "as": 142,
      "ch": 143,
      "urn": 144,
      "pe": 145,
      "turn": 146,
      "ate": 147,
      "ct": 148,
      "tion": 149,
      "li": 150,
      "ent": 151,
      "el": 152,
      "un": 153,
      "ion": 154,
      "no": 155,
      "ad": 156,
      "id": 157,
      "con": 158,
      "of": 159,
      "and": 160,
      "return": 161,
      "name": 162,
      "ra": 163,
      "di": 164,
      "ut": 165,
      "it": 166,
      "def": 167,
      "mp": 168,
      "par": 169,
      "ex": 170,
      "ul": 171,
      "ri": 172,
      "val": 173,
      "res": 174,
      "one": 175,
      "ma": 176,
      "ata": 177,
      "ke": 178,
      "ty": 179,
      "um": 180,
      "ter": 181,
      "am": 182,
      "ed": 183,
      "ab": 184,
      "str": 185,
      "get": 186,
      "es": 187,
      "None": 188,
      "ation": 189,
      "ck": 190,
      "si": 191,
      "data": 192,
      "not": 193,
      "up": 194,
      "mo": 195,
      "file": 196,
      "type": 197,
      "ver": 198,
      "he": 199,
      "wi": 200,
      "po": 201,
      "ction": 202,
      "arg": 203,
      "pro": 204,
      "be": 205,
      "value": 206,
      "pat": 207,
      "set": 208,
      "mat": 209,
      "ne": 210,
      "ser": 211,
      "tr": 212,
      "ap": 213,
      "int": 214,
      "ve": 215,
      "all": 216,
      "op": 217,
      "path": 218,
      "ss": 219,
      "param": 220,
      "ult": 221,
      "Re": 222,
      "key": 223,
      "ob": 224,
      "list": 225,
      "ta": 226,
      "ol": 227,
      "ror": 228,
      "end": 229,
      "cl": 230,
      "out": 231,
      "pa": 232,
      "able": 233,
      "args": 234,
      "il": 235,
      "len": 236,
      "with": 237,
      "qu": 238,
      "rom": 239,
      "sh": 240,
      "time": 241,
      "ment": 242,
      "do": 243,
      "la": 244,
      "vi": 245,
      "ass": 246,
      "from": 247,
      "je": 248,
      "lin": 249,
      "ts": 250,
      "ren": 251,
      "su": 252,
      "ject": 253,
      "bu": 254,
      "ord": 255,
      "bo": 256,
      "ance": 257,
      "else": 258,
      "age": 259,
      "per": 260,
      "put": 261,
      "ba": 262,
      "log": 263,
      "col": 264,
      "ly": 265,
      "ted": 266,
      "Tr": 267,
      "pre": 268,
      "fo": 269,
      "inst": 270,
      "app": 271,
      "us": 272,
      "que": 273,
      "rror": 274,
      "xt": 275,
      "Error": 276,
      "sion": 277,
      "ig": 278,
      "ise": 279,
      "fig": 280,
      "format": 281,
      "cep": 282,
      "by": 283,
      "so": 284,
      "ort": 285,
      "True": 286,
      "ll": 287,
      "date": 288,
      "ms": 289,
      "add": 290,
      "ze": 291,
      "The": 292,
      "string": 293,
      "ic": 294,
      "sc": 295,
      "ist": 296,
      "red": 297,
      "com": 298,
      "fun": 299,
      "et": 300,
      "use": 301,
      "Return": 302,
      "code": 303,
      "che": 304,
      "alse": 305,
      "text": 306,
      "raise": 307,
      "od": 308,
      "mple": 309,
      "object": 310,
      "pec": 311,
      "dict": 312,
      "are": 313,
      "num": 314,
      "ault": 315,
      "this": 316,
      "that": 317,
      "False": 318,
      "eld": 319,
      "we": 320,
      "cur": 321,
      "result": 322,
      "tri": 323,
      "wh": 324,
      "config": 325,
      "instance": 326,
      "ht": 327,
      "del": 328,
      "ite": 329,
      "ers": 330,
      "quest": 331,
      "py": 332,
      "ac": 333,
      "kw": 334,
      "read": 335,
      "ext": 336,
      "ca": 337,
      "In": 338,
      "line": 339,
      "fe": 340,
      "rent": 341,
      "new": 342,
      "dex": 343,
      "meth": 344,
      "ray": 345,
      "min": 346,
      "urce": 347,
      "np": 348,
      "user": 349,
      "kwargs": 350,
      "sa": 351,
      "sub": 352,
      "ange": 353,
      "default": 354,
      "iv": 355,
      "star": 356,
      "00": 357,
      "request": 358,
      "excep": 359,
      "reate": 360,
      "node": 361,
      "class": 362,
      "os": 363,
      "fa": 364,
      "try": 365,
      "ho": 366,
      "spec": 367,
      "ctor": 368,
      "und": 369,
      "cess": 370,
      "cont": 371,
      "var": 372,
      "option": 373,
      "pr": 374,
      "low": 375,
      "index": 376,
      "pon": 377,
      "ure": 378,
      "sy": 379,
      "ust": 380,
      "method": 381,
      "array": 382,
      "sen": 383,
      "ameter": 384,
      "cal": 385,
      "sp": 386,
      "append": 387,
      "field": 388,
      "comp": 389,
      "ind": 390,
      "size": 391,
      "ary": 392,
      "error": 393,
      "call": 394,
      "base": 395,
      "url": 396,
      "values": 397,
      "ber": 398,
      "function": 399,
      "ip": 400,
      "max": 401,
      "ument": 402,
      "ces": 403,
      "ther": 404,
      "ger": 405,
      "Returns": 406,
      "If": 407,
      "info": 408,
      "ph": 409,
      "load": 410,
      "du": 411,
      "im": 412,
      "Con": 413,
      "coun": 414,
      "model": 415,
      "gro": 416,
      "ot": 417,
      "has": 418,
      "form": 419,
      "comm": 420,
      "will": 421,
      "ded": 422,
      "rip": 423,
      "respon": 424,
      "tes": 425,
      "output": 426,
      "start": 427,
      "state": 428,
      "stat": 429,
      "dir": 430,
      "Ex": 431,
      "enti": 432,
      "map": 433,
      "iven": 434,
      "inter": 435,
      "gs": 436,
      "ile": 437,
      "ev": 438,
      "au": 439,
      "valid": 440,
      "om": 441,
      "elif": 442,
      "pla": 443,
      "gen": 444,
      "back": 445,
      "tain": 446,
      "version": 447,
      "sig": 448,
      "ork": 449,
      "ele": 450,
      "group": 451,
      "except": 452,
      "ild": 453,
      "mess": 454,
      "ali": 455,
      "point": 456,
      "Th": 457,
      "ated": 458,
      "ator": 459,
      "message": 460,
      "head": 461,
      "given": 462,
      "names": 463,
      "Val": 464,
      "input": 465,
      "can": 466,
      "match": 467,
      "print": 468,
      "ery": 469,
      "response": 470,
      "ype": 471,
      "cli": 472,
      "lab": 473,
      "work": 474,
      "ax": 475,
      "Par": 476,
      "lock": 477,
      "reg": 478,
      "create": 479,
      "specif": 480,
      "tar": 481,
      "ans": 482,
      "row": 483,
      "ep": 484,
      "obj": 485,
      "attr": 486,
      "ask": 487,
      "cation": 488,
      "temp": 489,
      "port": 490,
      "update": 491,
      "ub": 492,
      "run": 493,
      "params": 494,
      "word": 495,
      "check": 496,
      "vice": 497,
      "rec": 498,
      "ken": 499,
      "sho": 500,
      "mage": 501,
      "ameters": 502,
      "number": 503,
      "son": 504,
      "gra": 505,
      "This": 506,
      "vari": 507,
      "current": 508,
      "iter": 509,
      "sha": 510,
      "label": 511,
      "sed": 512,
      "der": 513,
      "wn": 514,
      "ha": 515,
      "contain": 516,
      "isinstance": 517,
      "count": 518,
      "umn": 519,
      "ir": 520,
      "flo": 521,
      "uld": 522,
      "ity": 523,
      "dire": 524,
      "query": 525,
      "ting": 526,
      "Value": 527,
      "table": 528,
      "jo": 529,
      "ret": 530,
      "fil": 531,
      "item": 532,
      "source": 533,
      "dis": 534,
      "float": 535,
      "its": 536,
      "event": 537,
      "ied": 538,
      "ok": 539,
      "sign": 540,
      "Ar": 541,
      "rite": 542,
      "ds": 543,
      "tra": 544,
      "De": 545,
      "ay": 546,
      "ute": 547,
      "imp": 548,
      "ress": 549,
      "range": 550,
      "image": 551,
      "column": 552,
      "filen": 553,
      "ER": 554,
      "tp": 555,
      "token": 556,
      "tribu": 557,
      "cor": 558,
      "filename": 559,
      "join": 560,
      "doc": 561,
      "fix": 562,
      "pi": 563,
      "hand": 564,
      "argument": 565,
      "pass": 566,
      "ON": 567,
      "remo": 568,
      "arch": 569,
      "json": 570,
      "target": 571,
      "lit": 572,
      "command": 573,
      "content": 574,
      "em": 575,
      "ies": 576,
      "files": 577,
      "pl": 578,
      "used": 579,
      "conne": 580,
      "ID": 581,
      "scrip": 582,
      "exist": 583,
      "only": 584,
      "ach": 585,
      "ry": 586,
      "ource": 587,
      "Co": 588,
      "shape": 589,
      "ses": 590,
      "ich": 591,
      "sor": 592,
      "qui": 593,
      "gth": 594,
      "keys": 595,
      "ang": 596,
      "block": 597,
      "les": 598,
      "cke": 599,
      "ag": 600,
      "any": 601,
      "IN": 602,
      "ments": 603,
      "pos": 604,
      "write": 605,
      "sing": 606,
      "which": 607,
      "modu": 608,
      "filter": 609,
      "ff": 610,
      "late": 611,
      "plo": 612,
      "Type": 613,
      "ard": 614,
      "rame": 615,
      "lic": 616,
      "ree": 617,
      "status": 618,
      "sup": 619,
      "items": 620,
      "No": 621,
      "vel": 622,
      "ec": 623,
      "ml": 624,
      "fir": 625,
      "process": 626,
      "bug": 627,
      "Get": 628,
      "split": 629,
      "func": 630,
      "ref": 631,
      "df": 632,
      "RE": 633,
      "host": 634,
      "gr": 635,
      "client": 636,
      "parse": 637,
      "net": 638,
      "dif": 639,
      "other": 640,
      "ST": 641,
      "lat": 642,
      "length": 643,
      "clu": 644,
      "til": 645,
      "pri": 646,
      "sta": 647,
      "pace": 648,
      "place": 649,
      "context": 650,
      "lay": 651,
      "gener": 652,
      "ations": 653,
      "auth": 654,
      "ning": 655,
      "ant": 656,
      "msg": 657,
      "ValueError": 658,
      "ive": 659,
      "sum": 660,
      "ence": 661,
      "variable": 662,
      "tup": 663,
      "AT": 664,
      "http": 665,
      "action": 666,
      "debug": 667,
      "ding": 668,
      "orm": 669,
      "over": 670,
      "dist": 671,
      "ory": 672,
      "ull": 673,
      "Data": 674,
      "off": 675,
      "returns": 676,
      "logger": 677,
      "Lo": 678,
      "color": 679,
      "import": 680,
      "options": 681,
      "attribu": 682,
      "tions": 683,
      "ug": 684,
      "sess": 685,
      "Se": 686,
      "sample": 687,
      "open": 688,
      "bin": 689,
      "trans": 690,
      "exp": 691,
      "whe": 692,
      "av": 693,
      "md": 694,
      "cs": 695,
      "ctory": 696,
      "cls": 697,
      "stru": 698,
      "specified": 699,
      "first": 700,
      "led": 701,
      "ron": 702,
      "ample": 703,
      "ates": 704,
      "Pro": 705,
      "ini": 706,
      "should": 707,
      "Ad": 708,
      "module": 709,
      "order": 710,
      "bool": 711,
      "resource": 712,
      "change": 713,
      "ew": 714,
      "atch": 715,
      "api": 716,
      "ally": 717,
      "feren": 718,
      "lim": 719,
      "ble": 720,
      "wid": 721,
      "each": 722,
      "diction": 723,
      "into": 724,
      "nel": 725,
      "clo": 726,
      "sto": 727,
      "tag": 728,
      "10": 729,
      "Name": 730,
      "must": 731,
      "lib": 732,
      "ci": 733,
      "server": 734,
      "have": 735,
      "old": 736,
      "act": 737,
      "ine": 738,
      "find": 739,
      "tive": 740,
      "dep": 741,
      "plot": 742,
      "main": 743,
      "mode": 744,
      "session": 745,
      "pack": 746,
      "level": 747,
      "presen": 748,
      "parent": 749,
      "Set": 750,
      "ature": 751,
      "record": 752,
      "optional": 753,
      "mul": 754,
      "char": 755,
      "zer": 756,
      "ET": 757,
      "last": 758,
      "tern": 759,
      "raw": 760,
      "db": 761,
      "ream": 762,
      "igh": 763,
      "ension": 764,
      "Create": 765,
      "ase": 766,
      "dy": 767,
      "ight": 768,
      "tuple": 769,
      "seri": 770,
      "alt": 771,
      "results": 772,
      "hel": 773,
      "requi": 774,
      "uni": 775,
      "mis": 776,
      "Excep": 777,
      "local": 778,
      "parameters": 779,
      "cket": 780,
      "sert": 781,
      "task": 782,
      "En": 783,
      "Un": 784,
      "thon": 785,
      "header": 786,
      "proper": 787,
      "when": 788,
      "ler": 789,
      "root": 790,
      "Exception": 791,
      "search": 792,
      "adata": 793,
      "link": 794,
      "cle": 795,
      "lines": 796,
      "ties": 797,
      "using": 798,
      "page": 799,
      "types": 800,
      "List": 801,
      "posi": 802,
      "element": 803,
      "fields": 804,
      "enc": 805,
      "child": 806,
      "mem": 807,
      "war": 808,
      "yo": 809,
      "axis": 810,
      "make": 811,
      "sco": 812,
      "template": 813,
      "ak": 814,
      "dim": 815,
      "test": 816,
      "prefix": 817,
      "OR": 818,
      "ten": 819,
      "cted": 820,
      "cache": 821,
      "01": 822,
      "met": 823,
      "util": 824,
      "dele": 825,
      "graph": 826,
      "indi": 827,
      "ield": 828,
      "address": 829,
      "oper": 830,
      "St": 831,
      "frame": 832,
      "pop": 833,
      "rap": 834,
      "AP": 835,
      "top": 836,
      "tit": 837,
      "wa": 838,
      "copy": 839,
      "setting": 840,
      "Res": 841,
      "exec": 842,
      "but": 843,
      "parser": 844,
      "ump": 845,
      "chan": 846,
      "DE": 847,
      "For": 848,
      "service": 849,
      "Parameters": 850,
      "uration": 851,
      "ey": 852,
      "cul": 853,
      "struct": 854,
      "idx": 855,
      "found": 856,
      "stream": 857,
      "da": 858,
      "directory": 859,
      "cmd": 860,
      "Args": 861,
      "ference": 862,
      "offset": 863,
      "mar": 864,
      "clude": 865,
      "callback": 866,
      "An": 867,
      "norm": 868,
      "af": 869,
      "sele": 870,
      "dictionary": 871,
      "UR": 872,
      "cate": 873,
      "man": 874,
      "lob": 875,
      "vert": 876,
      "ids": 877,
      "step": 878,
      "view": 879,
      "job": 880,
      "sequ": 881,
      "extra": 882,
      "multi": 883,
      "build": 884,
      "Key": 885,
      "AN": 886,
      "scal": 887,
      "yn": 888,
      "objects": 889,
      "iz": 890,
      "identi": 891,
      "timeout": 892,
      "fol": 893,
      "por": 894,
      "face": 895,
      "go": 896,
      "rel": 897,
      "Op": 898,
      "metadata": 899,
      "stem": 900,
      "lon": 901,
      "project": 902,
      "bytes": 903,
      "EN": 904,
      "next": 905,
      "ast": 906,
      "replace": 907,
      "then": 908,
      "connection": 909,
      "headers": 910,
      "rix": 911,
      "entry": 912,
      "io": 913,
      "width": 914,
      "descrip": 915,
      "emp": 916,
      "Id": 917,
      "hash": 918,
      "location": 919,
      "contin": 920,
      "like": 921,
      "secon": 922,
      "parameter": 923,
      "remove": 924,
      "ener": 925,
      "unk": 926,
      "ping": 927,
      "ail": 928,
      "datetime": 929,
      "down": 930,
      "arguments": 931,
      "ual": 932,
      "ous": 933,
      "AL": 934,
      "sche": 935,
      "aliz": 936,
      "channel": 937,
      "To": 938,
      "does": 939,
      "dtype": 940,
      "AR": 941,
      "orig": 942,
      "coord": 943,
      "store": 944,
      "where": 945,
      "sys": 946,
      "fla": 947,
      "fin": 948,
      "env": 949,
      "title": 950,
      "ped": 951,
      "Che": 952,
      "matrix": 953,
      "fore": 954,
      "ght": 955,
      "comple": 956,
      "tran": 957,
      "points": 958,
      "alize": 959,
      "File": 960,
      "umpy": 961,
      "ging": 962,
      "cent": 963,
      "LE": 964,
      "play": 965,
      "nodes": 966,
      "salt": 967,
      "olu": 968,
      "vis": 969,
      "network": 970,
      "section": 971,
      "tree": 972,
      "body": 973,
      "exists": 974,
      "continue": 975,
      "provi": 976,
      "br": 977,
      "wo": 978,
      "Add": 979,
      "package": 980,
      "numpy": 981,
      "tional": 982,
      "device": 983,
      "win": 984,
      "ved": 985,
      "rc": 986,
      "edge": 987,
      "Check": 988,
      "vo": 989,
      "columns": 990,
      "parti": 991,
      "send": 992,
      "12": 993,
      "ures": 994,
      "ime": 995,
      "post": 996,
      "ME": 997,
      "Di": 998,
      "strip": 999,
      "sure": 1000,
      "formation": 1001,
      "non": 1002,
      "rand": 1003,
      "settings": 1004,
      "sym": 1005,
      "allow": 1006,
      "wait": 1007,
      "tal": 1008,
      "LO": 1009,
      "you": 1010,
      "cre": 1011,
      "inte": 1012,
      "ft": 1013,
      "full": 1014,
      "colle": 1015,
      "req": 1016,
      "rtype": 1017,
      "amb": 1018,
      "ain": 1019,
      "Def": 1020,
      "dataset": 1021,
      "limit": 1022,
      "single": 1023,
      "dest": 1024,
      "batch": 1025,
      "attribute": 1026,
      "lower": 1027,
      "std": 1028,
      "same": 1029,
      "defin": 1030,
      "Ser": 1031,
      "cat": 1032,
      "wrap": 1033,
      "ule": 1034,
      "case": 1035,
      "container": 1036,
      "ath": 1037,
      "ready": 1038,
      "system": 1039,
      "save": 1040,
      "handle": 1041,
      "ith": 1042,
      "pub": 1043,
      "als": 1044,
      "represen": 1045,
      "was": 1046,
      "way": 1047,
      "ents": 1048,
      "cer": 1049,
      "dow": 1050,
      "initi": 1051,
      "bre": 1052,
      "mask": 1053,
      "returned": 1054,
      "assert": 1055,
      "mer": 1056,
      "delete": 1057,
      "need": 1058,
      "const": 1059,
      "password": 1060,
      "mag": 1061,
      "ign": 1062,
      "termin": 1063,
      "ched": 1064,
      "xy": 1065,
      "sequence": 1066,
      "Py": 1067,
      "mt": 1068,
      "est": 1069,
      "space": 1070,
      "thread": 1071,
      "my": 1072,
      "bound": 1073,
      "API": 1074,
      "err": 1075,
      "exception": 1076,
      "mon": 1077,
      "description": 1078,
      "sk": 1079,
      "HT": 1080,
      "loc": 1081,
      "while": 1082,
      "SE": 1083,
      "glob": 1084,
      "iled": 1085,
      "cho": 1086,
      "utils": 1087,
      "Do": 1088,
      "required": 1089,
      "ccess": 1090,
      "abs": 1091,
      "labels": 1092,
      "Ob": 1093,
      "pect": 1094,
      "tor": 1095,
      "show": 1096,
      "stop": 1097,
      "origin": 1098,
      "ish": 1099,
      "errors": 1100,
      "namespace": 1101,
      "yield": 1102,
      "day": 1103,
      "32": 1104,
      "encode": 1105,
      "ker": 1106,
      "sq": 1107,
      "queue": 1108,
      "metri": 1109,
      "Mo": 1110,
      "resh": 1111,
      "100": 1112,
      "tail": 1113,
      "logging": 1114,
      "regist": 1115,
      "pattern": 1116,
      "At": 1117,
      "ambda": 1118,
      "opts": 1119,
      "total": 1120,
      "enco": 1121,
      "help": 1122,
      "include": 1123,
      "asyn": 1124,
      "more": 1125,
      "information": 1126,
      "tf": 1127,
      "bit": 1128,
      "auto": 1129,
      "viron": 1130,
      "ins": 1131,
      "after": 1132,
      "nd": 1133,
      "TI": 1134,
      "close": 1135,
      "part": 1136,
      "seg": 1137,
      "random": 1138,
      "avail": 1139,
      "wise": 1140,
      "og": 1141,
      "empty": 1142,
      "ple": 1143,
      "flow": 1144,
      "TP": 1145,
      "position": 1146,
      "imum": 1147,
      "document": 1148,
      "now": 1149,
      "layer": 1150,
      "pas": 1151,
      "Ele": 1152,
      "bet": 1153,
      "fl": 1154,
      "reference": 1155,
      "side": 1156,
      "den": 1157,
      "compon": 1158,
      "Comp": 1159,
      "mi": 1160,
      "python": 1161,
      "meta": 1162,
      "break": 1163,
      "box": 1164,
      "AC": 1165,
      "FI": 1166,
      "tool": 1167,
      "xml": 1168,
      "fn": 1169,
      "unt": 1170,
      "look": 1171,
      "html": 1172,
      "ili": 1173,
      "stack": 1174,
      "pk": 1175,
      "Up": 1176,
      "lambda": 1177,
      "Str": 1178,
      "schema": 1179,
      "pay": 1180,
      "configuration": 1181,
      "warning": 1182,
      "profile": 1183,
      "Gener": 1184,
      "stamp": 1185,
      "TO": 1186,
      "right": 1187,
      "ps": 1188,
      "ess": 1189,
      "Po": 1190,
      "provided": 1191,
      "access": 1192,
      "URL": 1193,
      "handler": 1194,
      "SS": 1195,
      "may": 1196,
      "ating": 1197,
      "region": 1198,
      "mean": 1199,
      "init": 1200,
      "left": 1201,
      "identifi": 1202,
      "attributes": 1203,
      "ML": 1204,
      "rest": 1205,
      "ative": 1206,
      "64": 1207,
      "cell": 1208,
      "ify": 1209,
      "DO": 1210,
      "chunk": 1211,
      "ud": 1212,
      "Default": 1213,
      "IP": 1214,
      "before": 1215,
      "enum": 1216,
      "ill": 1217,
      "example": 1218,
      "rows": 1219,
      "sort": 1220,
      "ns": 1221,
      "pair": 1222,
      "tmp": 1223,
      "available": 1224,
      "already": 1225,
      "gram": 1226,
      "ell": 1227,
      "ash": 1228,
      "paths": 1229,
      "igno": 1230,
      "rt": 1231,
      "mail": 1232,
      "appli": 1233,
      "Run": 1234,
      "there": 1235,
      "tags": 1236,
      "ef": 1237,
      "environ": 1238,
      "zip": 1239,
      "than": 1240,
      "syn": 1241,
      "uid": 1242,
      "depend": 1243,
      "Time": 1244,
      "database": 1245,
      "Element": 1246,
      "ful": 1247,
      "sty": 1248,
      "grid": 1249,
      "ize": 1250,
      "just": 1251,
      "25": 1252,
      "mod": 1253,
      "exc": 1254,
      "based": 1255,
      "conf": 1256,
      "adi": 1257,
      "see": 1258,
      "passed": 1259,
      "vector": 1260,
      "collection": 1261,
      "We": 1262,
      "Ch": 1263,
      "ole": 1264,
      "peri": 1265,
      "domain": 1266,
      "Example": 1267,
      "ression": 1268,
      "site": 1269,
      "men": 1270,
      "ween": 1271,
      "uri": 1272,
      "feature": 1273,
      "defined": 1274,
      "aly": 1275,
      "ound": 1276,
      "src": 1277,
      "UT": 1278,
      "vid": 1279,
      "unit": 1280,
      "true": 1281,
      "seq": 1282,
      "interface": 1283,
      "CO": 1284,
      "medi": 1285,
      "between": 1286,
      "direct": 1287,
      "16": 1288,
      "desc": 1289,
      "ical": 1290,
      "samples": 1291,
      "comment": 1292,
      "encoding": 1293,
      "sec": 1294,
      "rect": 1295,
      "specific": 1296,
      "bro": 1297,
      "bar": 1298,
      "Sub": 1299,
      "keyword": 1300,
      "https": 1301,
      "window": 1302,
      "ustom": 1303,
      "sorted": 1304,
      "mary": 1305,
      "RO": 1306,
      "buff": 1307,
      "containing": 1308,
      "Not": 1309,
      "username": 1310,
      "script": 1311,
      "two": 1312,
      "cf": 1313,
      "mapping": 1314,
      "some": 1315,
      "clust": 1316,
      "created": 1317,
      "suppor": 1318,
      "properties": 1319,
      "dimension": 1320,
      "Frame": 1321,
      "train": 1322,
      "Col": 1323,
      "decode": 1324,
      "wr": 1325,
      "account": 1326,
      "mission": 1327,
      "Read": 1328,
      "pp": 1329,
      "success": 1330,
      "move": 1331,
      "ear": 1332,
      "elements": 1333,
      "scale": 1334,
      "tifi": 1335,
      "Au": 1336,
      "added": 1337,
      "feat": 1338,
      "seconds": 1339,
      "variables": 1340,
      "timestamp": 1341,
      "connect": 1342,
      "sin": 1343,
      "cr": 1344,
      "sn": 1345,
      "starts": 1346,
      "convert": 1347,
      "git": 1348,
      "TE": 1349,
      "eval": 1350,
      "ugh": 1351,
      "bol": 1352,
      "extension": 1353,
      "ager": 1354,
      "hist": 1355,
      "tiv": 1356,
      "SI": 1357,
      "org": 1358,
      "ake": 1359,
      "ryp": 1360,
      "ank": 1361,
      "indices": 1362,
      "very": 1363,
      "ead": 1364,
      "stats": 1365,
      "fail": 1366,
      "LI": 1367,
      "ner": 1368,
      "loop": 1369,
      "delta": 1370,
      "cy": 1371,
      "JS": 1372,
      "force": 1373,
      "TypeError": 1374,
      "height": 1375,
      "interval": 1376,
      "qual": 1377,
      "pected": 1378,
      "groups": 1379,
      "calcul": 1380,
      "ster": 1381,
      "payload": 1382,
      "style": 1383,
      "bed": 1384,
      "annot": 1385,
      "Me": 1386,
      "anch": 1387,
      "follow": 1388,
      "gor": 1389,
      "diff": 1390,
      "fit": 1391,
      "plug": 1392,
      "active": 1393,
      "ency": 1394,
      "zone": 1395,
      "Config": 1396,
      "ends": 1397,
      "proto": 1398,
      "chain": 1399,
      "dec": 1400,
      "PE": 1401,
      "distance": 1402,
      "thing": 1403,
      "called": 1404,
      "verbo": 1405,
      "lang": 1406,
      "bl": 1407,
      "unique": 1408,
      "remote": 1409,
      "math": 1410,
      "20": 1411,
      "modif": 1412,
      "ither": 1413,
      "Al": 1414,
      "med": 1415,
      "NO": 1416,
      "detail": 1417,
      "HTTP": 1418,
      "stor": 1419,
      "nown": 1420,
      "unicode": 1421,
      "getattr": 1422,
      "custom": 1423,
      "buffer": 1424,
      "Path": 1425,
      "strings": 1426,
      "JSON": 1427,
      "display": 1428,
      "Cl": 1429,
      "ome": 1430,
      "operation": 1431,
      "contro": 1432,
      "des": 1433,
      "sible": 1434,
      "fra": 1435,
      "sli": 1436,
      "weigh": 1437,
      "PO": 1438,
      "Update": 1439,
      "cap": 1440,
      "core": 1441,
      "hasattr": 1442,
      "conn": 1443,
      "Ra": 1444,
      "identifier": 1445,
      "also": 1446,
      "Num": 1447,
      "produ": 1448,
      "condi": 1449,
      "enable": 1450,
      "charact": 1451,
      "rep": 1452,
      "NA": 1453,
      "imple": 1454,
      "gin": 1455,
      "integer": 1456,
      "coordin": 1457,
      "ndarray": 1458,
      "oc": 1459,
      "been": 1460,
      "alph": 1461,
      "methods": 1462,
      "olume": 1463,
      "models": 1464,
      "etch": 1465,
      "author": 1466,
      "mark": 1467,
      "requests": 1468,
      "Com": 1469,
      "Qu": 1470,
      "existing": 1471,
      "analy": 1472,
      "cp": 1473,
      "let": 1474,
      "series": 1475,
      "11": 1476,
      "ility": 1477,
      "enumer": 1478,
      "property": 1479,
      "register": 1480,
      "email": 1481,
      "Cal": 1482,
      "AD": 1483,
      "lease": 1484,
      "verse": 1485,
      "depth": 1486,
      "ose": 1487,
      "expected": 1488,
      "byte": 1489,
      "cord": 1490,
      "symbol": 1491,
      "vent": 1492,
      "term": 1493,
      "features": 1494,
      "addr": 1495,
      "Request": 1496,
      "proxy": 1497,
      "alized": 1498,
      "factor": 1499,
      "dump": 1500,
      "bers": 1501,
      "Python": 1502,
      "IO": 1503,
      "defini": 1504,
      "sent": 1505,
      "cts": 1506,
      "See": 1507,
      "201": 1508,
      "ls": 1509,
      "Bu": 1510,
      "global": 1511,
      "Invalid": 1512,
      "asses": 1513,
      "generate": 1514,
      "String": 1515,
      "fer": 1516,
      "licy": 1517,
      "stdout": 1518,
      "scope": 1519,
      "flag": 1520,
      "repo": 1521,
      "async": 1522,
      "Index": 1523,
      "thro": 1524,
      "here": 1525,
      "Hand": 1526,
      "ignore": 1527,
      "tation": 1528,
      "validate": 1529,
      "merge": 1530,
      "ude": 1531,
      "missing": 1532,
      "Per": 1533,
      "supported": 1534,
      "folder": 1535,
      "them": 1536,
      "whether": 1537,
      "rate": 1538,
      "Object": 1539,
      "skip": 1540,
      "transform": 1541,
      "UL": 1542,
      "entity": 1543,
      "cluster": 1544,
      "rece": 1545,
      "wer": 1546,
      "Dict": 1547,
      "rule": 1548,
      "MA": 1549,
      "ked": 1550,
      "verbose": 1551,
      "On": 1552,
      "sets": 1553,
      "endpoint": 1554,
      "Inst": 1555,
      "zero": 1556,
      "original": 1557,
      "99": 1558,
      "score": 1559,
      "changes": 1560,
      "parts": 1561,
      "events": 1562,
      "exit": 1563,
      "prob": 1564,
      "It": 1565,
      "startswith": 1566,
      "socket": 1567,
      "oci": 1568,
      "metric": 1569,
      "ctx": 1570,
      "clean": 1571,
      "Parse": 1572,
      "dev": 1573,
      "cause": 1574,
      "DataFrame": 1575,
      "istr": 1576,
      "LOG": 1577,
      "ants": 1578,
      "helper": 1579,
      "report": 1580,
      "vices": 1581,
      "Bo": 1582,
      "either": 1583,
      "disable": 1584,
      "times": 1585,
      "conver": 1586,
      "dat": 1587,
      "application": 1588,
      "note": 1589,
      "ier": 1590,
      "UN": 1591,
      "enumerate": 1592,
      "tokens": 1593,
      "second": 1594,
      "ial": 1595,
      "angle": 1596,
      "Arg": 1597,
      "common": 1598,
      "Attribu": 1599,
      "align": 1600,
      "olean": 1601,
      "User": 1602,
      "rop": 1603,
      "correspon": 1604,
      "ush": 1605,
      "uage": 1606,
      "TY": 1607,
      "volume": 1608,
      "matches": 1609,
      "ont": 1610,
      "signal": 1611,
      "structure": 1612,
      "dt": 1613,
      "ING": 1614,
      "weights": 1615,
      "ves": 1616,
      "separ": 1617,
      "Cont": 1618,
      "radi": 1619,
      "cursor": 1620,
      "super": 1621,
      "resol": 1622,
      "multiple": 1623,
      "units": 1624,
      "upper": 1625,
      "classes": 1626,
      "assign": 1627,
      "defaults": 1628,
      "gre": 1629,
      "alog": 1630,
      "apply": 1631,
      "execute": 1632,
      "edi": 1633,
      "prog": 1634,
      "Convert": 1635,
      "expression": 1636,
      "retri": 1637,
      "bi": 1638,
      "priv": 1639,
      "saction": 1640,
      "200": 1641,
      "contains": 1642,
      "attrs": 1643,
      "running": 1644,
      "Or": 1645,
      "memory": 1646,
      "invalid": 1647,
      "pool": 1648,
      "contents": 1649,
      "thresh": 1650,
      "ribu": 1651,
      "ries": 1652,
      "utf": 1653,
      "ack": 1654,
      "route": 1655,
      "ization": 1656,
      "associ": 1657,
      "Note": 1658,
      "flags": 1659,
      "Load": 1660,
      "Ver": 1661,
      "Fa": 1662,
      "Raise": 1663,
      "storage": 1664,
      "Valid": 1665,
      "cu": 1666,
      "sw": 1667,
      "parsed": 1668,
      "trace": 1669,
      "CH": 1670,
      "vious": 1671,
      "gest": 1672,
      "member": 1673,
      "DI": 1674,
      "App": 1675,
      "AS": 1676,
      "Call": 1677,
      "weight": 1678,
      "pix": 1679,
      "patch": 1680,
      "branch": 1681,
      "dered": 1682,
      "ice": 1683,
      "alpha": 1684,
      "Respon": 1685,
      "stand": 1686,
      "otherwise": 1687,
      "Ge": 1688,
      "MP": 1689,
      "generator": 1690,
      "fs": 1691,
      "extend": 1692,
      "cred": 1693,
      "component": 1694,
      "sist": 1695,
      "complete": 1696,
      "children": 1697,
      "pipe": 1698,
      "sis": 1699,
      "don": 1700,
      "appro": 1701,
      "failed": 1702,
      "Ext": 1703,
      "By": 1704,
      "FA": 1705,
      "meas": 1706,
      "ld": 1707,
      "dot": 1708,
      "Argument": 1709,
      "year": 1710,
      "Optional": 1711,
      "anti": 1712,
      "utes": 1713,
      "inputs": 1714,
      "cked": 1715,
      "environment": 1716,
      "Use": 1717,
      "Log": 1718,
      "eve": 1719,
      "CE": 1720,
      "messages": 1721,
      "details": 1722,
      "ics": 1723,
      "sl": 1724,
      "aded": 1725,
      "gex": 1726,
      "policy": 1727,
      "0x": 1728,
      "download": 1729,
      "ors": 1730,
      "decor": 1731,
      "DB": 1732,
      "relation": 1733,
      "TODO": 1734,
      "As": 1735,
      "manager": 1736,
      "derr": 1737,
      "less": 1738,
      "language": 1739,
      "previous": 1740,
      "center": 1741,
      "fill": 1742,
      "commit": 1743,
      "suf": 1744,
      "pd": 1745,
      "15": 1746,
      "own": 1747,
      "Class": 1748,
      "ww": 1749,
      "keep": 1750,
      "requ": 1751,
      "Response": 1752,
      "stderr": 1753,
      "book": 1754,
      "initial": 1755,
      "long": 1756,
      "through": 1757,
      "AG": 1758,
      "select": 1759,
      "mand": 1760,
      "web": 1761,
      "period": 1762,
      "ible": 1763,
      "vm": 1764,
      "correct": 1765,
      "binary": 1766,
      "Node": 1767,
      "ANG": 1768,
      "real": 1769,
      "0000": 1770,
      "counts": 1771,
      "Attribute": 1772,
      "role": 1773,
      "sql": 1774,
      "Cli": 1775,
      "Ac": 1776,
      "CON": 1777,
      "cast": 1778,
      "compute": 1779,
      "they": 1780,
      "mu": 1781,
      "accep": 1782,
      "how": 1783,
      "ular": 1784,
      "ling": 1785,
      "KeyError": 1786,
      "tem": 1787,
      "present": 1788,
      "ward": 1789,
      "olution": 1790,
      "high": 1791,
      "entries": 1792,
      "txt": 1793,
      "bits": 1794,
      "Pre": 1795,
      "fetch": 1796,
      "plugin": 1797,
      "ton": 1798,
      "Wh": 1799,
      "Spec": 1800,
      "within": 1801,
      "install": 1802,
      "ract": 1803,
      "edges": 1804,
      "repos": 1805,
      "sm": 1806,
      "arr": 1807,
      "supp": 1808,
      "Array": 1809,
      "widget": 1810,
      "private": 1811,
      "take": 1812,
      "inclu": 1813,
      "lot": 1814,
      "distribu": 1815,
      "pc": 1816,
      "resp": 1817,
      "opt": 1818,
      "functions": 1819,
      "24": 1820,
      "img": 1821,
      "exceptions": 1822,
      "prec": 1823,
      "segment": 1824,
      "sity": 1825,
      "maximum": 1826,
      "prior": 1827,
      "atta": 1828,
      "ination": 1829,
      "alle": 1830,
      "axes": 1831,
      "sol": 1832,
      "want": 1833,
      "30": 1834,
      "cfg": 1835,
      "NAME": 1836,
      "instead": 1837,
      "eded": 1838,
      "rout": 1839,
      "Model": 1840,
      "Reg": 1841,
      "bot": 1842,
      "flat": 1843,
      "regex": 1844,
      "State": 1845,
      "tools": 1846,
      "zeros": 1847,
      "FF": 1848,
      "prop": 1849,
      "tex": 1850,
      "following": 1851,
      "changed": 1852,
      "iterable": 1853,
      "boolean": 1854,
      "eno": 1855,
      "csv": 1856,
      "lish": 1857,
      "loaded": 1858,
      "actions": 1859,
      "Fun": 1860,
      "signature": 1861,
      "CT": 1862,
      "Build": 1863,
      "Find": 1864,
      "done": 1865,
      "ived": 1866,
      "transaction": 1867,
      "their": 1868,
      "possible": 1869,
      "ving": 1870,
      "vals": 1871,
      "ATE": 1872,
      "states": 1873,
      "without": 1874,
      "intern": 1875,
      "mented": 1876,
      "AB": 1877,
      "bucket": 1878,
      "bind": 1879,
      "Calcul": 1880,
      "Dis": 1881,
      "hex": 1882,
      "iti": 1883,
      "ferent": 1884,
      "ws": 1885,
      "ized": 1886,
      "Number": 1887,
      "ride": 1888,
      "ily": 1889,
      "Mess": 1890,
      "Message": 1891,
      "raises": 1892,
      "summary": 1893,
      "Text": 1894,
      "records": 1895,
      "sid": 1896,
      "cade": 1897,
      "lookup": 1898,
      "conv": 1899,
      "tensor": 1900,
      "sition": 1901,
      "itch": 1902,
      "Conne": 1903,
      "cols": 1904,
      "master": 1905,
      "six": 1906,
      "ix": 1907,
      "suffix": 1908,
      "ending": 1909,
      "50": 1910,
      "quo": 1911,
      "ically": 1912,
      "subject": 1913,
      "cker": 1914,
      "rary": 1915,
      "sur": 1916,
      "our": 1917,
      "ints": 1918,
      "Raises": 1919,
      "activ": 1920,
      "sive": 1921,
      "matching": 1922,
      "relat": 1923,
      "fmt": 1924,
      "na": 1925,
      "40": 1926,
      "best": 1927,
      "writ": 1928,
      "poly": 1929,
      "insert": 1930,
      "ution": 1931,
      "extract": 1932,
      "Star": 1933,
      "retry": 1934,
      "verage": 1935,
      "alias": 1936,
      "slice": 1937,
      "tx": 1938,
      "ditional": 1939,
      "fname": 1940,
      "about": 1941,
      "under": 1942,
      "ru": 1943,
      "ific": 1944,
      "different": 1945,
      "determin": 1946,
      "permission": 1947,
      "instances": 1948,
      "direction": 1949,
      "chron": 1950,
      "plt": 1951,
      "sim": 1952,
      "clear": 1953,
      "known": 1954,
      "gory": 1955,
      "Stat": 1956,
      "most": 1957,
      "require": 1958,
      "Input": 1959,
      "iss": 1960,
      "definition": 1961,
      "kind": 1962,
      "filters": 1963,
      "recur": 1964,
      "ware": 1965,
      "Out": 1966,
      "registr": 1967,
      "public": 1968,
      "ong": 1969,
      "every": 1970,
      "modules": 1971,
      "pid": 1972,
      "proces": 1973,
      "gy": 1974,
      "v1": 1975,
      "dete": 1976,
      "corresponding": 1977,
      "false": 1978,
      "final": 1979,
      "font": 1980,
      "images": 1981,
      "gorith": 1982,
      "Gra": 1983,
      "via": 1984,
      "dri": 1985,
      "coordinates": 1986,
      "such": 1987,
      "adding": 1988,
      "Remove": 1989,
      "tax": 1990,
      "relative": 1991,
      "brocade": 1992,
      "ason": 1993,
      "mac": 1994,
      "specify": 1995,
      "both": 1996,
      "bas": 1997,
      "fici": 1998,
      "cloud": 1999,
      "ters": 2000,
      "null": 2001,
      "commands": 2002,
      "19": 2003,
      "arti": 2004,
      "indent": 2005,
      "resources": 2006,
      "Make": 2007,
      "setup": 2008,
      "allowed": 2009,
      "short": 2010,
      "docs": 2011,
      "ways": 2012,
      "itory": 2013,
      "TION": 2014,
      "provid": 2015,
      "hy": 2016,
      "TYPE": 2017,
      "wd": 2018,
      "condition": 2019,
      "disk": 2020,
      "Dele": 2021,
      "Client": 2022,
      "operator": 2023,
      "mit": 2024,
      "wrapper": 2025,
      "gene": 2026,
      "ie": 2027,
      "fp": 2028,
      "Gro": 2029,
      "amo": 2030,
      "named": 2031,
      "evalu": 2032,
      "80": 2033,
      "gine": 2034,
      "Fil": 2035,
      "protocol": 2036,
      "TR": 2037,
      "scan": 2038,
      "frequ": 2039,
      "authenti": 2040,
      "your": 2041,
      "samp": 2042,
      "Auth": 2043,
      "components": 2044,
      "Process": 2045,
      "render": 2046,
      "Format": 2047,
      "Sy": 2048,
      "ux": 2049,
      "Inter": 2050,
      "associated": 2051,
      "callable": 2052,
      "60": 2053,
      "OS": 2054,
      "ended": 2055,
      "rat": 2056,
      "obser": 2057,
      "pkg": 2058,
      "EL": 2059,
      "fut": 2060,
      "buf": 2061,
      "Creates": 2062,
      "being": 2063,
      "pairs": 2064,
      "US": 2065,
      "ui": 2066,
      "because": 2067,
      "ternal": 2068,
      "crip": 2069,
      "users": 2070,
      "popul": 2071,
      "partition": 2072,
      "vars": 2073,
      "lists": 2074,
      "threshold": 2075,
      "Field": 2076,
      "Result": 2077,
      "words": 2078,
      "cand": 2079,
      "updated": 2080,
      "opti": 2081,
      "until": 2082,
      "uuid": 2083,
      "Query": 2084,
      "pot": 2085,
      "exclude": 2086,
      "IS": 2087,
      "Ro": 2088,
      "mut": 2089,
      "selected": 2090,
      "andas": 2091,
      "GET": 2092,
      "Iter": 2093,
      "Instance": 2094,
      "tab": 2095,
      "hook": 2096,
      "agg": 2097,
      "aml": 2098,
      "since": 2099,
      "Event": 2100,
      "pt": 2101,
      "IT": 2102,
      "ift": 2103,
      "pixel": 2104,
      "ground": 2105,
      "combin": 2106,
      "gate": 2107,
      "ave": 2108,
      "issue": 2109,
      "cb": 2110,
      "track": 2111,
      "expr": 2112,
      "ithub": 2113,
      "EX": 2114,
      "tered": 2115,
      "compat": 2116,
      "await": 2117,
      "gorithm": 2118,
      "Item": 2119,
      "Image": 2120,
      "her": 2121,
      "leg": 2122,
      "reset": 2123,
      "steps": 2124,
      "Code": 2125,
      "Group": 2126,
      "ability": 2127,
      "AM": 2128,
      "control": 2129,
      "forms": 2130,
      "category": 2131,
      "standard": 2132,
      "upload": 2133,
      "SubElement": 2134,
      "vision": 2135,
      "month": 2136,
      "ured": 2137,
      "representation": 2138,
      "Retri": 2139,
      "tification": 2140,
      "Exec": 2141,
      "tick": 2142,
      "ib": 2143,
      "destination": 2144,
      "generated": 2145,
      "ENT": 2146,
      "ential": 2147,
      "area": 2148,
      "board": 2149,
      "analysis": 2150,
      "Des": 2151,
      "safe": 2152,
      "KE": 2153,
      "14": 2154,
      "vl": 2155,
      "roll": 2156,
      "YANG": 2157,
      "spa": 2158,
      "neigh": 2159,
      "support": 2160,
      "ES": 2161,
      "progress": 2162,
      "ULT": 2163,
      "internal": 2164,
      "ou": 2165,
      "verti": 2166,
      "agent": 2167,
      "constra": 2168,
      "sched": 2169,
      "trig": 2170,
      "lar": 2171,
      "sep": 2172,
      "these": 2173,
      "shell": 2174,
      "enabled": 2175,
      "login": 2176,
      "needed": 2177,
      "fy": 2178,
      "car": 2179,
      "dr": 2180,
      "links": 2181,
      "Trans": 2182,
      "redu": 2183,
      "Generate": 2184,
      "coords": 2185,
      "spe": 2186,
      "uses": 2187,
      "warn": 2188,
      "XML": 2189,
      "draw": 2190,
      "idden": 2191,
      "hape": 2192,
      "ferences": 2193,
      "snap": 2194,
      "encies": 2195,
      "ctive": 2196,
      "verify": 2197,
      "ypes": 2198,
      "span": 2199,
      "channels": 2200,
      "plan": 2201,
      "filepath": 2202,
      "secret": 2203,
      "mesh": 2204,
      "Base": 2205,
      "neg": 2206,
      "sigma": 2207,
      "CS": 2208,
      "ctions": 2209,
      "gp": 2210,
      "doesn": 2211,
      "ship": 2212,
      "drop": 2213,
      "DF": 2214,
      "Pr": 2215,
      "shot": 2216,
      "OP": 2217,
      "nan": 2218,
      "Var": 2219,
      "geo": 2220,
      "many": 2221,
      "release": 2222,
      "cannot": 2223,
      "measure": 2224,
      "what": 2225,
      "stored": 2226,
      "ision": 2227,
      "gn": 2228,
      "cla": 2229,
      "admin": 2230,
      "duration": 2231,
      "equal": 2232,
      "dup": 2233,
      "entials": 2234,
      "removed": 2235,
      "Ho": 2236,
      "library": 2237,
      "Tra": 2238,
      "reverse": 2239,
      "chronous": 2240,
      "none": 2241,
      "mid": 2242,
      "ross": 2243,
      "colors": 2244,
      "repository": 2245,
      "mach": 2246,
      "lear": 2247,
      "numer": 2248,
      "dirs": 2249,
      "Write": 2250,
      "13": 2251,
      "Info": 2252,
      "All": 2253,
      "counter": 2254,
      "pad": 2255,
      "serialize": 2256,
      "curity": 2257,
      "Command": 2258,
      "stri": 2259,
      "imal": 2260,
      "ater": 2261,
      "ng": 2262,
      "history": 2263,
      "could": 2264,
      "Table": 2265,
      "uted": 2266,
      "Found": 2267,
      "layers": 2268,
      "decorator": 2269,
      "variant": 2270,
      "SP": 2271,
      "character": 2272,
      "processing": 2273,
      "cc": 2274,
      "calls": 2275,
      "backend": 2276,
      "github": 2277,
      "prev": 2278,
      "nest": 2279,
      "CI": 2280,
      "Map": 2281,
      "ced": 2282,
      "Imp": 2283,
      "CLI": 2284,
      "proble": 2285,
      "normal": 2286,
      "algorithm": 2287,
      "kernel": 2288,
      "foo": 2289,
      "encryp": 2290,
      "fd": 2291,
      "blocks": 2292,
      "ession": 2293,
      "attemp": 2294,
      "codes": 2295,
      "atom": 2296,
      "itor": 2297,
      "begin": 2298,
      "etc": 2299,
      "Open": 2300,
      "Given": 2301,
      "amount": 2302,
      "wal": 2303,
      "MO": 2304,
      "QL": 2305,
      "card": 2306,
      "additional": 2307,
      "v2": 2308,
      "plat": 2309,
      "dst": 2310,
      "Context": 2311,
      "distribution": 2312,
      "Session": 2313,
      "Clo": 2314,
      "phi": 2315,
      "When": 2316,
      "FAULT": 2317,
      "ings": 2318,
      "sync": 2319,
      "come": 2320,
      "Compute": 2321,
      "pandas": 2322,
      "alization": 2323,
      "DEFAULT": 2324,
      "TH": 2325,
      "simple": 2326,
      "lap": 2327,
      "packet": 2328,
      "Failed": 2329,
      "Gets": 2330,
      "freq": 2331,
      "Only": 2332,
      "poch": 2333,
      "requested": 2334,
      "cos": 2335,
      "encoded": 2336,
      "ED": 2337,
      "ume": 2338,
      "tom": 2339,
      "execut": 2340,
      "candid": 2341,
      "yaml": 2342,
      "ensure": 2343,
      "representing": 2344,
      "actual": 2345,
      "Graph": 2346,
      "vide": 2347,
      "33": 2348,
      "always": 2349,
      "sources": 2350,
      "rules": 2351,
      "bins": 2352,
      "occur": 2353,
      "directly": 2354,
      "Any": 2355,
      "Lin": 2356,
      "Function": 2357,
      "cut": 2358,
      "vs": 2359,
      "mass": 2360,
      "asset": 2361,
      "loads": 2362,
      "cn": 2363,
      "seed": 2364,
      "feed": 2365,
      "click": 2366,
      "cached": 2367,
      "Parser": 2368,
      "az": 2369,
      "calling": 2370,
      "usage": 2371,
      "metrics": 2372,
      "Initi": 2373,
      "inc": 2374,
      "Man": 2375,
      "estim": 2376,
      "means": 2377,
      "characters": 2378,
      "tasks": 2379,
      "xx": 2380,
      "hour": 2381,
      "iso": 2382,
      "engine": 2383,
      "perform": 2384,
      "reason": 2385,
      "VER": 2386,
      "obs": 2387,
      "embed": 2388,
      "PAT": 2389,
      "ogle": 2390,
      "expand": 2391,
      "neighb": 2392,
      "POST": 2393,
      "product": 2394,
      "Date": 2395,
      "bounds": 2396,
      "round": 2397,
      "virt": 2398,
      "beta": 2399,
      "arrays": 2400,
      "provider": 2401,
      "dims": 2402,
      "future": 2403,
      "ences": 2404,
      "alled": 2405,
      "extensions": 2406,
      "tz": 2407,
      "sem": 2408,
      "minimum": 2409,
      "ient": 2410,
      "scalar": 2411,
      "Sets": 2412,
      "publish": 2413,
      "coef": 2414,
      "You": 2415,
      "tuples": 2416,
      "registry": 2417,
      "would": 2418,
      "Net": 2419,
      "modified": 2420,
      "Series": 2421,
      "ick": 2422,
      "rs": 2423,
      "tt": 2424,
      "subprocess": 2425,
      "power": 2426,
      "outputs": 2427,
      "loss": 2428,
      "lation": 2429,
      "layout": 2430,
      "descri": 2431,
      "reply": 2432,
      "Sh": 2433,
      "packages": 2434,
      "AttributeError": 2435,
      "Content": 2436,
      "Mod": 2437,
      "cording": 2438,
      "licit": 2439,
      "targets": 2440,
      "catalog": 2441,
      "numbers": 2442,
      "days": 2443,
      "epoch": 2444,
      "Runtime": 2445,
      "implement": 2446,
      "QU": 2447,
      "least": 2448,
      "rm": 2449,
      "topic": 2450,
      "radius": 2451,
      "attach": 2452,
      "tables": 2453,
      "oid": 2454,
      "hparams": 2455,
      "validation": 2456,
      "export": 2457,
      "Win": 2458,
      "Cur": 2459,
      "ERR": 2460,
      "pick": 2461,
      "connected": 2462,
      "ones": 2463,
      "rid": 2464,
      "ulti": 2465,
      "ually": 2466,
      "notification": 2467,
      "cook": 2468,
      "sci": 2469,
      "calculate": 2470,
      "ports": 2471,
      "ged": 2472,
      "ified": 2473,
      "band": 2474,
      "WS": 2475,
      "cing": 2476,
      "dic": 2477,
      "alizer": 2478,
      "itude": 2479,
      "scheme": 2480,
      "program": 2481,
      "archive": 2482,
      "ide": 2483,
      "fam": 2484,
      "aries": 2485,
      "hostname": 2486,
      "repr": 2487,
      "cover": 2488,
      "lied": 2489,
      "necess": 2490,
      "frequency": 2491,
      "deg": 2492,
      "18": 2493,
      "related": 2494,
      "amp": 2495,
      "Meth": 2496,
      "dimensions": 2497,
      "ered": 2498,
      "dur": 2499,
      "cert": 2500,
      "finish": 2501,
      "Start": 2502,
      "worker": 2503,
      "17": 2504,
      "Filter": 2505,
      "Other": 2506,
      "machine": 2507,
      "installed": 2508,
      "02": 2509,
      "nb": 2510,
      "rank": 2511,
      "Multi": 2512,
      "qa": 2513,
      "indic": 2514,
      "credentials": 2515,
      "Resource": 2516,
      "according": 2517,
      "Service": 2518,
      "successful": 2519,
      "Method": 2520,
      "Examples": 2521,
      "effe": 2522,
      "pare": 2523,
      "formed": 2524,
      "driver": 2525,
      "figure": 2526,
      "owner": 2527,
      "KEY": 2528,
      "ensor": 2529,
      "vec": 2530,
      "marker": 2531,
      "warnings": 2532,
      "ION": 2533,
      "white": 2534,
      "ometry": 2535,
      "sqrt": 2536,
      "ification": 2537,
      "Hel": 2538,
      "versions": 2539,
      "Oper": 2540,
      "aggreg": 2541,
      "dirname": 2542,
      "leep": 2543,
      "tic": 2544,
      "services": 2545,
      "elem": 2546,
      "pose": 2547,
      "olute": 2548,
      "starting": 2549,
      "Version": 2550,
      "dumps": 2551,
      "Auto": 2552,
      "absolute": 2553,
      "ases": 2554,
      "equ": 2555,
      "Can": 2556,
      "blob": 2557,
      "Qt": 2558,
      "sv": 2559,
      "theta": 2560,
      "factory": 2561,
      "Sto": 2562,
      "ness": 2563,
      "bs": 2564,
      "argv": 2565,
      "ango": 2566,
      "dd": 2567,
      "ga": 2568,
      "security": 2569,
      "delay": 2570,
      "nam": 2571,
      "ratio": 2572,
      "checks": 2573,
      "media": 2574,
      "duplic": 2575,
      "reader": 2576,
      "another": 2577,
      "PC": 2578,
      "Size": 2579,
      "rf": 2580,
      "Send": 2581,
      "fast": 2582,
      "hol": 2583,
      "UP": 2584,
      "esca": 2585,
      "percent": 2586,
      "deleted": 2587,
      "minion": 2588,
      "yang": 2589,
      "TER": 2590,
      "Temp": 2591,
      "vol": 2592,
      "linear": 2593,
      "inner": 2594,
      "needs": 2595,
      "boot": 2596,
      "override": 2597,
      "switch": 2598,
      "platform": 2599,
      "experi": 2600,
      "dx": 2601,
      "velo": 2602,
      "compile": 2603,
      "Delete": 2604,
      "lication": 2605,
      "Calculate": 2606,
      "refresh": 2607,
      "CR": 2608,
      "necessary": 2609,
      "writer": 2610,
      "ks": 2611,
      "Defaults": 2612,
      "VAL": 2613,
      "proc": 2614,
      "static": 2615,
      "mapped": 2616,
      "formatted": 2617,
      "Connection": 2618,
      "ops": 2619,
      "selection": 2620,
      "padding": 2621,
      "desi": 2622,
      "constru": 2623,
      "abo": 2624,
      "PRO": 2625,
      "pipeline": 2626,
      "GER": 2627,
      "1000": 2628,
      "23": 2629,
      "IL": 2630,
      "sleep": 2631,
      "Output": 2632,
      "normalize": 2633,
      "GP": 2634,
      "statement": 2635,
      "Line": 2636,
      "Imple": 2637,
      "virtual": 2638,
      "noqa": 2639,
      "button": 2640,
      "ctypes": 2641,
      "cir": 2642,
      "Search": 2643,
      "shift": 2644,
      "vely": 2645,
      "lack": 2646,
      "pan": 2647,
      "sequences": 2648,
      "Wid": 2649,
      "redirect": 2650,
      "Handler": 2651,
      "uble": 2652,
      "were": 2653,
      "tile": 2654,
      "iterator": 2655,
      "average": 2656,
      "reen": 2657,
      "Window": 2658,
      "grad": 2659,
      "concat": 2660,
      "expect": 2661,
      "ven": 2662,
      "ki": 2663,
      "lint": 2664,
      "endswith": 2665,
      "audi": 2666,
      "RuntimeError": 2667,
      "gg": 2668,
      "ather": 2669,
      "partial": 2670,
      "jobs": 2671,
      "tificate": 2672,
      "training": 2673,
      "adap": 2674,
      "automat": 2675,
      "currently": 2676,
      "repe": 2677,
      "pret": 2678,
      "home": 2679,
      "forward": 2680,
      "cular": 2681,
      "Vi": 2682,
      "remain": 2683,
      "observ": 2684,
      "members": 2685,
      "90": 2686,
      "plotlib": 2687,
      "free": 2688,
      "Adds": 2689,
      "Record": 2690,
      "mpt": 2691,
      "cm": 2692,
      "identity": 2693,
      "descriptor": 2694,
      "primary": 2695,
      "too": 2696,
      "ilar": 2697,
      "categor": 2698,
      "stage": 2699,
      "faces": 2700,
      "nested": 2701,
      "Server": 2702,
      "ia": 2703,
      "sport": 2704,
      "Back": 2705,
      "BU": 2706,
      "Be": 2707,
      "incre": 2708,
      "terms": 2709,
      "Fe": 2710,
      "those": 2711,
      "registered": 2712,
      "rup": 2713,
      "predi": 2714,
      "sat": 2715,
      "saved": 2716,
      "Conver": 2717,
      "hidden": 2718,
      "signed": 2719,
      "paren": 2720,
      "scores": 2721,
      "Status": 2722,
      "resolve": 2723,
      "prediction": 2724,
      "basename": 2725,
      "lex": 2726,
      "cum": 2727,
      "desired": 2728,
      "22": 2729,
      "digest": 2730,
      "failure": 2731,
      "ited": 2732,
      "rl": 2733,
      "variance": 2734,
      "bash": 2735,
      "written": 2736,
      "FO": 2737,
      "resid": 2738,
      "google": 2739,
      "NS": 2740,
      "mg": 2741,
      "delim": 2742,
      "reshape": 2743,
      "000": 2744,
      "cour": 2745,
      "Over": 2746,
      "dataframe": 2747,
      "PATH": 2748,
      "jango": 2749,
      "MS": 2750,
      "indexes": 2751,
      "statist": 2752,
      "HO": 2753,
      "received": 2754,
      "quote": 2755,
      "well": 2756,
      "HE": 2757,
      "CP": 2758,
      "sole": 2759,
      "fact": 2760,
      "XX": 2761,
      "ssh": 2762,
      "Max": 2763,
      "Remo": 2764,
      "Descrip": 2765,
      "fixed": 2766,
      "Rec": 2767,
      "From": 2768,
      "dependencies": 2769,
      "ERROR": 2770,
      "expi": 2771,
      "Token": 2772,
      "DS": 2773,
      "Whe": 2774,
      "siz": 2775,
      "closed": 2776,
      "flux": 2777,
      "processed": 2778,
      "Param": 2779,
      "Work": 2780,
      "keywords": 2781,
      "MM": 2782,
      "invo": 2783,
      "sock": 2784,
      "phase": 2785,
      "mas": 2786,
      "So": 2787,
      "ength": 2788,
      "Vari": 2789,
      "external": 2790,
      "nn": 2791,
      "priate": 2792,
      "unknown": 2793,
      "gt": 2794,
      "ordered": 2795,
      "execution": 2796,
      "Handle": 2797,
      "45": 2798,
      "bad": 2799,
      "flatten": 2800,
      "appropriate": 2801,
      "x1": 2802,
      "geometry": 2803,
      "cd": 2804,
      "squ": 2805,
      "push": 2806,
      "workflow": 2807,
      "LOGGER": 2808,
      "Column": 2809,
      "SQL": 2810,
      "above": 2811,
      "devices": 2812,
      "rg": 2813,
      "retrieve": 2814,
      "light": 2815,
      "once": 2816,
      "IC": 2817,
      "logical": 2818,
      "EC": 2819,
      "wee": 2820,
      "prote": 2821,
      "controll": 2822,
      "ressed": 2823,
      "family": 2824,
      "screen": 2825,
      "cryp": 2826,
      "ives": 2827,
      "Tensor": 2828,
      "exact": 2829,
      "Source": 2830,
      "SO": 2831,
      "bra": 2832,
      "choice": 2833,
      "supplied": 2834,
      "Import": 2835,
      "ploy": 2836,
      "js": 2837,
      "deploy": 2838,
      "Whether": 2839,
      "pylint": 2840,
      "www": 2841,
      "along": 2842,
      "clip": 2843,
      "priority": 2844,
      "decl": 2845,
      "ste": 2846,
      "reads": 2847,
      "included": 2848,
      "chunks": 2849,
      "oft": 2850,
      "compo": 2851,
      "she": 2852,
      "spect": 2853,
      "background": 2854,
      "diag": 2855,
      "ckets": 2856,
      "Determin": 2857,
      "calc": 2858,
      "Ne": 2859,
      "unpack": 2860,
      "prompt": 2861,
      "positions": 2862,
      "snapshot": 2863,
      "Otherwise": 2864,
      "negative": 2865,
      "Uni": 2866,
      "lineno": 2867,
      "nu": 2868,
      "deep": 2869,
      "Tree": 2870,
      "gment": 2871,
      "aga": 2872,
      "sidered": 2873,
      "tre": 2874,
      "peak": 2875,
      "determine": 2876,
      "75": 2877,
      "considered": 2878,
      "amma": 2879,
      "segments": 2880,
      "URI": 2881,
      "HTML": 2882,
      "consist": 2883,
      "ene": 2884,
      "Store": 2885,
      "1e": 2886,
      "ignored": 2887,
      "UM": 2888,
      "against": 2889,
      "NotFound": 2890,
      "sian": 2891,
      "Colle": 2892,
      "logy": 2893,
      "docker": 2894,
      "integr": 2895,
      "hosts": 2896,
      "Obj": 2897,
      "IDs": 2898,
      "Met": 2899,
      "coe": 2900,
      "editor": 2901,
      "pdf": 2902,
      "working": 2903,
      "grade": 2904,
      "uint": 2905,
      "problem": 2906,
      "manage": 2907,
      "Block": 2908,
      "rho": 2909,
      "small": 2910,
      "surface": 2911,
      "Retrieve": 2912,
      "magic": 2913,
      "Change": 2914,
      "asynchronous": 2915,
      "bus": 2916,
      "complex": 2917,
      "spli": 2918,
      "gon": 2919,
      "Arguments": 2920,
      "interpo": 2921,
      "frames": 2922,
      "Sp": 2923,
      "mm": 2924,
      "ilt": 2925,
      "compar": 2926,
      "Stream": 2927,
      "menu": 2928,
      "special": 2929,
      "mount": 2930,
      "resses": 2931,
      "firm": 2932,
      "accept": 2933,
      "Lay": 2934,
      "cii": 2935,
      "voc": 2936,
      "erature": 2937,
      "experiment": 2938,
      "basic": 2939,
      "loader": 2940,
      "subclass": 2941,
      "latest": 2942,
      "FILE": 2943,
      "ii": 2944,
      "inf": 2945,
      "View": 2946,
      "jective": 2947,
      "501": 2948,
      "orted": 2949,
      "subset": 2950,
      "Wrap": 2951,
      "RA": 2952,
      "DAT": 2953,
      "echo": 2954,
      "Requi": 2955,
      "energy": 2956,
      "requires": 2957,
      "did": 2958,
      "rot": 2959,
      "iteritems": 2960,
      "ifier": 2961,
      "operations": 2962,
      "Mar": 2963,
      "simul": 2964,
      "dynam": 2965,
      "ators": 2966,
      "lers": 2967,
      "Sign": 2968,
      "comments": 2969,
      "CL": 2970,
      "imen": 2971,
      "implemented": 2972,
      "big": 2973,
      "End": 2974,
      "selector": 2975,
      "extmethods": 2976,
      "36": 2977,
      "gue": 2978,
      "Doc": 2979,
      "during": 2980,
      "proje": 2981,
      "escape": 2982,
      "ATION": 2983,
      "watch": 2984,
      "solution": 2985,
      "Count": 2986,
      "AND": 2987,
      "vectors": 2988,
      "levels": 2989,
      "Checks": 2990,
      "System": 2991,
      "Regist": 2992,
      "v6": 2993,
      "filtered": 2994,
      "peer": 2995,
      "bottom": 2996,
      "pages": 2997,
      "PAR": 2998,
      "TS": 2999,
      "FOR": 3000,
      "matplotlib": 3001,
      "plain": 3002,
      "wor": 3003,
      "team": 3004,
      "ascii": 3005,
      "bal": 3006,
      "quanti": 3007,
      "trigger": 3008,
      "gap": 3009,
      "speed": 3010,
      "cross": 3011,
      "inside": 3012,
      "Sequ": 3013,
      "rele": 3014,
      "specimen": 3015,
      "raised": 3016,
      "coeffici": 3017,
      "curve": 3018,
      "Stop": 3019,
      "runtime": 3020,
      "permissions": 3021,
      "around": 3022,
      "gers": 3023,
      "acy": 3024,
      "rv": 3025,
      "even": 3026,
      "threads": 3027,
      "Take": 3028,
      "cost": 3029,
      "ABLE": 3030,
      "Address": 3031,
      "quival": 3032,
      "Down": 3033,
      "bund": 3034,
      "IG": 3035,
      "slug": 3036,
      "stra": 3037,
      "sparse": 3038,
      "inv": 3039,
      "ctories": 3040,
      "pur": 3041,
      "trib": 3042,
      "vidual": 3043,
      "transport": 3044,
      "abel": 3045,
      "Option": 3046,
      "actor": 3047,
      "vers": 3048,
      "fall": 3049,
      "END": 3050,
      "Task": 3051,
      "below": 3052,
      "overwrite": 3053,
      "lead": 3054,
      "double": 3055,
      "certificate": 3056,
      "Point": 3057,
      "adjust": 3058,
      "restri": 3059,
      "Action": 3060,
      "ssl": 3061,
      "vertex": 3062,
      "cells": 3063,
      "shared": 3064,
      "cip": 3065,
      "finally": 3066,
      "mx": 3067,
      "mediate": 3068,
      "nt": 3069,
      "256": 3070,
      "built": 3071,
      "edit": 3072,
      "annotation": 3073,
      "sensor": 3074,
      "compatible": 3075,
      "matched": 3076,
      "Helper": 3077,
      "E501": 3078,
      "positive": 3079,
      "IOError": 3080,
      "nl": 3081,
      "War": 3082,
      "typ": 3083,
      "sections": 3084,
      "normalized": 3085,
      "plugins": 3086,
      "automatically": 3087,
      "ices": 3088,
      "allel": 3089,
      "criter": 3090,
      "simp": 3091,
      "gu": 3092,
      "rr": 3093,
      "Network": 3094,
      "curr": 3095,
      "inspect": 3096,
      "multip": 3097,
      "fasta": 3098,
      "precision": 3099,
      "255": 3100,
      "pb": 3101,
      "implementation": 3102,
      "2d": 3103,
      "iteration": 3104,
      "updates": 3105,
      "similar": 3106,
      "construct": 3107,
      "Sele": 3108,
      "New": 3109,
      "strict": 3110,
      "remaining": 3111,
      "Parameter": 3112,
      "rites": 3113,
      "course": 3114,
      "directories": 3115,
      "hs": 3116,
      "builder": 3117,
      "86": 3118,
      "handlers": 3119,
      "pars": 3120,
      "dit": 3121,
      "Tag": 3122,
      "tk": 3123,
      "SU": 3124,
      "VM": 3125,
      "price": 3126,
      "wrapped": 3127,
      "converted": 3128,
      "sites": 3129,
      "configured": 3130,
      "noise": 3131,
      "ropy": 3132,
      "moo": 3133,
      "uple": 3134,
      "div": 3135,
      "flush": 3136,
      "SH": 3137,
      "Dyn": 3138,
      "icro": 3139,
      "temperature": 3140,
      "locations": 3141,
      "Proper": 3142,
      "NOT": 3143,
      "limits": 3144,
      "controller": 3145,
      "There": 3146,
      "pred": 3147,
      "Entry": 3148,
      "prepare": 3149,
      "takes": 3150,
      "Save": 3151,
      "ric": 3152,
      "avoid": 3153,
      "alignment": 3154,
      "certain": 3155,
      "reach": 3156,
      "Manager": 3157,
      "alg": 3158,
      "cwd": 3159,
      "gradi": 3160,
      "visible": 3161,
      "optim": 3162,
      "ogram": 3163,
      "OK": 3164,
      "maps": 3165,
      "Of": 3166,
      "coordinate": 3167,
      "uth": 3168,
      "oms": 3169,
      "collections": 3170,
      "Syn": 3171,
      "ndim": 3172,
      "dicts": 3173,
      "27": 3174,
      "rag": 3175,
      "authentication": 3176,
      "Ordered": 3177,
      "explicit": 3178,
      "Converts": 3179,
      "constant": 3180,
      "instr": 3181,
      "SET": 3182,
      "ancel": 3183,
      "Head": 3184,
      "regular": 3185,
      "revision": 3186,
      "BO": 3187,
      "patterns": 3188,
      "large": 3189,
      "2D": 3190,
      "frac": 3191,
      "outfile": 3192,
      "altern": 3193,
      "osid": 3194,
      "vertices": 3195,
      "nor": 3196,
      "pending": 3197,
      "astype": 3198,
      "td": 3199,
      "chat": 3200,
      "reduce": 3201,
      "numeric": 3202,
      "scipy": 3203,
      "plots": 3204,
      "sd": 3205,
      "individual": 3206,
      "provide": 3207,
      "66": 3208,
      "tempor": 3209,
      "applied": 3210,
      "filenames": 3211,
      "Could": 3212,
      "pull": 3213,
      "candidate": 3214,
      "Also": 3215,
      "urls": 3216,
      "Color": 3217,
      "returning": 3218,
      "ket": 3219,
      "ado": 3220,
      "lst": 3221,
      "assume": 3222,
      "pretty": 3223,
      "tical": 3224,
      "vocab": 3225,
      "brid": 3226,
      "deco": 3227,
      "cri": 3228,
      "mk": 3229,
      "monitor": 3230,
      "Sequence": 3231,
      "35": 3232,
      "argin": 3233,
      "Pri": 3234,
      "Operation": 3235,
      "Job": 3236,
      "logs": 3237,
      "Extract": 3238,
      "subscrip": 3239,
      "question": 3240,
      "density": 3241,
      "gamma": 3242,
      "video": 3243,
      "Look": 3244,
      "cpu": 3245,
      "rpc": 3246,
      "sizes": 3247,
      "ename": 3248,
      "definitions": 3249,
      "dia": 3250,
      "precated": 3251,
      "documentation": 3252,
      "populate": 3253,
      "SA": 3254,
      "deriv": 3255,
      "conta": 3256,
      "versionadded": 3257,
      "vlan": 3258,
      "scri": 3259,
      "might": 3260,
      "overlap": 3261,
      "hal": 3262,
      "exclu": 3263,
      "sampling": 3264,
      "king": 3265,
      "v4": 3266,
      "soft": 3267,
      "got": 3268,
      "Tran": 3269,
      "constants": 3270,
      "Print": 3271,
      "Cannot": 3272,
      "lip": 3273,
      "equival": 3274,
      "tify": 3275,
      "Each": 3276,
      "unch": 3277,
      "transition": 3278,
      "bel": 3279,
      "cookie": 3280,
      "conditions": 3281,
      "know": 3282,
      "direc": 3283,
      "34": 3284,
      "pho": 3285,
      "including": 3286,
      "poll": 3287,
      "yet": 3288,
      "Min": 3289,
      "95": 3290,
      "serial": 3291,
      "pointer": 3292,
      "Match": 3293,
      "sender": 3294,
      "pm": 3295,
      "hi": 3296,
      "Warning": 3297,
      "He": 3298,
      "rev": 3299,
      "Cop": 3300,
      "Plot": 3301,
      "mething": 3302,
      "sentence": 3303,
      "rb": 3304,
      "props": 3305,
      "parsing": 3306,
      "statistics": 3307,
      "Device": 3308,
      "country": 3309,
      "connections": 3310,
      "addresses": 3311,
      "ilities": 3312,
      "maj": 3313,
      "apping": 3314,
      "ALL": 3315,
      "Implemented": 3316,
      "bank": 3317,
      "later": 3318,
      "hor": 3319,
      "reco": 3320,
      "Ref": 3321,
      "submit": 3322,
      "comput": 3323,
      "Try": 3324,
      "choices": 3325,
      "md5": 3326,
      "Tuple": 3327,
      "hood": 3328,
      "lag": 3329,
      "28": 3330,
      "ibility": 3331,
      "Is": 3332,
      "audio": 3333,
      "router": 3334,
      "bam": 3335,
      "nx": 3336,
      "timezone": 3337,
      "symbols": 3338,
      "Test": 3339,
      "roles": 3340,
      "hard": 3341,
      "inser": 3342,
      "console": 3343,
      "creating": 3344,
      "Pass": 3345,
      "ACK": 3346,
      "difference": 3347,
      "organ": 3348,
      "constraints": 3349,
      "executable": 3350,
      "One": 3351,
      "FIX": 3352,
      "categories": 3353,
      "PRE": 3354,
      "cycle": 3355,
      "Contain": 3356,
      "redis": 3357,
      "05": 3358,
      "TIME": 3359,
      "bul": 3360,
      "timedelta": 3361,
      "references": 3362,
      "icon": 3363,
      "fid": 3364,
      "wiki": 3365,
      "dl": 3366,
      "intervals": 3367,
      "Enable": 3368,
      "looking": 3369,
      "Widget": 3370,
      "mime": 3371,
      "formats": 3372,
      "havi": 3373,
      "attempt": 3374,
      "Link": 3375,
      "rer": 3376,
      "adj": 3377,
      "entities": 3378,
      "gl": 3379,
      "cuto": 3380,
      "FL": 3381,
      "smoo": 3382,
      "emit": 3383,
      "processes": 3384,
      "backup": 3385,
      "brow": 3386,
      "parallel": 3387,
      "phy": 3388,
      "Box": 3389,
      "dates": 3390,
      "grees": 3391,
      "compare": 3392,
      "ural": 3393,
      "cond": 3394,
      "Exp": 3395,
      "specification": 3396,
      "recursive": 3397,
      "setdefault": 3398,
      "decimal": 3399,
      "aa": 3400,
      "MI": 3401,
      "rad": 3402,
      "bg": 3403,
      "particular": 3404,
      "cases": 3405,
      "bias": 3406,
      "Unknown": 3407,
      "shu": 3408,
      "black": 3409,
      "quer": 3410,
      "reading": 3411,
      "Please": 3412,
      "rotation": 3413,
      "consum": 3414,
      "fully": 3415,
      "makes": 3416,
      "Li": 3417,
      "isfile": 3418,
      "define": 3419,
      "Sup": 3420,
      "bon": 3421,
      "started": 3422,
      "optimi": 3423,
      "umb": 3424,
      "genes": 3425,
      "ale": 3426,
      "clone": 3427,
      "Windows": 3428,
      "predict": 3429,
      "objective": 3430,
      "Variable": 3431,
      "gitude": 3432,
      "ranges": 3433,
      "game": 3434,
      "pg": 3435,
      "zy": 3436,
      "setattr": 3437,
      "stmt": 3438,
      "chars": 3439,
      "traceback": 3440,
      "relationship": 3441,
      "ache": 3442,
      "OrderedDict": 3443,
      "probab": 3444,
      "65": 3445,
      "Cloud": 3446,
      "evaluate": 3447,
      "requirements": 3448,
      "Norm": 3449,
      "compress": 3450,
      "Page": 3451,
      "bly": 3452,
      "Pa": 3453,
      "degrees": 3454,
      "STR": 3455,
      "Union": 3456,
      "legend": 3457,
      "ely": 3458,
      "develo": 3459,
      "acity": 3460,
      "templates": 3461,
      "cated": 3462,
      "configs": 3463,
      "transfer": 3464,
      "67": 3465,
      "annotations": 3466,
      "kl": 3467,
      "Form": 3468,
      "parents": 3469,
      "PY": 3470,
      "still": 3471,
      "dig": 3472,
      "fh": 3473,
      "pres": 3474,
      "useful": 3475,
      "pixels": 3476,
      "seen": 3477,
      "Access": 3478,
      "SER": 3479,
      "supports": 3480,
      "Red": 3481,
      "rdf": 3482,
      "rol": 3483,
      "Inte": 3484,
      "assigned": 3485,
      "wave": 3486,
      "vas": 3487,
      "zen": 3488,
      "tun": 3489,
      "bundle": 3490,
      "s3": 3491,
      "DEL": 3492,
      "ture": 3493,
      "allows": 3494,
      "ierarch": 3495,
      "conversion": 3496,
      "Pl": 3497,
      "emon": 3498,
      "dn": 3499,
      "something": 3500,
      "mix": 3501,
      "arange": 3502,
      "criteria": 3503,
      "major": 3504,
      "BUG": 3505,
      "arm": 3506,
      "mgmt": 3507,
      "orts": 3508,
      "bridge": 3509,
      "Pol": 3510,
      "MAX": 3511,
      "PUT": 3512,
      "resolution": 3513,
      "datasets": 3514,
      "hit": 3515,
      "Range": 3516,
      "CK": 3517,
      "Fir": 3518,
      "consu": 3519,
      "expo": 3520,
      "VI": 3521,
      "cov": 3522,
      "dc": 3523,
      "ral": 3524,
      "happ": 3525,
      "Ve": 3526,
      "SD": 3527,
      "ORD": 3528,
      "Tar": 3529,
      "walk": 3530,
      "Notes": 3531,
      "checked": 3532,
      "Us": 3533,
      "abspath": 3534,
      "good": 3535,
      "dum": 3536,
      "hum": 3537,
      "Lev": 3538,
      "Setting": 3539,
      "With": 3540,
      "behavi": 3541,
      "finished": 3542,
      "merged": 3543,
      "sg": 3544,
      "pts": 3545,
      "tol": 3546,
      "04": 3547,
      "85": 3548,
      "Generated": 3549,
      "Params": 3550,
      "Ab": 3551,
      "queryset": 3552,
      "wx": 3553,
      "calculated": 3554,
      "week": 3555,
      "subst": 3556,
      "PA": 3557,
      "docstring": 3558,
      "cating": 3559,
      "commun": 3560,
      "dependent": 3561,
      "YY": 3562,
      "Reference": 3563,
      "constructor": 3564,
      "Perform": 3565,
      "Validate": 3566,
      "dispatch": 3567,
      "eig": 3568,
      "margin": 3569,
      "activity": 3570,
      "polygon": 3571,
      "spaces": 3572,
      "neighbors": 3573,
      "leaf": 3574,
      "Label": 3575,
      "dle": 3576,
      "completed": 3577,
      "imat": 3578,
      "keyid": 3579,
      "adapter": 3580,
      "Level": 3581,
      "equivalent": 3582,
      "INT": 3583,
      "django": 3584,
      "OSError": 3585,
      "aws": 3586,
      "ender": 3587,
      "modify": 3588,
      "potential": 3589,
      "CA": 3590,
      "Dataset": 3591,
      "Unable": 3592,
      "Mem": 3593,
      "GB": 3594,
      "uch": 3595,
      "Initialize": 3596,
      "SION": 3597,
      "slot": 3598,
      "cid": 3599,
      "caller": 3600,
      "minutes": 3601,
      "RI": 3602,
      "atoms": 3603,
      "stu": 3604,
      "dro": 3605,
      "boto": 3606,
      "formatter": 3607,
      "refs": 3608,
      "degree": 3609,
      "Fetch": 3610,
      "sively": 3611,
      "separated": 3612,
      "eq": 3613,
      "bbox": 3614,
      "LIN": 3615,
      "live": 3616,
      "sheet": 3617,
      "RF": 3618,
      "ipe": 3619,
      "VE": 3620,
      "Length": 3621,
      "cept": 3622,
      "completion": 3623,
      "initialize": 3624,
      "arc": 3625,
      "ticks": 3626,
      "Dist": 3627,
      "Current": 3628,
      "Mat": 3629,
      "ifest": 3630,
      "sical": 3631,
      "latitude": 3632,
      "Description": 3633,
      "checksum": 3634,
      "Values": 3635,
      "listen": 3636,
      "defining": 3637,
      "x2": 3638,
      "AGE": 3639,
      "Le": 3640,
      "authorization": 3641,
      "fc": 3642,
      "nc": 3643,
      "itself": 3644,
      "cles": 3645,
      "sel": 3646,
      "serialized": 3647,
      "Sk": 3648,
      "collect": 3649,
      "nr": 3650,
      "ality": 3651,
      "mig": 3652,
      "validator": 3653,
      "regions": 3654,
      "approx": 3655,
      "Cor": 3656,
      "slo": 3657,
      "Api": 3658,
      "Mon": 3659,
      "zo": 3660,
      "orient": 3661,
      "probability": 3662,
      "COL": 3663,
      "terminal": 3664,
      "css": 3665,
      "works": 3666,
      "Parses": 3667,
      "ula": 3668,
      "ava": 3669,
      "DEBUG": 3670,
      "Template": 3671,
      "pear": 3672,
      "micro": 3673,
      "suppress": 3674,
      "Document": 3675,
      "loading": 3676,
      "happen": 3677,
      "Que": 3678,
      "Sche": 3679,
      "neighbor": 3680,
      "Configuration": 3681,
      "CF": 3682,
      "longitude": 3683,
      "examples": 3684,
      "blue": 3685,
      "holder": 3686,
      "utc": 3687,
      "AWS": 3688,
      "Must": 3689,
      "twi": 3690,
      "Extra": 3691,
      "three": 3692,
      "serve": 3693,
      "projection": 3694,
      "ZE": 3695,
      "trun": 3696,
      "deprecated": 3697,
      "lengths": 3698,
      "pmag": 3699,
      "Ht": 3700,
      "uler": 3701,
      "histogram": 3702,
      "atten": 3703,
      "made": 3704,
      "share": 3705,
      "runs": 3706,
      "nothing": 3707,
      "due": 3708,
      "angles": 3709,
      "Construct": 3710,
      "whose": 3711,
      "syntax": 3712,
      "recent": 3713,
      "separator": 3714,
      "tho": 3715,
      "instru": 3716,
      "quad": 3717,
      "represent": 3718,
      "schedule": 3719,
      "general": 3720,
      "Register": 3721,
      "84": 3722,
      "Validation": 3723,
      "expan": 3724,
      "Dire": 3725,
      "rever": 3726,
      "persist": 3727,
      "separate": 3728,
      "fraction": 3729,
      "boundary": 3730,
      "29": 3731,
      "pen": 3732,
      "timer": 3733,
      "First": 3734,
      "href": 3735,
      "lig": 3736,
      "subnet": 3737,
      "Dep": 3738,
      "dry": 3739,
      "Go": 3740,
      "initialized": 3741,
      "Dir": 3742,
      "iform": 3743,
      "attrib": 3744,
      "art": 3745,
      "greater": 3746,
      "x0": 3747,
      "cmap": 3748,
      "dra": 3749,
      "fron": 3750,
      "Mis": 3751,
      "LD": 3752,
      "tili": 3753,
      "lyph": 3754,
      "pie": 3755,
      "Na": 3756,
      "basestring": 3757,
      "UE": 3758,
      "prox": 3759,
      "Diction": 3760,
      "Cell": 3761,
      "cores": 3762,
      "creates": 3763,
      "computed": 3764,
      "illar": 3765,
      "cutoff": 3766,
      "lihood": 3767,
      "uct": 3768,
      "Determine": 3769,
      "gradient": 3770,
      "MAT": 3771,
      "conti": 3772,
      "inten": 3773,
      "26": 3774,
      "Timeout": 3775,
      "70": 3776,
      "Show": 3777,
      "png": 3778,
      "ison": 3779,
      "izer": 3780,
      "izon": 3781,
      "magn": 3782,
      "digit": 3783,
      "creation": 3784,
      "infer": 3785,
      "concaten": 3786,
      "SC": 3787,
      "Copy": 3788,
      "tries": 3789,
      "EM": 3790,
      "dition": 3791,
      "delimiter": 3792,
      "subscri": 3793,
      "basis": 3794,
      "generic": 3795,
      "locals": 3796,
      "ane": 3797,
      "encoder": 3798,
      "Location": 3799,
      "DATA": 3800,
      "Mode": 3801,
      "Target": 3802,
      "tivity": 3803,
      "cancel": 3804,
      "servers": 3805,
      "chr": 3806,
      "locale": 3807,
      "measurement": 3808,
      "resolved": 3809,
      "Wa": 3810,
      "Apply": 3811,
      "ARN": 3812,
      "SM": 3813,
      "constraint": 3814,
      "eves": 3815,
      "Identi": 3816,
      "tour": 3817,
      "perm": 3818,
      "iterations": 3819,
      "dependency": 3820,
      "39": 3821,
      "resulting": 3822,
      "manifest": 3823,
      "conven": 3824,
      "cumul": 3825,
      "enter": 3826,
      "sessment": 3827,
      "aff": 3828,
      "daemon": 3829,
      "processor": 3830,
      "embedding": 3831,
      "wards": 3832,
      "gateway": 3833,
      "Used": 3834,
      "configure": 3835,
      "IndexError": 3836,
      "hyper": 3837,
      "dictionaries": 3838,
      "topo": 3839,
      "blank": 3840,
      "MET": 3841,
      "fold": 3842,
      "stdin": 3843,
      "Fl": 3844,
      "transl": 3845,
      "lier": 3846,
      "submission": 3847,
      "MD": 3848,
      "ceed": 3849,
      "issues": 3850,
      "browser": 3851,
      "Seri": 3852,
      "Web": 3853,
      "windows": 3854,
      "plus": 3855,
      "Sho": 3856,
      "isdir": 3857,
      "Ensure": 3858,
      "pdb": 3859,
      "Generates": 3860,
      "seek": 3861,
      "curren": 3862,
      "Updates": 3863,
      "dp": 3864,
      "contract": 3865,
      "spin": 3866,
      "gz": 3867,
      "responses": 3868,
      "rong": 3869,
      "pickle": 3870,
      "tice": 3871,
      "Now": 3872,
      "Dictionary": 3873,
      "assignment": 3874,
      "gui": 3875,
      "liter": 3876,
      "native": 3877,
      "rename": 3878,
      "UID": 3879,
      "Wr": 3880,
      "notebook": 3881,
      "design": 3882,
      "Sim": 3883,
      "Analy": 3884,
      "genome": 3885,
      "Bin": 3886,
      "tage": 3887,
      "please": 3888,
      "queries": 3889,
      "ptr": 3890,
      "obtain": 3891,
      "Scal": 3892,
      "statements": 3893,
      "Options": 3894,
      "offsets": 3895,
      "tests": 3896,
      "qs": 3897,
      "interfaces": 3898,
      "IF": 3899,
      "p2": 3900,
      "projects": 3901,
      "digits": 3902,
      "Ali": 3903,
      "lite": 3904,
      "consumer": 3905,
      "Bad": 3906,
      "crete": 3907,
      "pillar": 3908,
      "ense": 3909,
      "outer": 3910,
      "tc": 3911,
      "appear": 3912,
      "entire": 3913,
      "SN": 3914,
      "Chan": 3915,
      "hours": 3916,
      "plane": 3917,
      "lies": 3918,
      "middle": 3919,
      "detect": 3920,
      "rgb": 3921,
      "Vector": 3922,
      "1d": 3923,
      "broad": 3924,
      "SIG": 3925,
      "routing": 3926,
      "Salt": 3927,
      "Does": 3928,
      "subscription": 3929,
      "Ax": 3930,
      "bb": 3931,
      "ared": 3932,
      "species": 3933,
      "tau": 3934,
      "clusters": 3935,
      "residue": 3936,
      "hierarch": 3937,
      "likelihood": 3938,
      "FIG": 3939,
      "NotImplemented": 3940,
      "duplicate": 3941,
      "repeat": 3942,
      "visit": 3943,
      "coming": 3944,
      "trail": 3945,
      "views": 3946,
      "Struct": 3947,
      "square": 3948,
      "Pub": 3949,
      "actually": 3950,
      "Display": 3951,
      "coeff": 3952,
      "Proto": 3953,
      "Sample": 3954,
      "border": 3955,
      "unless": 3956,
      "px": 3957,
      "aux": 3958,
      "world": 3959,
      "Schema": 3960,
      "Execute": 3961,
      "Collection": 3962,
      "atype": 3963,
      "DIR": 3964,
      "shut": 3965,
      "effect": 3966,
      "Project": 3967,
      "pip": 3968,
      "Layer": 3969,
      "recip": 3970,
      "WH": 3971,
      "Allow": 3972,
      "translation": 3973,
      "argparse": 3974,
      "REQU": 3975,
      "estimat": 3976,
      "hdr": 3977,
      "serializer": 3978,
      "NOTE": 3979,
      "compressed": 3980,
      "fw": 3981,
      "Mer": 3982,
      "isn": 3983,
      "trim": 3984,
      "RPC": 3985,
      "era": 3986,
      "receive": 3987,
      "going": 3988,
      "again": 3989,
      "inplace": 3990,
      "encrypted": 3991,
      "ROM": 3992,
      "dynamic": 3993,
      "intersection": 3994,
      "21": 3995,
      "temporary": 3996,
      "float32": 3997,
      "PL": 3998,
      "writing": 3999,
      "indicating": 4000,
      "Called": 4001,
      "deepcopy": 4002,
      "Container": 4003,
      "contact": 4004,
      "pin": 4005,
      "recogn": 4006,
      "Rel": 4007,
      "onto": 4008,
      "Reads": 4009,
      "Channel": 4010,
      "room": 4011,
      "Const": 4012,
      "cript": 4013,
      "avg": 4014,
      "Transform": 4015,
      "sitive": 4016,
      "viation": 4017,
      "Unicode": 4018,
      "notes": 4019,
      "substit": 4020,
      "ql": 4021,
      "colo": 4022,
      "interpre": 4023,
      "INFO": 4024,
      "HEAD": 4025,
      "uous": 4026,
      "asc": 4027,
      "candidates": 4028,
      "answer": 4029,
      "Property": 4030,
      "tb": 4031,
      "base64": 4032,
      "binding": 4033,
      "Http": 4034,
      "prep": 4035,
      "scripts": 4036,
      "Calculates": 4037,
      "44": 4038,
      "lv": 4039,
      "asarray": 4040,
      "union": 4041,
      "Order": 4042,
      "callbacks": 4043,
      "estimate": 4044,
      "thumb": 4045,
      "correlation": 4046,
      "uation": 4047,
      "unset": 4048,
      "Metadata": 4049,
      "inp": 4050,
      "immediate": 4051,
      "lying": 4052,
      "OPTION": 4053,
      "Int": 4054,
      "fragment": 4055,
      "population": 4056,
      "confirm": 4057,
      "dialog": 4058,
      "Decor": 4059,
      "tur": 4060,
      "Header": 4061,
      "Fo": 4062,
      "Removes": 4063,
      "ilf": 4064,
      "strate": 4065,
      "Thread": 4066,
      "XT": 4067,
      "Mark": 4068,
      "37": 4069,
      "Logger": 4070,
      "station": 4071,
      "SIZE": 4072,
      "Coun": 4073,
      "Setter": 4074,
      "extended": 4075,
      "OT": 4076,
      "vertical": 4077,
      "Takes": 4078,
      "instrument": 4079,
      "Produ": 4080,
      "Port": 4081,
      "mv": 4082,
      "ident": 4083,
      "tim": 4084,
      "person": 4085,
      "inline": 4086,
      "31": 4087,
      "qq": 4088,
      "Post": 4089,
      "ACE": 4090,
      "canon": 4091,
      "atter": 4092,
      "Should": 4093,
      "onal": 4094,
      "Off": 4095,
      "Row": 4096,
      "Cache": 4097,
      "umed": 4098,
      "Ter": 4099,
      "gets": 4100,
      "yes": 4101,
      "hold": 4102,
      "ism": 4103,
      "azure": 4104,
      "predicate": 4105,
      "translate": 4106,
      "fri": 4107,
      "ka": 4108,
      "disabled": 4109,
      "oauth": 4110,
      "includes": 4111,
      "Local": 4112,
      "fails": 4113,
      "haz": 4114,
      "fg": 4115,
      "ert": 4116,
      "san": 4117,
      "canvas": 4118,
      "strap": 4119,
      "GO": 4120,
      "checking": 4121,
      "stract": 4122,
      "balance": 4123,
      "PER": 4124,
      "inverse": 4125,
      "retries": 4126,
      "Queue": 4127,
      "ja": 4128,
      "etree": 4129,
      "treat": 4130,
      "Stor": 4131,
      "Host": 4132,
      "iver": 4133,
      "fire": 4134,
      "solver": 4135,
      "DD": 4136,
      "served": 4137,
      "guess": 4138,
      "ring": 4139,
      "dns": 4140,
      "urllib": 4141,
      "NE": 4142,
      "eps": 4143,
      "inher": 4144,
      "Retrieves": 4145,
      "inds": 4146,
      "retriev": 4147,
      "But": 4148,
      "Ass": 4149,
      "formula": 4150,
      "panel": 4151,
      "ussian": 4152,
      "89": 4153,
      "ifies": 4154,
      "getter": 4155,
      "optionally": 4156,
      "depending": 4157,
      "extent": 4158,
      "p1": 4159,
      "TL": 4160,
      "sertion": 4161,
      "comparison": 4162,
      "moment": 4163,
      "Usage": 4164,
      "Feature": 4165,
      "vcf": 4166,
      "Tri": 4167,
      "These": 4168,
      "cio": 4169,
      "Internal": 4170,
      "assem": 4171,
      "proj": 4172,
      "roy": 4173,
      "Results": 4174,
      "bp": 4175,
      "rum": 4176,
      "fits": 4177,
      "tailf": 4178,
      "acc": 4179,
      "horizon": 4180,
      "atory": 4181,
      "CONFIG": 4182,
      "Mag": 4183,
      "catch": 4184,
      "mutation": 4185,
      "xs": 4186,
      "aper": 4187,
      "executed": 4188,
      "human": 4189,
      "west": 4190,
      "fft": 4191,
      "phra": 4192,
      "decryp": 4193,
      "scaling": 4194,
      "nm": 4195,
      "GE": 4196,
      "developer": 4197,
      "prefer": 4198,
      "Execution": 4199,
      "attention": 4200,
      "s1": 4201,
      "observation": 4202,
      "VERSION": 4203,
      "ij": 4204,
      "wb": 4205,
      "represents": 4206,
      "green": 4207,
      "lio": 4208,
      "ISO": 4209,
      "macro": 4210,
      "migr": 4211,
      "uniform": 4212,
      "USER": 4213,
      "crypto": 4214,
      "Required": 4215,
      "compound": 4216,
      "arest": 4217,
      "astic": 4218,
      "Author": 4219,
      "relev": 4220,
      "eg": 4221,
      "ffi": 4222,
      "signals": 4223,
      "learning": 4224,
      "tle": 4225,
      "Exist": 4226,
      "s2": 4227,
      "accur": 4228,
      "extracted": 4229,
      "sider": 4230,
      "And": 4231,
      "Ag": 4232,
      "paces": 4233,
      "wt": 4234,
      "zon": 4235,
      "NotImplementedError": 4236,
      "aves": 4237,
      "Lim": 4238,
      "prag": 4239,
      "overlay": 4240,
      "quality": 4241,
      "presence": 4242,
      "calculation": 4243,
      "RED": 4244,
      "half": 4245,
      "ased": 4246,
      "Identifi": 4247,
      "taken": 4248,
      "minor": 4249,
      "FS": 4250,
      "verb": 4251,
      "whole": 4252,
      "Pack": 4253,
      "dash": 4254,
      "glyph": 4255,
      "ASE": 4256,
      "perc": 4257,
      "shutil": 4258,
      "ln": 4259,
      "Will": 4260,
      "Ste": 4261,
      "ImportError": 4262,
      "raster": 4263,
      "grams": 4264,
      "Sym": 4265,
      "ann": 4266,
      "zoom": 4267,
      "notify": 4268,
      "123": 4269,
      "Git": 4270,
      "77": 4271,
      "player": 4272,
      "SELE": 4273,
      "usu": 4274,
      "Storage": 4275,
      "derived": 4276,
      "Mapping": 4277,
      "Names": 4278,
      "pragma": 4279,
      "Module": 4280,
      "ORT": 4281,
      "geom": 4282,
      "clients": 4283,
      "usion": 4284,
      "cally": 4285,
      "Wrapper": 4286,
      "transpose": 4287,
      "corr": 4288,
      "photo": 4289,
      "para": 4290,
      "wraps": 4291,
      "coefficients": 4292,
      "ace": 4293,
      "assumed": 4294,
      "typing": 4295,
      "workers": 4296,
      "attachment": 4297,
      "Missing": 4298,
      "xpath": 4299,
      "ino": 4300,
      "expon": 4301,
      "Cre": 4302,
      "Jo": 4303,
      "texts": 4304,
      "approxim": 4305,
      "Yield": 4306,
      "kit": 4307,
      "500": 4308,
      "endar": 4309,
      "synchronous": 4310,
      "Te": 4311,
      "theme": 4312,
      "suc": 4313,
      "median": 4314,
      "ipv6": 4315,
      "zed": 4316,
      "aliases": 4317,
      "declar": 4318,
      "allele": 4319,
      "ficient": 4320,
      "describe": 4321,
      "rides": 4322,
      "fallback": 4323,
      "currency": 4324,
      "recv": 4325,
      "pressure": 4326,
      "anchor": 4327,
      "FROM": 4328,
      "ips": 4329,
      "maybe": 4330,
      "readable": 4331,
      "rstrip": 4332,
      "404": 4333,
      "Attemp": 4334,
      "front": 4335,
      "ges": 4336,
      "Permission": 4337,
      "exposure": 4338,
      "indicates": 4339,
      "Fin": 4340,
      "sil": 4341,
      "adv": 4342,
      "asyncio": 4343,
      "dm": 4344,
      "integers": 4345,
      "Split": 4346,
      "fastq": 4347,
      "locked": 4348,
      "observed": 4349,
      "nearest": 4350,
      "cel": 4351,
      "chrom": 4352,
      "phone": 4353,
      "capacity": 4354,
      "ftime": 4355,
      "adds": 4356,
      "CIM": 4357,
      "silon": 4358,
      "crop": 4359,
      "Poly": 4360,
      "OF": 4361,
      "lt": 4362,
      "Rece": 4363,
      "mappings": 4364,
      "globals": 4365,
      "parsers": 4366,
      "SSL": 4367,
      "Char": 4368,
      "erred": 4369,
      "wit": 4370,
      "expir": 4371,
      "klass": 4372,
      "quiet": 4373,
      "AST": 4374,
      "SELECT": 4375,
      "strftime": 4376,
      "successfully": 4377,
      "attempts": 4378,
      "REG": 4379,
      "predictions": 4380,
      "decoder": 4381,
      "coverage": 4382,
      "gether": 4383,
      "combined": 4384,
      "Matrix": 4385,
      "Wait": 4386,
      "Sta": 4387,
      "wever": 4388,
      "handling": 4389,
      "corre": 4390,
      "Account": 4391,
      "ULL": 4392,
      "pal": 4393,
      "issu": 4394,
      "IST": 4395,
      "sever": 4396,
      "weighted": 4397,
      "ONE": 4398,
      "increment": 4399,
      "Flow": 4400,
      "mav": 4401,
      "behavior": 4402,
      "Replace": 4403,
      "128": 4404,
      "48": 4405,
      "vation": 4406,
      "atures": 4407,
      "eas": 4408,
      "Meta": 4409,
      "y1": 4410,
      "classification": 4411,
      "alizes": 4412,
      "S3": 4413,
      "Directory": 4414,
      "trip": 4415,
      "masked": 4416,
      "IM": 4417,
      "PIP": 4418,
      "restart": 4419,
      "GR": 4420,
      "3d": 4421,
      "cali": 4422,
      "utype": 4423,
      "pus": 4424,
      "h5": 4425,
      "together": 4426,
      "transi": 4427,
      "Authenti": 4428,
      "scene": 4429,
      "protein": 4430,
      "rende": 4431,
      "CRE": 4432,
      "chro": 4433,
      "linalg": 4434,
      "park": 4435,
      "errno": 4436,
      "decoded": 4437,
      "bulk": 4438,
      "v3": 4439,
      "epsilon": 4440,
      "FIEL": 4441,
      "Skip": 4442,
      "assessment": 4443,
      "distances": 4444,
      "comma": 4445,
      "stems": 4446,
      "kill": 4447,
      "NT": 4448,
      "mc": 4449,
      "conj": 4450,
      "ylabel": 4451,
      "2f": 4452,
      "hierarchy": 4453,
      "whitespace": 4454,
      "Exit": 4455,
      "Compon": 4456,
      "listed": 4457,
      "waiting": 4458,
      "Su": 4459,
      "relevant": 4460,
      "RGB": 4461,
      "give": 4462,
      "toler": 4463,
      "accepted": 4464,
      "tach": 4465,
      "eigen": 4466,
      "AF": 4467,
      "dimensional": 4468,
      "1D": 4469,
      "gi": 4470,
      "todo": 4471,
      "documents": 4472,
      "artifact": 4473,
      "rupt": 4474,
      "LL": 4475,
      "ORY": 4476,
      "cam": 4477,
      "restore": 4478,
      "logic": 4479,
      "runner": 4480,
      "hooks": 4481,
      "bootstrap": 4482,
      "ND": 4483,
      "specs": 4484,
      "percentage": 4485,
      "COMM": 4486,
      "55": 4487,
      "Pool": 4488,
      "Backends": 4489,
      "consistent": 4490,
      "Download": 4491,
      "compression": 4492,
      "ired": 4493,
      "tip": 4494,
      "abort": 4495,
      "ETE": 4496,
      "calibr": 4497,
      "composition": 4498,
      "xlabel": 4499,
      "partitions": 4500,
      "solve": 4501,
      "everything": 4502,
      "encryption": 4503,
      "AA": 4504,
      "estimator": 4505,
      "WARN": 4506,
      "pf": 4507,
      "compil": 4508,
      "yy": 4509,
      "alth": 4510,
      "bases": 4511,
      "DU": 4512,
      "namespaces": 4513,
      "MIN": 4514,
      "instanti": 4515,
      "Decode": 4516,
      "thisObj": 4517,
      "activation": 4518,
      "YANGDyn": 4519,
      "YANGDynClass": 4520,
      "cleanup": 4521,
      "listener": 4522,
      "hits": 4523,
      "compli": 4524,
      "Sum": 4525,
      "anything": 4526,
      "CODE": 4527,
      "Fail": 4528,
      "Parti": 4529,
      "mazon": 4530,
      "l2": 4531,
      "Pop": 4532,
      "wrong": 4533,
      "verbosity": 4534,
      "contained": 4535,
      "Vis": 4536,
      "handles": 4537,
      "t1": 4538,
      "hazard": 4539,
      "WN": 4540,
      "ys": 4541,
      "cen": 4542,
      "learn": 4543,
      "Null": 4544,
      "ird": 4545,
      "96": 4546,
      "patial": 4547,
      "ttl": 4548,
      "Eval": 4549,
      "chart": 4550,
      "variants": 4551,
      "FLAG": 4552,
      "400": 4553,
      "older": 4554,
      "inger": 4555,
      "confli": 4556,
      "wallet": 4557,
      "attached": 4558,
      "wcs": 4559,
      "hide": 4560,
      "places": 4561,
      "UI": 4562,
      "geno": 4563,
      "specifying": 4564,
      "routes": 4565,
      "shapes": 4566,
      "chosen": 4567,
      "throw": 4568,
      "exe": 4569,
      "Custom": 4570,
      "andom": 4571,
      "itation": 4572,
      "physical": 4573,
      "previously": 4574,
      "utf8": 4575,
      "CD": 4576,
      "simulation": 4577,
      "fr": 4578,
      "shard": 4579,
      "Decorator": 4580,
      "jid": 4581,
      "UTC": 4582,
      "vrf": 4583,
      "TED": 4584,
      "sr": 4585,
      "exchange": 4586,
      "apps": 4587,
      "tl": 4588,
      "finite": 4589,
      "Using": 4590,
      "ni": 4591,
      "shutdown": 4592,
      "My": 4593,
      "located": 4594,
      "Boolean": 4595,
      "Profile": 4596,
      "fidence": 4597,
      "outside": 4598,
      "critical": 4599,
      "findall": 4600,
      "performed": 4601,
      "across": 4602,
      "deps": 4603,
      "180": 4604,
      "det": 4605,
      "cipher": 4606,
      "silent": 4607,
      "nail": 4608,
      "problems": 4609,
      "estimated": 4610,
      "iers": 4611,
      "mal": 4612,
      "phrase": 4613,
      "never": 4614,
      "alive": 4615,
      "magnitude": 4616,
      "arbit": 4617,
      "accounts": 4618,
      "covariance": 4619,
      "affe": 4620,
      "Batch": 4621,
      "kv": 4622,
      "testing": 4623,
      "Bytes": 4624,
      "pagin": 4625,
      "NaN": 4626,
      "indexed": 4627,
      "acces": 4628,
      "Application": 4629,
      "unused": 4630,
      "Emp": 4631,
      "streams": 4632,
      "replacement": 4633,
      "possi": 4634,
      "alternative": 4635,
      "Callback": 4636,
      "Some": 4637,
      "vor": 4638,
      "Generator": 4639,
      "wind": 4640,
      "Core": 4641,
      "makedirs": 4642,
      "comes": 4643,
      "fac": 4644,
      "tively": 4645,
      "Computes": 4646,
      "better": 4647,
      "flu": 4648,
      "minute": 4649,
      "c2": 4650,
      "artist": 4651,
      "prefixes": 4652,
      "fro": 4653,
      "beat": 4654,
      "itable": 4655,
      "1024": 4656,
      "ported": 4657,
      "sky": 4658,
      "Connect": 4659,
      "Maximum": 4660,
      "stim": 4661,
      "ior": 4662,
      "handled": 4663,
      "vox": 4664,
      "2015": 4665,
      "wall": 4666,
      "identify": 4667,
      "splitext": 4668,
      "PIPE": 4669,
      "PI": 4670,
      "underlying": 4671,
      "Role": 4672,
      "sus": 4673,
      "scen": 4674,
      "Control": 4675,
      "strategy": 4676,
      "d2": 4677,
      "passing": 4678,
      "Draw": 4679,
      "float64": 4680,
      "eta": 4681,
      "broadcast": 4682,
      "gid": 4683,
      "filesystem": 4684,
      "beginning": 4685,
      "inted": 4686,
      "letter": 4687,
      "writes": 4688,
      "replaced": 4689,
      "article": 4690,
      "ERE": 4691,
      "authenticated": 4692,
      "literal": 4693,
      "unable": 4694,
      "MAP": 4695,
      "Pos": 4696,
      "ordin": 4697,
      "endpoints": 4698,
      "branches": 4699,
      "reversed": 4700,
      "mole": 4701,
      "Grid": 4702,
      "aster": 4703,
      "va": 4704,
      "mpls": 4705,
      "occurren": 4706,
      "nv": 4707,
      "compatibility": 4708,
      "orientation": 4709,
      "broker": 4710,
      "containers": 4711,
      "Enti": 4712,
      "horizontal": 4713,
      "87": 4714,
      "ience": 4715,
      "stride": 4716,
      "enough": 4717,
      "consider": 4718,
      "datastore": 4719,
      "foc": 4720,
      "describ": 4721,
      "tell": 4722,
      "launch": 4723,
      "utili": 4724,
      "longer": 4725,
      "mapper": 4726,
      "respec": 4727,
      "imported": 4728,
      "quantity": 4729,
      "slices": 4730,
      "exactly": 4731,
      "dummy": 4732,
      "UTF": 4733,
      "ines": 4734,
      "Invo": 4735,
      "Comple": 4736,
      "xi": 4737,
      "ordering": 4738,
      "datatype": 4739,
      "fu": 4740,
      "aggregate": 4741,
      "rather": 4742,
      "sending": 4743,
      "modific": 4744,
      "spectrum": 4745,
      "readline": 4746,
      "STAT": 4747,
      "ons": 4748,
      "Flag": 4749,
      "dom": 4750,
      "hashes": 4751,
      "LEN": 4752,
      "simply": 4753,
      "concatenate": 4754,
      "Tool": 4755,
      "clock": 4756,
      "tolerance": 4757,
      "rx": 4758,
      "READ": 4759,
      "Environ": 4760,
      "bounding": 4761,
      "combine": 4762,
      "scheduler": 4763,
      "prot": 4764,
      "03": 4765,
      "boxes": 4766,
      "clause": 4767,
      "explicitly": 4768,
      "aligned": 4769,
      "periods": 4770,
      "communic": 4771,
      "sudo": 4772,
      "calendar": 4773,
      "cop": 4774,
      "Policy": 4775,
      "nat": 4776,
      "PS": 4777,
      "Cle": 4778,
      "nick": 4779,
      "factors": 4780,
      "duplicates": 4781,
      "Select": 4782,
      "omit": 4783,
      "grains": 4784,
      "resolver": 4785,
      "Close": 4786,
      "oring": 4787,
      "charset": 4788,
      "t2": 4789,
      "groupby": 4790,
      "wild": 4791,
      "Identifier": 4792,
      "xrange": 4793,
      "splitlines": 4794,
      "ette": 4795,
      "m2": 4796,
      "PN": 4797,
      "pep": 4798,
      "identifiers": 4799,
      "mandatory": 4800,
      "measurements": 4801,
      "recomm": 4802,
      "d1": 4803,
      "gno": 4804,
      "pn": 4805,
      "tenant": 4806,
      "coll": 4807,
      "Keyword": 4808,
      "scaled": 4809,
      "registration": 4810,
      "gzip": 4811,
      "confidence": 4812,
      "scatter": 4813,
      "transformation": 4814,
      "AY": 4815,
      "shots": 4816,
      "retcode": 4817,
      "nonce": 4818,
      "ards": 4819,
      "ante": 4820,
      "Child": 4821,
      "Hash": 4822,
      "sures": 4823,
      "transcript": 4824,
      "evaluation": 4825,
      "Integer": 4826,
      "Dec": 4827,
      "routine": 4828,
      "contour": 4829,
      "batches": 4830,
      "Install": 4831,
      "converter": 4832,
      "CESS": 4833,
      "Ta": 4834,
      "arrow": 4835,
      "deli": 4836,
      "Clear": 4837,
      "acl": 4838,
      "capture": 4839,
      "ValidationError": 4840,
      "CAL": 4841,
      "outine": 4842,
      "relations": 4843,
      "optimizer": 4844,
      "hdf": 4845,
      "reload": 4846,
      "Sin": 4847,
      "Geo": 4848,
      "correctly": 4849,
      "downloaded": 4850,
      "mil": 4851,
      "incoming": 4852,
      "Simple": 4853,
      "spacing": 4854,
      "CC": 4855,
      "newline": 4856,
      "Del": 4857,
      "deployment": 4858,
      "torch": 4859,
      "smooth": 4860,
      "zz": 4861,
      "rh": 4862,
      "aggregation": 4863,
      "predicted": 4864,
      "interpolation": 4865,
      "Agent": 4866,
      "SK": 4867,
      "jump": 4868,
      "decorated": 4869,
      "mouse": 4870,
      "olve": 4871,
      "voxel": 4872,
      "DATE": 4873,
      "vtk": 4874,
      "destroy": 4875,
      "FORMAT": 4876,
      "88": 4877,
      "topics": 4878,
      "bytearray": 4879,
      "canonical": 4880,
      "who": 4881,
      "lif": 4882,
      "configur": 4883,
      "specifies": 4884,
      "expanded": 4885,
      "linked": 4886,
      "coefficient": 4887,
      "Sty": 4888,
      "Rep": 4889,
      "Clust": 4890,
      "datas": 4891,
      "reaction": 4892,
      "atives": 4893,
      "cuit": 4894,
      "closest": 4895,
      "immediately": 4896,
      "SSH": 4897,
      "Types": 4898,
      "Environment": 4899,
      "splits": 4900,
      "97": 4901,
      "dating": 4902,
      "urther": 4903,
      "CB": 4904,
      "ulate": 4905,
      "Section": 4906,
      "Bas": 4907,
      "Render": 4908,
      "06": 4909,
      "c1": 4910,
      "BY": 4911,
      "LED": 4912,
      "Tot": 4913,
      "NULL": 4914,
      "elastic": 4915,
      "Iterable": 4916,
      "observations": 4917,
      "workspace": 4918,
      "Limit": 4919,
      "detected": 4920,
      "published": 4921,
      "gments": 4922,
      "locity": 4923,
      "WARNING": 4924,
      "Random": 4925,
      "sensitive": 4926,
      "locate": 4927,
      "transformed": 4928,
      "Site": 4929,
      "strain": 4930,
      "Lookup": 4931,
      "beam": 4932,
      "styles": 4933,
      "sb": 4934,
      "Loads": 4935,
      "Volume": 4936,
      "hint": 4937,
      "pout": 4938,
      "Ap": 4939,
      "sla": 4940,
      "tives": 4941,
      "retrieved": 4942,
      "cv": 4943,
      "Loop": 4944,
      "renderer": 4945,
      "Av": 4946,
      "Json": 4947,
      "generation": 4948,
      "accuracy": 4949,
      "assets": 4950,
      "xyz": 4951,
      "fq": 4952,
      "prun": 4953,
      "qubits": 4954,
      "SY": 4955,
      "dian": 4956,
      "int32": 4957,
      "slash": 4958,
      "tid": 4959,
      "vpc": 4960,
      "java": 4961,
      "disco": 4962,
      "interest": 4963,
      "OUT": 4964,
      "Proxy": 4965,
      "b64": 4966,
      "MPL": 4967,
      "ATOR": 4968,
      "TEXT": 4969,
      "domains": 4970,
      "rd": 4971,
      "placeholder": 4972,
      "alert": 4973,
      "structures": 4974,
      "2016": 4975,
      "sf": 4976,
      "resize": 4977,
      "graphs": 4978,
      "locator": 4979,
      "indicator": 4980,
      "joint": 4981,
      "BE": 4982,
      "shutit": 4983,
      "3D": 4984,
      "leading": 4985,
      "CSV": 4986,
      "VALID": 4987,
      "particip": 4988,
      "derivative": 4989,
      "Empty": 4990,
      "ASS": 4991,
      "OU": 4992,
      "fontsize": 4993,
      "orbit": 4994,
      "9999": 4995,
      "Writes": 4996,
      "Uses": 4997,
      "mq": 4998,
      "logged": 4999,
      "yields": 5000,
      "recursively": 5001,
      "Registr": 5002,
      "sect": 5003,
      "things": 5004,
      "cookies": 5005,
      "Main": 5006,
      "Verify": 5007,
      "SCR": 5008,
      "interp": 5009,
      "Shape": 5010,
      "Func": 5011,
      "08": 5012,
      "Ids": 5013,
      "grp": 5014,
      "Position": 5015,
      "54": 5016,
      "Url": 5017,
      "YA": 5018,
      "secure": 5019,
      "ov": 5020,
      "blocking": 5021,
      "EV": 5022,
      "receiver": 5023,
      "win32": 5024,
      "issuer": 5025,
      "tm": 5026,
      "ticket": 5027,
      "topology": 5028,
      "determined": 5029,
      "overflow": 5030,
      "Symbol": 5031,
      "uped": 5032,
      "usually": 5033,
      "Den": 5034,
      "fpath": 5035,
      "jar": 5036,
      "upgrade": 5037,
      "ational": 5038,
      "itertools": 5039,
      "OB": 5040,
      "overrides": 5041,
      "Unit": 5042,
      "1f": 5043,
      "stro": 5044,
      "mor": 5045,
      "mtime": 5046,
      "Entity": 5047,
      "iff": 5048,
      "Formatter": 5049,
      "defaultdict": 5050,
      "iterate": 5051,
      "Interface": 5052,
      "Transaction": 5053,
      "objs": 5054,
      "checkpoint": 5055,
      "Stack": 5056,
      "land": 5057,
      "ench": 5058,
      "normalization": 5059,
      "radians": 5060,
      "gc": 5061,
      "mol": 5062,
      "sessions": 5063,
      "DELETE": 5064,
      "BL": 5065,
      "pw": 5066,
      "equation": 5067,
      "rices": 5068,
      "cleaned": 5069,
      "voltage": 5070,
      "tgt": 5071,
      "expires": 5072,
      "Dim": 5073,
      "CONT": 5074,
      "ned": 5075,
      "byref": 5076,
      "Keys": 5077,
      "posed": 5078,
      "preferred": 5079,
      "Component": 5080,
      "semble": 5081,
      "iface": 5082,
      "coding": 5083,
      "las": 5084,
      "timeseries": 5085,
      "ERS": 5086,
      "Bar": 5087,
      "lik": 5088,
      "Merge": 5089,
      "having": 5090,
      "uint8": 5091,
      "Django": 5092,
      "RES": 5093,
      "angular": 5094,
      "LINE": 5095,
      "elect": 5096,
      "percenti": 5097,
      "Cap": 5098,
      "Sort": 5099,
      "volumes": 5100,
      "hot": 5101,
      "licies": 5102,
      "expressions": 5103,
      "adjac": 5104,
      "ART": 5105,
      "42": 5106,
      "depends": 5107,
      "floats": 5108,
      "payment": 5109,
      "2000": 5110,
      "WHERE": 5111,
      "corpus": 5112,
      "Pay": 5113,
      "bf": 5114,
      "satis": 5115,
      "chemy": 5116,
      "Runs": 5117,
      "Top": 5118,
      "iving": 5119,
      "probably": 5120,
      "expired": 5121,
      "focus": 5122,
      "traject": 5123,
      "figsize": 5124,
      "References": 5125,
      "closing": 5126,
      "Rule": 5127,
      "packed": 5128,
      "Plug": 5129,
      "choose": 5130,
      "strand": 5131,
      "ables": 5132,
      "Encode": 5133,
      "chains": 5134,
      "mn": 5135,
      "acqui": 5136,
      "provision": 5137,
      "charge": 5138,
      "widgets": 5139,
      "recognized": 5140,
      "tcp": 5141,
      "velocity": 5142,
      "scopes": 5143,
      "positional": 5144,
      "legal": 5145,
      "ube": 5146,
      "ario": 5147,
      "rendered": 5148,
      "INPUT": 5149,
      "Specify": 5150,
      "Width": 5151,
      "interactive": 5152,
      "bc": 5153,
      "matrices": 5154,
      "Factory": 5155,
      "finger": 5156,
      "trailing": 5157,
      "palette": 5158,
      "dead": 5159,
      "istic": 5160,
      "grouped": 5161,
      "colour": 5162,
      "Trace": 5163,
      "VAR": 5164,
      "kwds": 5165,
      "opened": 5166,
      "thumbnail": 5167,
      "listdir": 5168,
      "nic": 5169,
      "versal": 5170,
      "properly": 5171,
      "provides": 5172,
      "sampler": 5173,
      "organization": 5174,
      "arbitrary": 5175,
      "pitch": 5176,
      "Append": 5177,
      "filled": 5178,
      "Domain": 5179,
      "Align": 5180,
      "care": 5181,
      "km": 5182,
      "sug": 5183,
      "vc": 5184,
      "stable": 5185,
      "Expected": 5186,
      "trust": 5187,
      "Files": 5188,
      "Settings": 5189,
      "udo": 5190,
      "roo": 5191,
      "higher": 5192,
      "NotFoundError": 5193,
      "Engine": 5194,
      "described": 5195,
      "Total": 5196,
      "IR": 5197,
      "Assign": 5198,
      "Popen": 5199,
      "Recur": 5200,
      "Enabled": 5201,
      "plotting": 5202,
      "r2": 5203,
      "preview": 5204,
      "suitable": 5205,
      "Reader": 5206,
      "indicate": 5207,
      "bindings": 5208,
      "ow": 5209,
      "oa": 5210,
      "ink": 5211,
      "Style": 5212,
      "YAML": 5213,
      "Hist": 5214,
      "propa": 5215,
      "impl": 5216,
      "arger": 5217,
      "various": 5218,
      "los": 5219,
      "Fix": 5220,
      "scroll": 5221,
      "getting": 5222,
      "residual": 5223,
      "ctrl": 5224,
      "perms": 5225,
      "stores": 5226,
      "shortcut": 5227,
      "folders": 5228,
      "executor": 5229,
      "Admin": 5230,
      "Analysis": 5231,
      "Protocol": 5232,
      "Additional": 5233,
      "networks": 5234,
      "customer": 5235,
      "health": 5236,
      "STATE": 5237,
      "Script": 5238,
      "orders": 5239,
      "comps": 5240,
      "Move": 5241,
      "desk": 5242,
      "serializ": 5243,
      "markers": 5244,
      "WORD": 5245,
      "38": 5246,
      "Non": 5247,
      "quick": 5248,
      "compliance": 5249,
      "OUTP": 5250,
      "sam": 5251,
      "invoke": 5252,
      "49": 5253,
      "USE": 5254,
      "ios": 5255,
      "profiles": 5256,
      "copied": 5257,
      "nap": 5258,
      "trying": 5259,
      "far": 5260,
      "ylim": 5261,
      "idence": 5262,
      "Cho": 5263,
      "ented": 5264,
      "timestamps": 5265,
      "CTION": 5266,
      "widths": 5267,
      "bond": 5268,
      "ceeded": 5269,
      "Setup": 5270,
      "Descriptor": 5271,
      "Callable": 5272,
      "Either": 5273,
      "extr": 5274,
      "gh": 5275,
      "ian": 5276,
      "roid": 5277,
      "friend": 5278,
      "00000000": 5279,
      "azim": 5280,
      "xmin": 5281,
      "hest": 5282,
      "modes": 5283,
      "entropy": 5284,
      "kwarg": 5285,
      "much": 5286,
      "license": 5287,
      "facts": 5288,
      "47": 5289,
      "58": 5290,
      "lattice": 5291,
      "Root": 5292,
      "FIELD": 5293,
      "OUTPUT": 5294,
      "Bind": 5295,
      "Meas": 5296,
      "mb": 5297,
      "Iterate": 5298,
      "coer": 5299,
      "frequencies": 5300,
      "SUB": 5301,
      "cube": 5302,
      "chi": 5303,
      "m1": 5304,
      "REQUI": 5305,
      "Next": 5306,
      "subplot": 5307,
      "directed": 5308,
      "Step": 5309,
      "09": 5310,
      "cach": 5311,
      "Cluster": 5312,
      "spatial": 5313,
      "alphab": 5314,
      "credential": 5315,
      "kg": 5316,
      "seudo": 5317,
      "metry": 5318,
      "CII": 5319,
      "Don": 5320,
      "att": 5321,
      "stud": 5322,
      "notifications": 5323,
      "Reset": 5324,
      "ances": 5325,
      "NUM": 5326,
      "fcoe": 5327,
      "recipe": 5328,
      "centers": 5329,
      "correction": 5330,
      "Defini": 5331,
      "generators": 5332,
      "XY": 5333,
      "bio": 5334,
      "further": 5335,
      "activate": 5336,
      "x00": 5337,
      "Package": 5338,
      "cnt": 5339,
      "formatting": 5340,
      "coroutine": 5341,
      "reached": 5342,
      "ighest": 5343,
      "water": 5344,
      "PARAM": 5345,
      "trial": 5346,
      "policies": 5347,
      "Report": 5348,
      "instruction": 5349,
      "Pla": 5350,
      "thers": 5351,
      "INTER": 5352,
      "dense": 5353,
      "utool": 5354,
      "ancestor": 5355,
      "printed": 5356,
      "velength": 5357,
      "Af": 5358,
      "lan": 5359,
      "prevent": 5360,
      "y0": 5361,
      "Extension": 5362,
      "Button": 5363,
      "07": 5364,
      "El": 5365,
      "La": 5366,
      "rich": 5367,
      "nonzero": 5368,
      "computation": 5369,
      "respect": 5370,
      "Vir": 5371,
      "primi": 5372,
      "pv": 5373,
      "reduced": 5374,
      "Evalu": 5375,
      "filtering": 5376,
      "authorized": 5377,
      "excluded": 5378,
      "lags": 5379,
      "xmax": 5380,
      "listing": 5381,
      "smaller": 5382,
      "Glob": 5383,
      "minim": 5384,
      "FFFF": 5385,
      "VALUE": 5386,
      "Timestamp": 5387,
      "ipv4": 5388,
      "mediator": 5389,
      "Offset": 5390,
      "Flo": 5391,
      "soup": 5392,
      "Syntax": 5393,
      "notation": 5394,
      "represented": 5395,
      "displayed": 5396,
      "belon": 5397,
      "mongo": 5398,
      "infile": 5399,
      "produce": 5400,
      "tif": 5401,
      "tok": 5402,
      "ROOT": 5403,
      "ny": 5404,
      "preserve": 5405,
      "defines": 5406,
      "Are": 5407,
      "nomi": 5408,
      "tzinfo": 5409,
      "tot": 5410,
      "buckets": 5411,
      "Insert": 5412,
      "Prepare": 5413,
      "spi": 5414,
      "abilities": 5415,
      "REST": 5416,
      "FLAGS": 5417,
      "market": 5418,
      "Cate": 5419,
      "coin": 5420,
      "Dete": 5421,
      "calibration": 5422,
      "Clean": 5423,
      "300": 5424,
      "frozen": 5425,
      "asynchronously": 5426,
      "ADD": 5427,
      "detector": 5428,
      "diagonal": 5429,
      "void": 5430,
      "deviation": 5431,
      "tempfile": 5432,
      "managed": 5433,
      "ExecutionError": 5434,
      "BR": 5435,
      "leave": 5436,
      "swap": 5437,
      "elap": 5438,
      "ASCII": 5439,
      "larger": 5440,
      "logits": 5441,
      "discrete": 5442,
      "Database": 5443,
      "azimuth": 5444,
      "omega": 5445,
      "EST": 5446,
      "Namespace": 5447,
      "shuff": 5448,
      "Word": 5449,
      "press": 5450,
      "saltenv": 5451,
      "bt": 5452,
      "senten": 5453,
      "seqs": 5454,
      "incomplete": 5455,
      "disconnect": 5456,
      "Unsupported": 5457,
      "ims": 5458,
      "stub": 5459,
      "sphere": 5460,
      "y2": 5461,
      "lazy": 5462,
      "tract": 5463,
      "Igno": 5464,
      "GL": 5465,
      "MAC": 5466,
      "sampled": 5467,
      "ventory": 5468,
      "RT": 5469,
      "xlim": 5470,
      "stock": 5471,
      "sun": 5472,
      "combination": 5473,
      "gas": 5474,
      "vered": 5475,
      "encrypt": 5476,
      "svg": 5477,
      "suggest": 5478,
      "abbre": 5479,
      "Quanti": 5480,
      "compiler": 5481,
      "ero": 5482,
      "UB": 5483,
      "embedded": 5484,
      "Bit": 5485,
      "secondary": 5486,
      "accepts": 5487,
      "namespaced": 5488,
      "Assertion": 5489,
      "Deletes": 5490,
      "lr": 5491,
      "backward": 5492,
      "hardware": 5493,
      "UTH": 5494,
      "possibly": 5495,
      "saniti": 5496,
      "Configure": 5497,
      "shif": 5498,
      "contra": 5499,
      "mart": 5500,
      "helpers": 5501,
      "incip": 5502,
      "functools": 5503,
      "others": 5504,
      "Sw": 5505,
      "LOW": 5506,
      "flask": 5507,
      "imports": 5508,
      "Amazon": 5509,
      "Seq": 5510,
      "portal": 5511,
      "rst": 5512,
      "compiled": 5513,
      "mkdir": 5514,
      "describing": 5515,
      "Determines": 5516,
      "Authorization": 5517,
      "Since": 5518,
      "ECT": 5519,
      "highest": 5520,
      "Keyboard": 5521,
      "requirement": 5522,
      "Pat": 5523,
      "logfile": 5524,
      "sink": 5525,
      "arn": 5526,
      "stopped": 5527,
      "milli": 5528,
      "cons": 5529,
      "bold": 5530,
      "ctype": 5531,
      "lid": 5532,
      "76": 5533,
      "applies": 5534,
      "RFC": 5535,
      "Tit": 5536,
      "issubclass": 5537,
      "neur": 5538,
      "sentences": 5539,
      "ffff": 5540,
      "identified": 5541,
      "elapsed": 5542,
      "bill": 5543,
      "Ori": 5544,
      "referenced": 5545,
      "stddev": 5546,
      "Cursor": 5547,
      "bench": 5548,
      "Finds": 5549,
      "several": 5550,
      "camp": 5551,
      "LOCK": 5552,
      "QA": 5553,
      "mater": 5554,
      "snmp": 5555,
      "integration": 5556,
      "r1": 5557,
      "paired": 5558,
      "ARY": 5559,
      "implicit": 5560,
      "cycles": 5561,
      "Iteration": 5562,
      "cumulative": 5563,
      "ris": 5564,
      "wheel": 5565,
      "Ed": 5566,
      "stone": 5567,
      "triple": 5568,
      "aging": 5569,
      "Binary": 5570,
      "recipient": 5571,
      "callpoint": 5572,
      "markup": 5573,
      "slots": 5574,
      "Pe": 5575,
      "getLogger": 5576,
      "olds": 5577,
      "asing": 5578,
      "legacy": 5579,
      "vy": 5580,
      "won": 5581,
      "ulation": 5582,
      "mini": 5583,
      "taxon": 5584,
      "ko": 5585,
      "today": 5586,
      "Track": 5587,
      "peaks": 5588,
      "cha": 5589,
      "aign": 5590,
      "probabilities": 5591,
      "inherit": 5592,
      "ffic": 5593,
      "making": 5594,
      "inja": 5595,
      "converts": 5596,
      "CommandExecutionError": 5597,
      "sic": 5598,
      "gpu": 5599,
      "NV": 5600,
      "ledge": 5601,
      "FIXME": 5602,
      "authenticate": 5603,
      "guar": 5604,
      "skipped": 5605,
      "Region": 5606,
      "CM": 5607,
      "snapshots": 5608,
      "away": 5609,
      "anced": 5610,
      "Like": 5611,
      "transforms": 5612,
      "Interval": 5613,
      "UUID": 5614,
      "inx": 5615,
      "gered": 5616,
      "199": 5617,
      "perio": 5618,
      "csr": 5619,
      "expiration": 5620,
      "camera": 5621,
      "moving": 5622,
      "funcs": 5623,
      "titles": 5624,
      "ArgumentParser": 5625,
      "Virt": 5626,
      "rbridge": 5627,
      "cule": 5628,
      "prime": 5629,
      "alarm": 5630,
      "crit": 5631,
      "dropout": 5632,
      "46": 5633,
      "56": 5634,
      "lam": 5635,
      "coeffs": 5636,
      "rhs": 5637,
      "intf": 5638,
      "heat": 5639,
      "deserialize": 5640,
      "optimize": 5641,
      "localhost": 5642,
      "marks": 5643,
      "consumed": 5644,
      "likely": 5645,
      "SL": 5646,
      "rotate": 5647,
      "flip": 5648,
      "Cons": 5649,
      "Login": 5650,
      "poster": 5651,
      "declaration": 5652,
      "fake": 5653,
      "systems": 5654,
      "f1": 5655,
      "fault": 5656,
      "coder": 5657,
      "identical": 5658,
      "pod": 5659,
      "deno": 5660,
      "quoted": 5661,
      "Scan": 5662,
      "usr": 5663,
      "SCRIP": 5664,
      "AUTH": 5665,
      "pprint": 5666,
      "Structure": 5667,
      "n1": 5668,
      "ony": 5669,
      "doi": 5670,
      "creds": 5671,
      "similarity": 5672,
      "xmlns": 5673,
      "qualified": 5674,
      "509": 5675,
      "aw": 5676,
      "intro": 5677,
      "UNK": 5678,
      "scales": 5679,
      "DateTime": 5680,
      "Dump": 5681,
      "UD": 5682,
      "ire": 5683,
      "sibl": 5684,
      "decla": 5685,
      "inserted": 5686,
      "UST": 5687,
      "floating": 5688,
      "Ang": 5689,
      "Font": 5690,
      "reports": 5691,
      "orth": 5692,
      "orter": 5693,
      "matic": 5694,
      "probs": 5695,
      "circle": 5696,
      "impact": 5697,
      "Performs": 5698,
      "touch": 5699,
      "Fut": 5700,
      "rp": 5701,
      "uled": 5702,
      "polar": 5703,
      "Virtual": 5704,
      "upon": 5705,
      "However": 5706,
      "detection": 5707,
      "hdu": 5708,
      "2014": 5709,
      "fingerprint": 5710,
      "May": 5711,
      "lb": 5712,
      "outdir": 5713,
      "pkt": 5714,
      "unexpected": 5715,
      "spark": 5716,
      "tolist": 5717,
      "quee": 5718,
      "contig": 5719,
      "stm": 5720,
      "firmware": 5721,
      "GS": 5722,
      "independent": 5723,
      "boo": 5724,
      "Avail": 5725,
      "pseudo": 5726,
      "addition": 5727,
      "Prefix": 5728,
      "really": 5729,
      "languages": 5730,
      "grant": 5731,
      "tems": 5732,
      "past": 5733,
      "operand": 5734,
      "expanduser": 5735,
      "Endpoint": 5736,
      "fileobj": 5737,
      "loy": 5738,
      "cepts": 5739,
      "wavelength": 5740,
      "gain": 5741,
      "dists": 5742,
      "ised": 5743,
      "Export": 5744,
      "TABLE": 5745,
      "lexer": 5746,
      "twilio": 5747,
      "Writ": 5748,
      "pex": 5749,
      "latent": 5750,
      "Raw": 5751,
      "transformer": 5752,
      "subscribe": 5753,
      "dh": 5754,
      "reserved": 5755,
      "aspect": 5756,
      "Fig": 5757,
      "Layout": 5758,
      "stroke": 5759,
      "inject": 5760,
      "dv": 5761,
      "inventory": 5762,
      "initializer": 5763,
      "cmp": 5764,
      "ParseError": 5765,
      "crs": 5766,
      "Then": 5767,
      "Failure": 5768,
      "EMA": 5769,
      "AssertionError": 5770,
      "removing": 5771,
      "air": 5772,
      "PORT": 5773,
      "Samp": 5774,
      "Util": 5775,
      "saving": 5776,
      "continuous": 5777,
      "Attributes": 5778,
      "corresponds": 5779,
      "vcs": 5780,
      "int64": 5781,
      "classname": 5782,
      "syll": 5783,
      "throat": 5784,
      "ellip": 5785,
      "EXT": 5786,
      "sqlite": 5787,
      "collap": 5788,
      "sha1": 5789,
      "After": 5790,
      "newly": 5791,
      "overall": 5792,
      "anno": 5793,
      "outcome": 5794,
      "NN": 5795,
      "ymax": 5796,
      "ens": 5797,
      "lica": 5798,
      "performance": 5799,
      "SHA": 5800,
      "WOR": 5801,
      "ctl": 5802,
      "distin": 5803,
      "mosome": 5804,
      "Expression": 5805,
      "SV": 5806,
      "urlparse": 5807,
      "padded": 5808,
      "defs": 5809,
      "gence": 5810,
      "ceil": 5811,
      "LIST": 5812,
      "TF": 5813,
      "mgr": 5814,
      "elt": 5815,
      "tunnel": 5816,
      "EP": 5817,
      "lstrip": 5818,
      "heads": 5819,
      "queues": 5820,
      "Authentication": 5821,
      "hp": 5822,
      "sequent": 5823,
      "Redis": 5824,
      "ctivity": 5825,
      "JECT": 5826,
      "Space": 5827,
      "Plugin": 5828,
      "atel": 5829,
      "subtype": 5830,
      "occurs": 5831,
      "ran": 5832,
      "cture": 5833,
      "prod": 5834,
      "URLs": 5835,
      "Builder": 5836,
      "trees": 5837,
      "rema": 5838,
      "Sing": 5839,
      "heading": 5840,
      "mysql": 5841,
      "though": 5842,
      "Pipe": 5843,
      "signing": 5844,
      "Short": 5845,
      "guarante": 5846,
      "59": 5847,
      "lets": 5848,
      "evidence": 5849,
      "Ga": 5850,
      "abstract": 5851,
      "fered": 5852,
      "discard": 5853,
      "terminate": 5854,
      "follows": 5855,
      "effective": 5856,
      "doing": 5857,
      "wf": 5858,
      "codon": 5859,
      "indexer": 5860,
      "visu": 5861,
      "transitions": 5862,
      "dct": 5863,
      "song": 5864,
      "metavar": 5865,
      "expire": 5866,
      "piece": 5867,
      "transactions": 5868,
      "river": 5869,
      "authors": 5870,
      "occurred": 5871,
      "Basic": 5872,
      "Title": 5873,
      "markdown": 5874,
      "Tags": 5875,
      "BASE": 5876,
      "kb": 5877,
      "updating": 5878,
      "retval": 5879,
      "quotes": 5880,
      "Full": 5881,
      "motor": 5882,
      "sensus": 5883,
      "Program": 5884,
      "migration": 5885,
      "unded": 5886,
      "Include": 5887,
      "collector": 5888,
      "Definition": 5889,
      "Cer": 5890,
      "anim": 5891,
      "nomial": 5892,
      "Email": 5893,
      "Ph": 5894,
      "cas": 5895,
      "snp": 5896,
      "doctest": 5897,
      "pieces": 5898,
      "Future": 5899,
      "PM": 5900,
      "abc": 5901,
      "bum": 5902,
      "tensors": 5903,
      "FT": 5904,
      "xc": 5905,
      "appended": 5906,
      "bri": 5907,
      "relpath": 5908,
      "t0": 5909,
      "products": 5910,
      "Day": 5911,
      "pol": 5912,
      "resample": 5913,
      "mock": 5914,
      "StringIO": 5915,
      "declared": 5916,
      "uncertain": 5917,
      "weet": 5918,
      "Indi": 5919,
      "triggered": 5920,
      "Sends": 5921,
      "Gui": 5922,
      "PDF": 5923,
      "WA": 5924,
      "bj": 5925,
      "nargs": 5926,
      "evaluated": 5927,
      "pkgs": 5928,
      "slave": 5929,
      "TYPES": 5930,
      "DC": 5931,
      "ifo": 5932,
      "forecast": 5933,
      "cmds": 5934,
      "PR": 5935,
      "Bound": 5936,
      "meaning": 5937,
      "tls": 5938,
      "ined": 5939,
      "manually": 5940,
      "Registry": 5941,
      "plate": 5942,
      "colorbar": 5943,
      "Creating": 5944,
      "cron": 5945,
      "wire": 5946,
      "Multiple": 5947,
      "3f": 5948,
      "How": 5949,
      "Quantity": 5950,
      "TCP": 5951,
      "friendly": 5952,
      "alect": 5953,
      "Yields": 5954,
      "percentile": 5955,
      "ee": 5956,
      "ymin": 5957,
      "127": 5958,
      "memo": 5959,
      "hashlib": 5960,
      "deta": 5961,
      "looks": 5962,
      "ravel": 5963,
      "Factor": 5964,
      "REQUIRED": 5965,
      "har": 5966,
      "startup": 5967,
      "extras": 5968,
      "Float": 5969,
      "Zone": 5970,
      "deal": 5971,
      "shown": 5972,
      "Security": 5973,
      "exclusive": 5974,
      "mechan": 5975,
      "pheno": 5976,
      "unix": 5977,
      "marked": 5978,
      "ein": 5979,
      "highlight": 5980,
      "Override": 5981,
      "balan": 5982,
      "simpl": 5983,
      "rng": 5984,
      "stypes": 5985,
      "lem": 5986,
      "purpose": 5987,
      "fm": 5988,
      "roots": 5989,
      "Iss": 5990,
      "orb": 5991,
      "agger": 5992,
      "Dimension": 5993,
      "squee": 5994,
      "visor": 5995,
      "correspond": 5996,
      "drive": 5997,
      "Handles": 5998,
      "tesian": 5999,
      "ever": 6000,
      "i2": 6001,
      "signific": 6002,
      "CMD": 6003,
      "DNS": 6004,
      "IB": 6005,
      "refle": 6006,
      "largest": 6007,
      "cards": 6008,
      "invoked": 6009,
      "Google": 6010,
      "chromosome": 6011,
      "argspec": 6012,
      "ffer": 6013,
      "2017": 6014,
      "bands": 6015,
      "lu": 6016,
      "V1": 6017,
      "uming": 6018,
      "OperationFailed": 6019,
      "decrypt": 6020,
      "2018": 6021,
      "endian": 6022,
      "Upload": 6023,
      "UND": 6024,
      "revo": 6025,
      "leader": 6026,
      "mixed": 6027,
      "configurations": 6028,
      "filt": 6029,
      "intensity": 6030,
      "gies": 6031,
      "recurse": 6032,
      "conflict": 6033,
      "a2": 6034,
      "Fill": 6035,
      "corner": 6036,
      "Cred": 6037,
      "four": 6038,
      "building": 6039,
      "obtained": 6040,
      "boundaries": 6041,
      "modname": 6042,
      "HTTPError": 6043,
      "study": 6044,
      "pause": 6045,
      "OL": 6046,
      "SR": 6047,
      "dw": 6048,
      "validated": 6049,
      "spawn": 6050,
      "sense": 6051,
      "Edit": 6052,
      "wel": 6053,
      "REF": 6054,
      "ALI": 6055,
      "Rect": 6056,
      "bolic": 6057,
      "shuffle": 6058,
      "Sc": 6059,
      "sector": 6060,
      "traffic": 6061,
      "anging": 6062,
      "letters": 6063,
      "Put": 6064,
      "baseline": 6065,
      "multiplier": 6066,
      "Last": 6067,
      "serialization": 6068,
      "posterior": 6069,
      "vate": 6070,
      "ambig": 6071,
      "management": 6072,
      "Pot": 6073,
      "vx": 6074,
      "summar": 6075,
      "symlink": 6076,
      "TEST": 6077,
      "season": 6078,
      "consensus": 6079,
      "XXX": 6080,
      "subj": 6081,
      "longest": 6082,
      "MB": 6083,
      "Memory": 6084,
      "URE": 6085,
      "regard": 6086,
      "CAC": 6087,
      "ao": 6088,
      "checker": 6089,
      "zones": 6090,
      "HttpResponse": 6091,
      "incipal": 6092,
      "truth": 6093,
      "sorting": 6094,
      "anted": 6095,
      "refer": 6096,
      "Specifies": 6097,
      "scenario": 6098,
      "pore": 6099,
      "student": 6100,
      "vmin": 6101,
      "tide": 6102,
      "Rate": 6103,
      "hat": 6104,
      "COUN": 6105,
      "Turn": 6106,
      "dfs": 6107,
      "URN": 6108,
      "tails": 6109,
      "NDArray": 6110,
      "Men": 6111,
      "incl": 6112,
      "dirty": 6113,
      "restriction": 6114,
      "urnal": 6115,
      "ANT": 6116,
      "omitted": 6117,
      "foreign": 6118,
      "ACT": 6119,
      "UNI": 6120,
      "GI": 6121,
      "urlen": 6122,
      "chip": 6123,
      "mimetype": 6124,
      "instructions": 6125,
      "STRING": 6126,
      "f2": 6127,
      "countered": 6128,
      "replic": 6129,
      "Comment": 6130,
      "Signal": 6131,
      "initialization": 6132,
      "optimization": 6133,
      "Manage": 6134,
      "exponent": 6135,
      "asa": 6136,
      "pet": 6137,
      "10000": 6138,
      "tier": 6139,
      "brain": 6140,
      "Member": 6141,
      "Dest": 6142,
      "Builds": 6143,
      "IPv6": 6144,
      "portion": 6145,
      "Fit": 6146,
      "WE": 6147,
      "placement": 6148,
      "FIN": 6149,
      "tpl": 6150,
      "START": 6151,
      "Axes": 6152,
      "Tab": 6153,
      "mutations": 6154,
      "produced": 6155,
      "Items": 6156,
      "infos": 6157,
      "slope": 6158,
      "algo": 6159,
      "nets": 6160,
      "linspace": 6161,
      "ising": 6162,
      "log10": 6163,
      "codec": 6164,
      "directive": 6165,
      "Wal": 6166,
      "grammar": 6167,
      "descend": 6168,
      "Media": 6169,
      "Remote": 6170,
      "aps": 6171,
      "graphic": 6172,
      "distinct": 6173,
      "deca": 6174,
      "observer": 6175,
      "symmetric": 6176,
      "stuff": 6177,
      "rem": 6178,
      "cks": 6179,
      "Asset": 6180,
      "PREFIX": 6181,
      "Attach": 6182,
      "classifier": 6183,
      "qualifier": 6184,
      "ATED": 6185,
      "quit": 6186,
      "categorical": 6187,
      "ners": 6188,
      "daily": 6189,
      "CDF": 6190,
      "datacenter": 6191,
      "Indic": 6192,
      "b2": 6193,
      "dpi": 6194,
      "vmax": 6195,
      "guest": 6196,
      "OPTIONAL": 6197,
      "packets": 6198,
      "threading": 6199,
      "increase": 6200,
      "Need": 6201,
      "mavlink": 6202,
      "ske": 6203,
      "orn": 6204,
      "Adap": 6205,
      "discovery": 6206,
      "MENT": 6207,
      "triggers": 6208,
      "community": 6209,
      "efficient": 6210,
      "squeeze": 6211,
      "fresh": 6212,
      "360": 6213,
      "intermediate": 6214,
      "Unique": 6215,
      "ggle": 6216,
      "Password": 6217,
      "hub": 6218,
      "floor": 6219,
      "Unexpected": 6220,
      "urlencode": 6221,
      "userid": 6222,
      "Docker": 6223,
      "passes": 6224,
      "operators": 6225,
      "StopIteration": 6226,
      "blueprint": 6227,
      "Gaussian": 6228,
      "Cha": 6229,
      "bgp": 6230,
      "LOAD": 6231,
      "Buffer": 6232,
      "scheduled": 6233,
      "Datetime": 6234,
      "Sched": 6235,
      "Stand": 6236,
      "translations": 6237,
      "Counter": 6238,
      "ai": 6239,
      "vim": 6240,
      "001": 6241,
      "distri": 6242,
      "restrict": 6243,
      "blast": 6244,
      "fitting": 6245,
      "Stats": 6246,
      "Agg": 6247,
      "gress": 6248,
      "MT": 6249,
      "cdf": 6250,
      "lhs": 6251,
      "vt": 6252,
      "proof": 6253,
      "compose": 6254,
      "sha256": 6255,
      "dar": 6256,
      "Gen": 6257,
      "scr": 6258,
      "RET": 6259,
      "minions": 6260,
      "vend": 6261,
      "ym": 6262,
      "VICE": 6263,
      "OAuth": 6264,
      "lice": 6265,
      "episo": 6266,
      "ATTR": 6267,
      "Calls": 6268,
      "dialect": 6269,
      "Tempor": 6270,
      "unsigned": 6271,
      "Decimal": 6272,
      "interpol": 6273,
      "review": 6274,
      "registers": 6275,
      "Filename": 6276,
      "STATUS": 6277,
      "Delta": 6278,
      "primitive": 6279,
      "caption": 6280,
      "inder": 6281,
      "agents": 6282,
      "membership": 6283,
      "rected": 6284,
      "linux": 6285,
      "conditional": 6286,
      "Pix": 6287,
      "stripped": 6288,
      "subsequent": 6289,
      "city": 6290,
      "epochs": 6291,
      "COM": 6292,
      "circuit": 6293,
      "ec2": 6294,
      "hl": 6295,
      "nice": 6296,
      "Accept": 6297,
      "Ke": 6298,
      "LY": 6299,
      "album": 6300,
      "Identity": 6301,
      "tracking": 6302,
      "a1": 6303,
      "repeated": 6304,
      "HEADER": 6305,
      "Distribu": 6306,
      "Lang": 6307,
      "titem": 6308,
      "interpolate": 6309,
      "satel": 6310,
      "indexing": 6311,
      "SystemExit": 6312,
      "Attempt": 6313,
      "Success": 6314,
      "appa": 6315,
      "netloc": 6316,
      "Encryp": 6317,
      "Sig": 6318,
      "Serialize": 6319,
      "idxs": 6320,
      "URCE": 6321,
      "Sec": 6322,
      "had": 6323,
      "ju": 6324,
      "explo": 6325,
      "thernet": 6326,
      "blacklist": 6327,
      "Flask": 6328,
      "guide": 6329,
      "mes": 6330,
      "followed": 6331,
      "MODE": 6332,
      "Properties": 6333,
      "middleware": 6334,
      "Sol": 6335,
      "precation": 6336,
      "visual": 6337,
      "Initial": 6338,
      "Lat": 6339,
      "itu": 6340,
      "pow": 6341,
      "acquire": 6342,
      "tiles": 6343,
      "titude": 6344,
      "Currently": 6345,
      "79": 6346,
      "Cy": 6347,
      "idle": 6348,
      "gaussian": 6349,
      "licable": 6350,
      "inspe": 6351,
      "alo": 6352,
      "trained": 6353,
      "gation": 6354,
      "entially": 6355,
      "tas": 6356,
      "randint": 6357,
      "CLASS": 6358,
      "psd": 6359,
      "gives": 6360,
      "rates": 6361,
      "AIN": 6362,
      "512": 6363,
      "inference": 6364,
      "plural": 6365,
      "kes": 6366,
      "patches": 6367,
      "campaign": 6368,
      "VL": 6369,
      "Active": 6370,
      "intersect": 6371,
      "attachments": 6372,
      "paper": 6373,
      "AV": 6374,
      "ascending": 6375,
      "approximate": 6376,
      "ball": 6377,
      "generating": 6378,
      "escaped": 6379,
      "truncate": 6380,
      "ek": 6381,
      "qubit": 6382,
      "SOURCE": 6383,
      "eth": 6384,
      "Incre": 6385,
      "recommended": 6386,
      "Ip": 6387,
      "contribu": 6388,
      "debugging": 6389,
      "curves": 6390,
      "Pattern": 6391,
      "fab": 6392,
      "ients": 6393,
      "pb2": 6394,
      "lw": 6395,
      "getcwd": 6396,
      "proven": 6397,
      "subplots": 6398,
      "pic": 6399,
      "subclasses": 6400,
      "Conven": 6401,
      "h1": 6402,
      "Repos": 6403,
      "modul": 6404,
      "years": 6405,
      "assumes": 6406,
      "stmts": 6407,
      "Hy": 6408,
      "numerical": 6409,
      "alphabet": 6410,
      "Global": 6411,
      "moun": 6412,
      "centric": 6413,
      "tics": 6414,
      "rendering": 6415,
      "ridge": 6416,
      "Partition": 6417,
      "motion": 6418,
      "faster": 6419,
      "removes": 6420,
      "FE": 6421,
      "came": 6422,
      "Attr": 6423,
      "visited": 6424,
      "scp": 6425,
      "Part": 6426,
      "poses": 6427,
      "Nodes": 6428,
      "AU": 6429,
      "dos": 6430,
      "Force": 6431,
      "Makes": 6432,
      "einsum": 6433,
      "mult": 6434,
      "decre": 6435,
      "mous": 6436,
      "jected": 6437,
      "Points": 6438,
      "hexdigest": 6439,
      "Private": 6440,
      "decay": 6441,
      "utor": 6442,
      "SEPAR": 6443,
      "LT": 6444,
      "Define": 6445,
      "MIT": 6446,
      "Zip": 6447,
      "ban": 6448,
      "iloc": 6449,
      "uploaded": 6450,
      "important": 6451,
      "convention": 6452,
      "third": 6453,
      "intain": 6454,
      "snip": 6455,
      "Socket": 6456,
      "trajectory": 6457,
      "slow": 6458,
      "uplic": 6459,
      "nums": 6460,
      "spher": 6461,
      "Cells": 6462,
      "latex": 6463,
      "jinja": 6464,
      "molecule": 6465,
      "providers": 6466,
      "CPU": 6467,
      "Origin": 6468,
      "isnan": 6469,
      "replication": 6470,
      "distributions": 6471,
      "pole": 6472,
      "Generic": 6473,
      "composite": 6474,
      "aring": 6475,
      "assoc": 6476,
      "ficiency": 6477,
      "Scale": 6478,
      "retain": 6479,
      "STA": 6480,
      "manual": 6481,
      "consts": 6482,
      "ratic": 6483,
      "atomic": 6484,
      "Writer": 6485,
      "facet": 6486,
      "Assume": 6487,
      "wildcard": 6488,
      "Az": 6489,
      "pun": 6490,
      "arily": 6491,
      "Signature": 6492,
      "east": 6493,
      "verification": 6494,
      "linewidth": 6495,
      "adow": 6496,
      "n2": 6497,
      "regexp": 6498,
      "Publish": 6499,
      "Pandas": 6500,
      "dtypes": 6501,
      "replica": 6502,
      "questions": 6503,
      "Abstract": 6504,
      "NullArgument": 6505,
      "Mask": 6506,
      "RR": 6507,
      "verified": 6508,
      "fullname": 6509,
      "ldap": 6510,
      "Mix": 6511,
      "SFrame": 6512,
      "gd": 6513,
      "vr": 6514,
      "encountered": 6515,
      "Iterator": 6516,
      "protected": 6517,
      "impro": 6518,
      "Named": 6519,
      "OPTIONS": 6520,
      "Lambda": 6521,
      "combo": 6522,
      "stops": 6523,
      "polynomial": 6524,
      "modification": 6525,
      "Ev": 6526,
      "Edi": 6527,
      "ConnectionError": 6528,
      "TT": 6529,
      "unders": 6530,
      "amplit": 6531,
      "limited": 6532,
      "Flags": 6533,
      "PH": 6534,
      "ares": 6535,
      "aio": 6536,
      "heart": 6537,
      "stackoverflow": 6538,
      "Train": 6539,
      "NVML": 6540,
      "69": 6541,
      "trade": 6542,
      "protobuf": 6543,
      "ptime": 6544,
      "smart": 6545,
      "Fore": 6546,
      "lm": 6547,
      "modifier": 6548,
      "ftp": 6549,
      "i1": 6550,
      "allen": 6551,
      "whitelist": 6552,
      "CHAR": 6553,
      "artifacts": 6554,
      "lens": 6555,
      "reward": 6556,
      "reject": 6557,
      "assembly": 6558,
      "subjects": 6559,
      "proxies": 6560,
      "p0": 6561,
      "semi": 6562,
      "dio": 6563,
      "lc": 6564,
      "near": 6565,
      "applicable": 6566,
      "Loader": 6567,
      "preference": 6568,
      "Bucket": 6569,
      "affected": 6570,
      "little": 6571,
      "NotExist": 6572,
      "Sur": 6573,
      "tagged": 6574,
      "fed": 6575,
      "joined": 6576,
      "losses": 6577,
      "serv": 6578,
      "ively": 6579,
      "CG": 6580,
      "ming": 6581,
      "builtin": 6582,
      "Language": 6583,
      "counters": 6584,
      "RDF": 6585,
      "fb": 6586,
      "generates": 6587,
      "ARD": 6588,
      "respectively": 6589,
      "citation": 6590,
      "pedia": 6591,
      "Running": 6592,
      "Here": 6593,
      "PID": 6594,
      "failures": 6595,
      "jav": 6596,
      "celer": 6597,
      "dip": 6598,
      "csp": 6599,
      "gather": 6600,
      "printer": 6601,
      "Notification": 6602,
      "Transfer": 6603,
      "combinations": 6604,
      "milliseconds": 6605,
      "visibility": 6606,
      "CATION": 6607,
      "hunt": 6608,
      "tokenize": 6609,
      "Starting": 6610,
      "witter": 6611,
      "78": 6612,
      "gray": 6613,
      "online": 6614,
      "pairwise": 6615,
      "Single": 6616,
      "Repository": 6617,
      "53": 6618,
      "BB": 6619,
      "spans": 6620,
      "2010": 6621,
      "Pac": 6622,
      "translated": 6623,
      "coerce": 6624,
      "CACHE": 6625,
      "cx": 6626,
      "hello": 6627,
      "extractor": 6628,
      "communicate": 6629,
      "Minimum": 6630,
      "provenance": 6631,
      "l1": 6632,
      "ridden": 6633,
      "odb": 6634,
      "multiprocessing": 6635,
      "mirror": 6636,
      "DIS": 6637,
      "DX": 6638,
      "etag": 6639,
      "closure": 6640,
      "Hz": 6641,
      "gates": 6642,
      "beg": 6643,
      "MESS": 6644,
      "medium": 6645,
      "PASS": 6646,
      "periodic": 6647,
      "pread": 6648,
      "Constra": 6649,
      "occ": 6650,
      "DIRE": 6651,
      "tw": 6652,
      "profil": 6653,
      "Elast": 6654,
      "accumul": 6655,
      "symbolic": 6656,
      "bd": 6657,
      "astropy": 6658,
      "controls": 6659,
      "Push": 6660,
      "bid": 6661,
      "Debug": 6662,
      "central": 6663,
      "ji": 6664,
      "Columns": 6665,
      "Case": 6666,
      "loglevel": 6667,
      "SEPARATOR": 6668,
      "gau": 6669,
      "jection": 6670,
      "py3": 6671,
      "xp": 6672,
      "opcode": 6673,
      "returncode": 6674,
      "exported": 6675,
      "rectangle": 6676,
      "publisher": 6677,
      "SCH": 6678,
      "wide": 6679,
      "Elements": 6680,
      "persistent": 6681,
      "KEN": 6682,
      "SPACE": 6683,
      "rfc": 6684,
      "seman": 6685,
      "participant": 6686,
      "solar": 6687,
      "timing": 6688,
      "unce": 6689,
      "construction": 6690,
      "division": 6691,
      "istics": 6692,
      "WT": 6693,
      "Mongo": 6694,
      "High": 6695,
      "heap": 6696,
      "weather": 6697,
      "reated": 6698,
      "Objects": 6699,
      "expansion": 6700,
      "Has": 6701,
      "egg": 6702,
      "SyntaxError": 6703,
      "velope": 6704,
      "enforce": 6705,
      "Bre": 6706,
      "crc": 6707,
      "realm": 6708,
      "subdomain": 6709,
      "colormap": 6710,
      "mechanism": 6711,
      "TAG": 6712,
      "ElementTree": 6713,
      "hdf5": 6714,
      "ram": 6715,
      "Recursively": 6716,
      "II": 6717,
      "jd": 6718,
      "meter": 6719,
      "strptime": 6720,
      "flash": 6721,
      "ition": 6722,
      "rating": 6723,
      "software": 6724,
      "Termin": 6725,
      "resume": 6726,
      "aker": 6727,
      "paragraph": 6728,
      "52": 6729,
      "Sco": 6730,
      "matcher": 6731,
      "Segment": 6732,
      "schemas": 6733,
      "Linux": 6734,
      "98": 6735,
      "gw": 6736,
      "k1": 6737,
      "ifiers": 6738,
      "locally": 6739,
      "L2": 6740,
      "Qual": 6741,
      "triangle": 6742,
      "principal": 6743,
      "Figure": 6744,
      "bright": 6745,
      "upstream": 6746,
      "izes": 6747,
      "indentation": 6748,
      "Drop": 6749,
      "multipart": 6750,
      "sdk": 6751,
      "kws": 6752,
      "Same": 6753,
      "treated": 6754,
      "websocket": 6755,
      "sz": 6756,
      "deferred": 6757,
      "Fields": 6758,
      "DoesNotExist": 6759,
      "maintain": 6760,
      "framework": 6761,
      "HOST": 6762,
      "nvml": 6763,
      "NC": 6764,
      "h2": 6765,
      "plaintext": 6766,
      "yi": 6767,
      "lots": 6768,
      "mods": 6769,
      "wp": 6770,
      "areas": 6771,
      "backends": 6772,
      "capit": 6773,
      "Changed": 6774,
      "lowest": 6775,
      "servation": 6776,
      "pyplot": 6777,
      "connecting": 6778,
      "inclusive": 6779,
      "rmtree": 6780,
      "Ignore": 6781,
      "exceed": 6782,
      "Lists": 6783,
      "Interrupt": 6784,
      "interpreter": 6785,
      "vendor": 6786,
      "pem": 6787,
      "taking": 6788,
      "singular": 6789,
      "Evaluate": 6790,
      "udf": 6791,
      "subs": 6792,
      "creator": 6793,
      "Sync": 6794,
      "Pmag": 6795,
      "ders": 6796,
      "ech": 6797,
      "vider": 6798,
      "annotate": 6799,
      "Bl": 6800,
      "Init": 6801,
      "minus": 6802,
      "builds": 6803,
      "setter": 6804,
      "flows": 6805,
      "ules": 6806,
      "vv": 6807,
      "fee": 6808,
      "mr": 6809,
      "tabs": 6810,
      "thus": 6811,
      "grab": 6812,
      "IPv4": 6813,
      "remainder": 6814,
      "secs": 6815,
      "preprocess": 6816,
      "prints": 6817,
      "buttons": 6818,
      "Java": 6819,
      "tum": 6820,
      "lvl": 6821,
      "weld": 6822,
      "ught": 6823,
      "analyses": 6824,
      "mutable": 6825,
      "utter": 6826,
      "traverse": 6827,
      "deletion": 6828,
      "rsplit": 6829,
      "Progress": 6830,
      "significant": 6831,
      "imag": 6832,
      "analyze": 6833,
      "squared": 6834,
      "hn": 6835,
      "Car": 6836,
      "SUP": 6837,
      "MAV": 6838,
      "Feed": 6839,
      "Summary": 6840,
      "permutation": 6841,
      "spl": 6842,
      "executing": 6843,
      "LP": 6844,
      "Redirect": 6845,
      "tracker": 6846,
      "xxxx": 6847,
      "Issue": 6848,
      "chdir": 6849,
      "fect": 6850,
      "Hub": 6851,
      "eff": 6852,
      "Retry": 6853,
      "regression": 6854,
      "optimal": 6855,
      "Extracts": 6856,
      "MQ": 6857,
      "disks": 6858,
      "gaps": 6859,
      "z2": 6860,
      "vest": 6861,
      "TOKEN": 6862,
      "Parent": 6863,
      "satisfi": 6864,
      "Keep": 6865,
      "divide": 6866,
      "INDE": 6867,
      "setLevel": 6868,
      "More": 6869,
      "DOC": 6870,
      "Similar": 6871,
      "uv": 6872,
      "id2": 6873,
      "mpy": 6874,
      "alleles": 6875,
      "Estim": 6876,
      "Msg": 6877,
      "burn": 6878,
      "vile": 6879,
      "collected": 6880,
      "effects": 6881,
      "breakpoint": 6882,
      "TRAN": 6883,
      "corrected": 6884,
      "Place": 6885,
      "PRI": 6886,
      "ights": 6887,
      "DED": 6888,
      "Commit": 6889,
      "assignments": 6890,
      "Axis": 6891,
      "VPC": 6892,
      "rogram": 6893,
      "namedtuple": 6894,
      "contexts": 6895,
      "recipients": 6896,
      "gb": 6897,
      "pul": 6898,
      "ulary": 6899,
      "capabilities": 6900,
      "Processing": 6901,
      "Route": 6902,
      "tweet": 6903,
      "urname": 6904,
      "192": 6905,
      "prepend": 6906,
      "Available": 6907,
      "intended": 6908,
      "pathname": 6909,
      "readlines": 6910,
      "Arti": 6911,
      "ANCE": 6912,
      "QtCore": 6913,
      "Ps": 6914,
      "R1": 6915,
      "secre": 6916,
      "Release": 6917,
      "runas": 6918,
      "Combin": 6919,
      "cartesian": 6920,
      "Gate": 6921,
      "aren": 6922,
      "cates": 6923,
      "consec": 6924,
      "AX": 6925,
      "PT": 6926,
      "ancy": 6927,
      "sca": 6928,
      "dbs": 6929,
      "decision": 6930,
      "belongs": 6931,
      "ets": 6932,
      "lp": 6933,
      "COMP": 6934,
      "determines": 6935,
      "Received": 6936,
      "hop": 6937,
      "viz": 6938,
      "rength": 6939,
      "Implement": 6940,
      "material": 6941,
      "versionchanged": 6942,
      "passwd": 6943,
      "Term": 6944,
      "thresholds": 6945,
      "Starts": 6946,
      "risk": 6947,
      "GRO": 6948,
      "capt": 6949,
      "Folder": 6950,
      "mf": 6951,
      "ody": 6952,
      "association": 6953,
      "Certificate": 6954,
      "Bot": 6955,
      "Cmd": 6956,
      "trunk": 6957,
      "cpus": 6958,
      "ensemble": 6959,
      "performing": 6960,
      "constructed": 6961,
      "Polygon": 6962,
      "accessible": 6963,
      "qos": 6964,
      "baz": 6965,
      "certifi": 6966,
      "Collect": 6967,
      "inferred": 6968,
      "isot": 6969,
      "voice": 6970,
      "BLOCK": 6971,
      "overridden": 6972,
      "wav": 6973,
      "atar": 6974,
      "disp": 6975,
      "coro": 6976,
      "vote": 6977,
      "Integr": 6978,
      "BS": 6979,
      "validators": 6980,
      "Disable": 6981,
      "bn": 6982,
      "leaves": 6983,
      "tech": 6984,
      "occurrence": 6985,
      "knot": 6986,
      "ox": 6987,
      "differences": 6988,
      "adjacency": 6989,
      "Lock": 6990,
      "TIMEOUT": 6991,
      "Normalize": 6992,
      "uint32": 6993,
      "releases": 6994,
      "gpg": 6995,
      "57": 6996,
      "stre": 6997,
      "subparsers": 6998,
      "connectivity": 6999,
      "wsgi": 7000,
      "guid": 7001,
      "8601": 7002,
      "GIN": 7003,
      "illa": 7004,
      "sph": 7005,
      "relationships": 7006,
      "signatures": 7007,
      "happens": 7008,
      "68": 7009,
      "LAB": 7010,
      "Zero": 7011,
      "mpath": 7012,
      "Controll": 7013,
      "prepa": 7014,
      "Menu": 7015,
      "CSS": 7016,
      "alchemy": 7017,
      "undefined": 7018,
      "compact": 7019,
      "suite": 7020,
      "Prints": 7021,
      "EC2": 7022,
      "Libr": 7023,
      "gres": 7024,
      "ku": 7025,
      "clas": 7026,
      "serializable": 7027,
      "tracks": 7028,
      "UPDATE": 7029,
      "ECK": 7030,
      "Cat": 7031,
      "e2": 7032,
      "hic": 7033,
      "Supported": 7034,
      "reddit": 7035,
      "Second": 7036,
      "posts": 7037,
      "94": 7038,
      "mention": 7039,
      "equals": 7040,
      "Pull": 7041,
      "RUN": 7042,
      "qry": 7043,
      "masks": 7044,
      "Saves": 7045,
      "analysist": 7046,
      "allest": 7047,
      "directions": 7048,
      "life": 7049,
      "analysistype": 7050,
      "meters": 7051,
      "probe": 7052,
      "CUR": 7053,
      "Coordin": 7054,
      "Statement": 7055,
      "catalogue": 7056,
      "Requires": 7057,
      "Body": 7058,
      "lbl": 7059,
      "unsupported": 7060,
      "ORDER": 7061,
      "lng": 7062,
      "passphrase": 7063,
      "What": 7064,
      "pubkey": 7065,
      "listeners": 7066,
      "Elastic": 7067,
      "hw": 7068,
      "pct": 7069,
      "peg": 7070,
      "say": 7071,
      "ASH": 7072,
      "cedure": 7073,
      "invert": 7074,
      "weak": 7075,
      "publication": 7076,
      "piv": 7077,
      "segmentation": 7078,
      "WORK": 7079,
      "BACK": 7080,
      "That": 7081,
      "DecodeError": 7082,
      "genotype": 7083,
      "Fra": 7084,
      "lapping": 7085,
      "Expect": 7086,
      "placed": 7087,
      "Operator": 7088,
      "tumor": 7089,
      "PDB": 7090,
      "invoice": 7091,
      "flattened": 7092,
      "ligh": 7093,
      "mpl": 7094,
      "futures": 7095,
      "occurrences": 7096,
      "lename": 7097,
      "recording": 7098,
      "APP": 7099,
      "svc": 7100,
      "detailed": 7101,
      "Chain": 7102,
      "fine": 7103,
      "bian": 7104,
      "rollback": 7105,
      "Area": 7106,
      "Rot": 7107,
      "reat": 7108,
      "few": 7109,
      "RC": 7110,
      "libr": 7111,
      "moves": 7112,
      "Created": 7113,
      "zipfile": 7114,
      "Category": 7115,
      "gradients": 7116,
      "b1": 7117,
      "deci": 7118,
      "why": 7119,
      "reqs": 7120,
      "mtf": 7121,
      "applications": 7122,
      "Optionally": 7123,
      "Big": 7124,
      "SW": 7125,
      "Relation": 7126,
      "delivery": 7127,
      "ari": 7128,
      "clustering": 7129,
      "applying": 7130,
      "functionality": 7131,
      "Groups": 7132,
      "Produce": 7133,
      "acceptable": 7134,
      "surname": 7135,
      "x3": 7136,
      "phan": 7137,
      "viewer": 7138,
      "Stri": 7139,
      "instantiate": 7140,
      "Standard": 7141,
      "allenge": 7142,
      "72": 7143,
      "Dynam": 7144,
      "tbl": 7145,
      "repl": 7146,
      "assuming": 7147,
      "foot": 7148,
      "internally": 7149,
      "Linear": 7150,
      "confirmation": 7151,
      "kt": 7152,
      "bem": 7153,
      "Arch": 7154,
      "recursion": 7155,
      "specimens": 7156,
      "warm": 7157,
      "Variant": 7158,
      "Convenience": 7159,
      "jac": 7160,
      "connector": 7161,
      "virtualenv": 7162,
      "chem": 7163,
      "fluxes": 7164,
      "Bro": 7165,
      "interaction": 7166,
      "Compo": 7167,
      "NOWN": 7168,
      "bility": 7169,
      "ablish": 7170,
      "hase": 7171,
      "GPU": 7172,
      "gal": 7173,
      "isis": 7174,
      "tele": 7175,
      "lowercase": 7176,
      "CHECK": 7177,
      "delimited": 7178,
      "REQUEST": 7179,
      "natural": 7180,
      "viol": 7181,
      "Defin": 7182,
      "finding": 7183,
      "Duplic": 7184,
      "WB": 7185,
      "v5": 7186,
      "expects": 7187,
      "dispatcher": 7188,
      "onymous": 7189,
      "v0": 7190,
      "liers": 7191,
      "lopen": 7192,
      "distributed": 7193,
      "smoothing": 7194,
      "intr": 7195,
      "ions": 7196,
      "Cancel": 7197,
      "lista": 7198,
      "newaxis": 7199,
      "zonefile": 7200,
      "months": 7201,
      "spread": 7202,
      "Reply": 7203,
      "Denied": 7204,
      "Executes": 7205,
      "prune": 7206,
      "KeyboardInterrupt": 7207,
      "Got": 7208,
      "early": 7209,
      "diffs": 7210,
      "differ": 7211,
      "treatment": 7212,
      "Azure": 7213,
      "Mac": 7214,
      "msgs": 7215,
      "multiply": 7216,
      "amplitude": 7217,
      "zation": 7218,
      "insertion": 7219,
      "43": 7220,
      "FD": 7221,
      "Pi": 7222,
      "eled": 7223,
      "brok": 7224,
      "Public": 7225,
      "episode": 7226,
      "41": 7227,
      "101": 7228,
      "txn": 7229,
      "Gu": 7230,
      "Utili": 7231,
      "intent": 7232,
      "Information": 7233,
      "structured": 7234,
      "LOCAL": 7235,
      "draft": 7236,
      "craw": 7237,
      "lax": 7238,
      "mismatch": 7239,
      "POINT": 7240,
      "Controller": 7241,
      "hg": 7242,
      "Enter": 7243,
      "webhook": 7244,
      "CFG": 7245,
      "OM": 7246,
      "Requests": 7247,
      "surf": 7248,
      "Cr": 7249,
      "rant": 7250,
      "codecs": 7251,
      "computes": 7252,
      "FIL": 7253,
      "utility": 7254,
      "GT": 7255,
      "quid": 7256,
      "shadow": 7257,
      "Validates": 7258,
      "fat": 7259,
      "hypo": 7260,
      "spectral": 7261,
      "streaming": 7262,
      "THE": 7263,
      "punct": 7264,
      "cator": 7265,
      "mute": 7266,
      "wish": 7267,
      "traj": 7268,
      "opening": 7269,
      "energies": 7270,
      "Require": 7271,
      "FUN": 7272,
      "Mut": 7273,
      "rics": 7274,
      "upy": 7275,
      "IGHT": 7276,
      "easy": 7277,
      "backwards": 7278,
      "discover": 7279,
      "convenience": 7280,
      "nex": 7281,
      "isation": 7282,
      "Subject": 7283,
      "quadratic": 7284,
      "CN": 7285,
      "filetype": 7286,
      "INST": 7287,
      "frag": 7288,
      "smallest": 7289,
      "wbem": 7290,
      "decoding": 7291,
      "63": 7292,
      "zh": 7293,
      "privile": 7294,
      "bars": 7295,
      "BytesIO": 7296,
      "HDF": 7297,
      "IMA": 7298,
      "ConfigParser": 7299,
      "SPE": 7300,
      "Distance": 7301,
      "LF": 7302,
      "ond": 7303,
      "commits": 7304,
      "expectation": 7305,
      "hr": 7306,
      "iri": 7307,
      "Selection": 7308,
      "Center": 7309,
      "MV": 7310,
      "RSA": 7311,
      "elevation": 7312,
      "installation": 7313,
      "Temporary": 7314,
      "wers": 7315,
      "GTH": 7316,
      "keras": 7317,
      "seems": 7318,
      "consume": 7319,
      "SKIP": 7320,
      "GUI": 7321,
      "dashboard": 7322,
      "Pick": 7323,
      "Applies": 7324,
      "footer": 7325,
      "itories": 7326,
      "MUL": 7327,
      "PK": 7328,
      "wl": 7329,
      "minator": 7330,
      "Double": 7331,
      "Em": 7332,
      "pref": 7333,
      "TimeSeries": 7334,
      "sqlalchemy": 7335,
      "automatic": 7336,
      "gps": 7337,
      "toc": 7338,
      "Useful": 7339,
      "WD": 7340,
      "k2": 7341,
      "vp": 7342,
      "rough": 7343,
      "abi": 7344,
      "torn": 7345,
      "polygons": 7346,
      "atever": 7347,
      "typed": 7348,
      "checkout": 7349,
      "blocksize": 7350,
      "myminion": 7351,
      "devops": 7352,
      "claim": 7353,
      "LINK": 7354,
      "EOF": 7355,
      "utions": 7356,
      "diameter": 7357,
      "finalize": 7358,
      "mitted": 7359,
      "statistic": 7360,
      "rsa": 7361,
      "stype": 7362,
      "etched": 7363,
      "Registers": 7364,
      "balancer": 7365,
      "ode": 7366,
      "chk": 7367,
      "computing": 7368,
      "abbreviation": 7369,
      "HIST": 7370,
      "Wi": 7371,
      "cub": 7372,
      "Geometry": 7373,
      "boost": 7374,
      "za": 7375,
      "ana": 7376,
      "Library": 7377,
      "equip": 7378,
      "Worker": 7379,
      "Traceback": 7380,
      "forum": 7381,
      "acceler": 7382,
      "alone": 7383,
      "rain": 7384,
      "Adding": 7385,
      "urlopen": 7386,
      "Provi": 7387,
      "Pair": 7388,
      "utcnow": 7389,
      "heartbeat": 7390,
      "libraries": 7391,
      "LANG": 7392,
      "variation": 7393,
      "journal": 7394,
      "TEMPL": 7395,
      "loops": 7396,
      "IGNO": 7397,
      "Product": 7398,
      "ITH": 7399,
      "nom": 7400,
      "interactions": 7401,
      "hack": 7402,
      "overlapping": 7403,
      "fragments": 7404,
      "audit": 7405,
      "Edge": 7406,
      "COUNT": 7407,
      "Let": 7408,
      "arp": 7409,
      "CREATE": 7410,
      "stages": 7411,
      "BEL": 7412,
      "Sha": 7413,
      "Preview": 7414,
      "TEMPLATE": 7415,
      "heet": 7416,
      "bour": 7417,
      "restricted": 7418,
      "collapse": 7419,
      "MAR": 7420,
      "colon": 7421,
      "didn": 7422,
      "appears": 7423,
      "LENGTH": 7424,
      "Len": 7425,
      "jun": 7426,
      "preset": 7427,
      "GPS": 7428,
      "descriptors": 7429,
      "typically": 7430,
      "COLOR": 7431,
      "ellow": 7432,
      "Dialog": 7433,
      "ACL": 7434,
      "MSG": 7435,
      "Normal": 7436,
      "Depend": 7437,
      "assist": 7438,
      "submitted": 7439,
      "ito": 7440,
      "reuse": 7441,
      "queued": 7442,
      "behaviour": 7443,
      "Mach": 7444,
      "locs": 7445,
      "tornado": 7446,
      "WCS": 7447,
      "prt": 7448,
      "shake": 7449,
      "SERVER": 7450,
      "pagination": 7451,
      "MESSAGE": 7452,
      "Atom": 7453,
      "Pag": 7454,
      "rpm": 7455,
      "isol": 7456,
      "vie": 7457,
      "occu": 7458,
      "purposes": 7459,
      "ITE": 7460,
      "TLS": 7461,
      "venv": 7462,
      "ENABLE": 7463,
      "stopping": 7464,
      "GraphQL": 7465,
      "adjusted": 7466,
      "cidr": 7467,
      "Cook": 7468,
      "finder": 7469,
      "fnmatch": 7470,
      "HOME": 7471,
      "401": 7472,
      "lost": 7473,
      "statuses": 7474,
      "omic": 7475,
      "marsh": 7476,
      "gov": 7477,
      "environments": 7478,
      "broken": 7479,
      "simulated": 7480,
      "vd": 7481,
      "ax1": 7482,
      "porter": 7483,
      "NET": 7484,
      "sends": 7485,
      "Byte": 7486,
      "Translate": 7487,
      "Distribution": 7488,
      "DataArray": 7489,
      "LIMIT": 7490,
      "consistency": 7491,
      "Micro": 7492,
      "ories": 7493,
      "plotted": 7494,
      "PARE": 7495,
      "Join": 7496,
      "NX": 7497,
      "PUR": 7498,
      "unchanged": 7499,
      "varname": 7500,
      "Enum": 7501,
      "consecu": 7502,
      "tokenizer": 7503,
      "IND": 7504,
      "INVALID": 7505,
      "ACTION": 7506,
      "TRY": 7507,
      "VS": 7508,
      "moved": 7509,
      "genus": 7510,
      "certs": 7511,
      "elasticsearch": 7512,
      "pu": 7513,
      "toggle": 7514,
      "uncertainty": 7515,
      "Il": 7516,
      "Soft": 7517,
      "Br": 7518,
      "stp": 7519,
      "ENTI": 7520,
      "Contin": 7521,
      "Left": 7522,
      "Events": 7523,
      "eng": 7524,
      "fork": 7525,
      "ader": 7526,
      "subcommand": 7527,
      "POSE": 7528,
      "claims": 7529,
      "qt": 7530,
      "grouping": 7531,
      "Nothing": 7532,
      "extraction": 7533,
      "measured": 7534,
      "Hook": 7535,
      "truncated": 7536,
      "defer": 7537,
      "Mean": 7538,
      "wv": 7539,
      "yp": 7540,
      "incorrect": 7541,
      "DESCRIP": 7542,
      "skipping": 7543,
      "ities": 7544,
      "kept": 7545,
      "alizing": 7546,
      "Frequ": 7547,
      "eli": 7548,
      "sound": 7549,
      "Compile": 7550,
      "fitted": 7551,
      "fitness": 7552,
      "DIRECT": 7553,
      "iam": 7554,
      "edu": 7555,
      "acqu": 7556,
      "offer": 7557,
      "absent": 7558,
      "DOM": 7559,
      "drawn": 7560,
      "atlas": 7561,
      "strength": 7562,
      "izing": 7563,
      "holders": 7564,
      "Snap": 7565,
      "cg": 7566,
      "zzy": 7567,
      "Power": 7568,
      "serving": 7569,
      "crash": 7570,
      "knowledge": 7571,
      "Github": 7572,
      "inel": 7573,
      "availability": 7574,
      "Algorithm": 7575,
      "nucle": 7576,
      "3600": 7577,
      "roi": 7578,
      "argmax": 7579,
      "SIS": 7580,
      "vocabulary": 7581,
      "scape": 7582,
      "x509": 7583,
      "synchron": 7584,
      "annotated": 7585,
      "contacts": 7586,
      "dk": 7587,
      "vstack": 7588,
      "thin": 7589,
      "contrib": 7590,
      "hashed": 7591,
      "Watch": 7592,
      "stars": 7593,
      "Metric": 7594,
      "3e": 7595,
      "fli": 7596,
      "comb": 7597,
      "SUC": 7598,
      "diagram": 7599,
      "lmax": 7600,
      "workdir": 7601,
      "Ker": 7602,
      "xarray": 7603,
      "particle": 7604,
      "approach": 7605,
      "CONST": 7606,
      "psi": 7607,
      "allocated": 7608,
      "minimal": 7609,
      "LEV": 7610,
      "modifiers": 7611,
      "normpath": 7612,
      "PermissionDenied": 7613,
      "CLO": 7614,
      "uc": 7615,
      "becomes": 7616,
      "pywbem": 7617,
      "validity": 7618,
      "worksheet": 7619,
      "octe": 7620,
      "Finish": 7621,
      "IPython": 7622,
      "hull": 7623,
      "performs": 7624,
      "LIB": 7625,
      "fabric": 7626,
      "envelope": 7627,
      "altitude": 7628,
      "changing": 7629,
      "repositories": 7630,
      "subscriptions": 7631,
      "qte": 7632,
      "sx": 7633,
      "Resol": 7634,
      "DOWN": 7635,
      "BER": 7636,
      "omy": 7637,
      "blockchain": 7638,
      "Written": 7639,
      "HISTORY": 7640,
      "excl": 7641,
      "interpreted": 7642,
      "giving": 7643,
      "stations": 7644,
      "OPEN": 7645,
      "gradebook": 7646,
      "reachable": 7647,
      "wanted": 7648,
      "maker": 7649,
      "identities": 7650,
      "Fetches": 7651,
      "iod": 7652,
      "tmpl": 7653,
      "2013": 7654,
      "monitoring": 7655,
      "sibling": 7656,
      "sphinx": 7657,
      "RS": 7658,
      "respective": 7659,
      "Flat": 7660,
      "drag": 7661,
      "fwd": 7662,
      "pth": 7663,
      "imt": 7664,
      "Resolve": 7665,
      "Patch": 7666,
      "ade": 7667,
      "symmetry": 7668,
      "Break": 7669,
      "rier": 7670,
      "emails": 7671,
      "Constructs": 7672,
      "locus": 7673,
      "authority": 7674,
      "Headers": 7675,
      "thick": 7676,
      "assertion": 7677,
      "become": 7678,
      "tsv": 7679,
      "newlines": 7680,
      "vary": 7681,
      "ORM": 7682,
      "QP": 7683,
      "arb": 7684,
      "succeed": 7685,
      "UNKNOWN": 7686,
      "zmq": 7687,
      "goal": 7688,
      "dag": 7689,
      "recall": 7690,
      "Proces": 7691,
      "ARG": 7692,
      "fout": 7693,
      "vault": 7694,
      "LV": 7695,
      "Activity": 7696,
      "hyd": 7697,
      "brief": 7698,
      "mathbf": 7699,
      "sufficient": 7700,
      "copi": 7701,
      "ascript": 7702,
      "soap": 7703,
      "pypi": 7704,
      "subtract": 7705,
      "naif": 7706,
      "Editor": 7707,
      "DT": 7708,
      "ITI": 7709,
      "ima": 7710,
      "jwt": 7711,
      "outgoing": 7712,
      "singleton": 7713,
      "estimation": 7714,
      "keyboard": 7715,
      "anchors": 7716,
      "cart": 7717,
      "onts": 7718,
      "ensures": 7719,
      "tides": 7720,
      "Regex": 7721,
      "respond": 7722,
      "Experi": 7723,
      "COD": 7724,
      "Ome": 7725,
      "stan": 7726,
      "lons": 7727,
      "stick": 7728,
      "usable": 7729,
      "dotted": 7730,
      "machines": 7731,
      "microseconds": 7732,
      "intercept": 7733,
      "olutions": 7734,
      "savefig": 7735,
      "xaxis": 7736,
      "bare": 7737,
      "whatever": 7738,
      "converting": 7739,
      "VALU": 7740,
      "BYTE": 7741,
      "Right": 7742,
      "extents": 7743,
      "grain": 7744,
      "prefixed": 7745,
      "GROUP": 7746,
      "prepared": 7747,
      "MAN": 7748,
      "functional": 7749,
      "agree": 7750,
      "ferenti": 7751,
      "convergence": 7752,
      "supply": 7753,
      "Provider": 7754,
      "potentially": 7755,
      "Just": 7756,
      "ky": 7757,
      "Adjust": 7758,
      "randomly": 7759,
      "YYYY": 7760,
      "EVENT": 7761,
      "Errors": 7762,
      "py2": 7763,
      "NL": 7764,
      "uids": 7765,
      "eric": 7766,
      "SSION": 7767,
      "SCons": 7768,
      "processors": 7769,
      "networkx": 7770,
      "quota": 7771,
      "nrows": 7772,
      "ife": 7773,
      "Expr": 7774,
      "Prob": 7775,
      "Proble": 7776,
      "Provide": 7777,
      "libs": 7778,
      "centroid": 7779,
      "consecutive": 7780,
      "Illegal": 7781,
      "Condition": 7782,
      "answers": 7783,
      "production": 7784,
      "swagger": 7785,
      "dropped": 7786,
      "Master": 7787,
      "aes": 7788,
      "vey": 7789,
      "MPLE": 7790,
      "attack": 7791,
      "datasource": 7792,
      "anisot": 7793,
      "vities": 7794,
      "ticklabels": 7795,
      "PURPOSE": 7796,
      "vehic": 7797,
      "Driver": 7798,
      "vin": 7799,
      "scra": 7800,
      "credit": 7801,
      "IGNORE": 7802,
      "e1": 7803,
      "vowel": 7804,
      "datum": 7805,
      "north": 7806,
      "Utility": 7807,
      "enroll": 7808,
      "pointing": 7809,
      "aving": 7810,
      "93": 7811,
      "gm": 7812,
      "procedure": 7813,
      "flavor": 7814,
      "Activ": 7815,
      "hh": 7816,
      "OptionParser": 7817,
      "Refresh": 7818,
      "iet": 7819,
      "sities": 7820,
      "contigu": 7821,
      "votes": 7822,
      "blk": 7823,
      "regardless": 7824,
      "HH": 7825,
      "OFF": 7826,
      "often": 7827,
      "wikipedia": 7828,
      "electro": 7829,
      "sanitize": 7830,
      "DNA": 7831,
      "rsp": 7832,
      "InvalidArgument": 7833,
      "WBEM": 7834,
      "Mes": 7835,
      "vz": 7836,
      "isdigit": 7837,
      "fileName": 7838,
      "ages": 7839,
      "Inputs": 7840,
      "penal": 7841,
      "conflicts": 7842,
      "Packet": 7843,
      "74": 7844,
      "alm": 7845,
      "serts": 7846,
      "reactor": 7847,
      "misc": 7848,
      "associate": 7849,
      "Trig": 7850,
      "modifications": 7851,
      "DN": 7852,
      "fre": 7853,
      "explain": 7854,
      "Details": 7855,
      "Both": 7856,
      "Users": 7857,
      "62": 7858,
      "P1": 7859,
      "naming": 7860,
      "shards": 7861,
      "toolkit": 7862,
      "Cir": 7863,
      "GEN": 7864,
      "dj": 7865,
      "afka": 7866,
      "Records": 7867,
      "integrate": 7868,
      "DR": 7869,
      "ono": 7870,
      "compared": 7871,
      "Dispatch": 7872,
      "POR": 7873,
      "challenge": 7874,
      "senti": 7875,
      "oting": 7876,
      "Encoder": 7877,
      "complement": 7878,
      "boto3": 7879,
      "inspection": 7880,
      "Checking": 7881,
      "holds": 7882,
      "hints": 7883,
      "descriptions": 7884,
      "reconnect": 7885,
      "onic": 7886,
      "neighbour": 7887,
      "bonds": 7888,
      "secrets": 7889,
      "reported": 7890,
      "sex": 7891,
      "placing": 7892,
      "2012": 7893,
      "hed": 7894,
      "mate": 7895,
      "however": 7896,
      "databases": 7897,
      "drawing": 7898,
      "saves": 7899,
      "freqs": 7900,
      "Already": 7901,
      "perf": 7902,
      "ClientError": 7903,
      "ILD": 7904,
      "Ef": 7905,
      "gos": 7906,
      "labeled": 7907,
      "scoped": 7908,
      "goes": 7909,
      "foreground": 7910,
      "completely": 7911,
      "Added": 7912,
      "Frequency": 7913,
      "SUCCESS": 7914,
      "NONE": 7915,
      "anonymous": 7916,
      "redund": 7917,
      "graphy": 7918,
      "beta1": 7919,
      "PIL": 7920,
      "ium": 7921,
      "grow": 7922,
      "propagate": 7923,
      "contiguous": 7924,
      "Free": 7925,
      "atively": 7926,
      "printing": 7927,
      "tilt": 7928,
      "Cd": 7929,
      "xlarge": 7930,
      "ardi": 7931,
      "chunksize": 7932,
      "advanced": 7933,
      "AIL": 7934,
      "rms": 7935,
      "tan": 7936,
      "preds": 7937,
      "separators": 7938,
      "QtGui": 7939,
      "SIGN": 7940,
      "82": 7941,
      "breaks": 7942,
      "PEM": 7943,
      "Period": 7944,
      "realpath": 7945,
      "Lines": 7946,
      "experiments": 7947,
      "satellite": 7948,
      "reduction": 7949,
      "indicated": 7950,
      "anisotropy": 7951,
      "SB": 7952,
      "xb": 7953,
      "Compare": 7954,
      "silently": 7955,
      "CAP": 7956,
      "P2": 7957,
      "atable": 7958,
      "terminated": 7959,
      "representative": 7960,
      "MX": 7961,
      "interpret": 7962,
      "120": 7963,
      "LIC": 7964,
      "Invocation": 7965,
      "Where": 7966,
      "dna": 7967,
      "interpolated": 7968,
      "51": 7969,
      "tivities": 7970,
      "prof": 7971,
      "classpath": 7972,
      "Encoding": 7973,
      "cardin": 7974,
      "WSGI": 7975,
      "FORM": 7976,
      "Support": 7977,
      "aware": 7978,
      "cv2": 7979,
      "parses": 7980,
      "acked": 7981,
      "slide": 7982,
      "METHO": 7983,
      "Constants": 7984,
      "Credentials": 7985,
      "PG": 7986,
      "ae": 7987,
      "dg": 7988,
      "segs": 7989,
      "buses": 7990,
      "MD5": 7991,
      "spherical": 7992,
      "LEVEL": 7993,
      "WR": 7994,
      "gff": 7995,
      "uli": 7996,
      "wc": 7997,
      "subdir": 7998,
      "thrott": 7999,
      "spike": 8000,
      "Two": 8001,
      "archite": 8002,
      "overrid": 8003,
      "opener": 8004,
      "cats": 8005,
      "SaltCloud": 8006,
      "hstack": 8007,
      "Obtain": 8008,
      "NumPy": 8009,
      "000000": 8010,
      "Redu": 8011,
      "substitute": 8012,
      "MULTI": 8013,
      "61": 8014,
      "Async": 8015,
      "logo": 8016,
      "spline": 8017,
      "ephe": 8018,
      "providing": 8019,
      "colored": 8020,
      "ales": 8021,
      "peers": 8022,
      "perman": 8023,
      "postgres": 8024,
      "rounding": 8025,
      "dP": 8026,
      "subtree": 8027,
      "reshold": 8028,
      "Scalar": 8029,
      "2nd": 8030,
      "arith": 8031,
      "fromstring": 8032,
      "Arn": 8033,
      "2019": 8034,
      "Rows": 8035,
      "holding": 8036,
      "Height": 8037,
      "firewall": 8038,
      "fobj": 8039,
      "activated": 8040,
      "minimize": 8041,
      "ration": 8042,
      "uoa": 8043,
      "Inf": 8044,
      "searching": 8045,
      "Changes": 8046,
      "caching": 8047,
      "RDD": 8048,
      "fetched": 8049,
      "among": 8050,
      "tmpdir": 8051,
      "copies": 8052,
      "SAS": 8053,
      "nf": 8054,
      "nk": 8055,
      "alter": 8056,
      "keh": 8057,
      "Ind": 8058,
      "offline": 8059,
      "02d": 8060,
      "sensors": 8061,
      "pores": 8062,
      "locks": 8063,
      "traces": 8064,
      "avatar": 8065,
      "POSI": 8066,
      "Modify": 8067,
      "Gamma": 8068,
      "NB": 8069,
      "triangles": 8070,
      "ENV": 8071,
      "Objective": 8072,
      "declare": 8073,
      "SArray": 8074,
      "ading": 8075,
      "motif": 8076,
      "preced": 8077,
      "ARCH": 8078,
      "syslog": 8079,
      "MAIN": 8080,
      "administr": 8081,
      "JWT": 8082,
      "getvalue": 8083,
      "hell": 8084,
      "eye": 8085,
      "weekday": 8086,
      "Scope": 8087,
      "Machine": 8088,
      "timed": 8089,
      "Common": 8090,
      "scalars": 8091,
      "pivot": 8092,
      "dop": 8093,
      "party": 8094,
      "sockets": 8095,
      "excludes": 8096,
      "purge": 8097,
      "sas": 8098,
      "strong": 8099,
      "prices": 8100,
      "generally": 8101,
      "residues": 8102,
      "w3": 8103,
      "relax": 8104,
      "requester": 8105,
      "relu": 8106,
      "hc": 8107,
      "rence": 8108,
      "monic": 8109,
      "SERT": 8110,
      "Experiment": 8111,
      "precedence": 8112,
      "andi": 8113,
      "raising": 8114,
      "parm": 8115,
      "grids": 8116,
      "therefore": 8117,
      "LABEL": 8118,
      "Conv": 8119,
      "Card": 8120,
      "gf": 8121,
      "unic": 8122,
      "company": 8123,
      "SOCK": 8124,
      "REL": 8125,
      "atern": 8126,
      "operating": 8127,
      "owned": 8128,
      "mux": 8129,
      "circular": 8130,
      "VALUES": 8131,
      "1E": 8132,
      "ham": 8133,
      "bag": 8134,
      "shows": 8135,
      "CLIENT": 8136,
      "Deprecation": 8137,
      "placeholders": 8138,
      "tested": 8139,
      "produces": 8140,
      "feedback": 8141,
      "exon": 8142,
      "snr": 8143,
      "populated": 8144,
      "atleast": 8145,
      "occup": 8146,
      "brightness": 8147,
      "Diff": 8148,
      "ratios": 8149,
      "fuzzy": 8150,
      "unwrap": 8151,
      "ads": 8152,
      "Recs": 8153,
      "quant": 8154,
      "evt": 8155,
      "operational": 8156,
      "Filters": 8157,
      "alternate": 8158,
      "thed": 8159,
      "Console": 8160,
      "projected": 8161,
      "Angle": 8162,
      "Pipeline": 8163,
      "yml": 8164,
      "inch": 8165,
      "hosting": 8166,
      "multiline": 8167,
      "R2": 8168,
      "infinite": 8169,
      "MultiIndex": 8170,
      "newer": 8171,
      "homo": 8172,
      "magne": 8173,
      "NODE": 8174,
      "speech": 8175,
      "CASE": 8176,
      "storing": 8177,
      "Mixin": 8178,
      "Equ": 8179,
      "inet": 8180,
      "shares": 8181,
      "TOP": 8182,
      "cylin": 8183,
      "ldp": 8184,
      "collision": 8185,
      "benchmark": 8186,
      "INDEX": 8187,
      "cance": 8188,
      "toolbar": 8189,
      "successors": 8190,
      "THON": 8191,
      "CONF": 8192,
      "RST": 8193,
      "lats": 8194,
      "calculations": 8195,
      "acknow": 8196,
      "alternatives": 8197,
      "ftype": 8198,
      "INSERT": 8199,
      "00000": 8200,
      "Curve": 8201,
      "acceptance": 8202,
      "SNMP": 8203,
      "yaxis": 8204,
      "rend": 8205,
      "addrs": 8206,
      "gorithms": 8207,
      "FN": 8208,
      "Spect": 8209,
      "kappa": 8210,
      "buffers": 8211,
      "Deploy": 8212,
      "ik": 8213,
      "oct": 8214,
      "calculates": 8215,
      "han": 8216,
      "nost": 8217,
      "backoff": 8218,
      "Instanti": 8219,
      "decorate": 8220,
      "Accepts": 8221,
      "TERN": 8222,
      "Done": 8223,
      "Plots": 8224,
      "timestep": 8225,
      "tracked": 8226,
      "superclass": 8227,
      "Instances": 8228,
      "duplicated": 8229,
      "DESCRIPTION": 8230,
      "oprot": 8231,
      "pwd": 8232,
      "slab": 8233,
      "house": 8234,
      "traversal": 8235,
      "isoformat": 8236,
      "Depth": 8237,
      "posix": 8238,
      "enumeration": 8239,
      "ANGE": 8240,
      "develop": 8241,
      "Topic": 8242,
      "curl": 8243,
      "clicked": 8244,
      "Units": 8245,
      "estimates": 8246,
      "gender": 8247,
      "pst": 8248,
      "arri": 8249,
      "rounded": 8250,
      "neut": 8251,
      "symlinks": 8252,
      "Features": 8253,
      "snippet": 8254,
      "Dif": 8255,
      "Expand": 8256,
      "Lib": 8257,
      "removal": 8258,
      "frontend": 8259,
      "RETURN": 8260,
      "MC": 8261,
      "TING": 8262,
      "twitter": 8263,
      "FAIL": 8264,
      "convolution": 8265,
      "bandwidth": 8266,
      "LDAP": 8267,
      "substitution": 8268,
      "centered": 8269,
      "devi": 8270,
      "chord": 8271,
      "sometimes": 8272,
      "bracket": 8273,
      "dark": 8274,
      "gold": 8275,
      "iro": 8276,
      "strs": 8277,
      "bypass": 8278,
      "ites": 8279,
      "calculating": 8280,
      "Modified": 8281,
      "invocation": 8282,
      "residuals": 8283,
      "Duplicate": 8284,
      "insensitive": 8285,
      "ticker": 8286,
      "unlink": 8287,
      "argsort": 8288,
      "ignoring": 8289,
      "Counts": 8290,
      "Err": 8291,
      "hmac": 8292,
      "sation": 8293,
      "detach": 8294,
      "UTE": 8295,
      "forced": 8296,
      "phenotype": 8297,
      "camel": 8298,
      "RU": 8299,
      "covered": 8300,
      "propos": 8301,
      "ENCE": 8302,
      "92": 8303,
      "tracer": 8304,
      "EE": 8305,
      "shp": 8306,
      "ONLY": 8307,
      "TypeId": 8308,
      "Amount": 8309,
      "Tries": 8310,
      "eu": 8311,
      "mption": 8312,
      "pymongo": 8313,
      "basedir": 8314,
      "miss": 8315,
      "Associ": 8316,
      "InvocationError": 8317,
      "PP": 8318,
      "fish": 8319,
      "ople": 8320,
      "outs": 8321,
      "psis": 8322,
      "Help": 8323,
      "aneous": 8324,
      "thrown": 8325,
      "btn": 8326,
      "isition": 8327,
      "cale": 8328,
      "xfer": 8329,
      "cod": 8330,
      "Altern": 8331,
      "affine": 8332,
      "ontology": 8333,
      "Switch": 8334,
      "Your": 8335,
      "dL": 8336,
      "fx": 8337,
      "dots": 8338,
      "Price": 8339,
      "overlaps": 8340,
      "ciphertext": 8341,
      "MUST": 8342,
      "cool": 8343,
      "redge": 8344,
      "normally": 8345,
      "normals": 8346,
      "Bovy": 8347,
      "scanner": 8348,
      "aggregated": 8349,
      "zendesk": 8350,
      "Numpy": 8351,
      "demand": 8352,
      "setText": 8353,
      "999": 8354,
      "approximation": 8355,
      "Bi": 8356,
      "hu": 8357,
      "outliers": 8358,
      "existence": 8359,
      "playlist": 8360,
      "intenance": 8361,
      "b64encode": 8362,
      "PACK": 8363,
      "sutil": 8364,
      "Alchemy": 8365,
      "voxels": 8366,
      "Sa": 8367,
      "spar": 8368,
      "reactions": 8369,
      "tempdir": 8370,
      "Decl": 8371,
      "lxml": 8372,
      "swe": 8373,
      "deleting": 8374,
      "lemma": 8375,
      "Gue": 8376,
      "Rename": 8377,
      "coo": 8378,
      "ipt": 8379,
      "maxiter": 8380,
      "REGEX": 8381,
      "Chunk": 8382,
      "Labels": 8383,
      "reflect": 8384,
      "inactive": 8385,
      "Repo": 8386,
      "psf": 8387,
      "Which": 8388,
      "suffixes": 8389,
      "TimeoutError": 8390,
      "Problem": 8391,
      "yr": 8392,
      "inver": 8393,
      "robot": 8394,
      "ax2": 8395,
      "iters": 8396,
      "Payload": 8397,
      "VLAN": 8398,
      "Bus": 8399,
      "Lvl": 8400,
      "WIN": 8401,
      "tq": 8402,
      "Sensor": 8403,
      "moments": 8404,
      "GRE": 8405,
      "dq": 8406,
      "navi": 8407,
      "Bank": 8408,
      "Phy": 8409,
      "hue": 8410,
      "neither": 8411,
      "grace": 8412,
      "overwritten": 8413,
      "cial": 8414,
      "MODEL": 8415,
      "Skipping": 8416,
      "urier": 8417,
      "Bool": 8418,
      "redirects": 8419,
      "migrations": 8420,
      "hd": 8421,
      "Too": 8422,
      "Workflow": 8423,
      "Dynamo": 8424,
      "aln": 8425,
      "ietf": 8426,
      "bea": 8427,
      "izations": 8428,
      "causes": 8429,
      "frozenset": 8430,
      "slack": 8431,
      "Restri": 8432,
      "dirpath": 8433,
      "auti": 8434,
      "emu": 8435,
      "wrapping": 8436,
      "synthe": 8437,
      "desktop": 8438,
      "qp": 8439,
      "gran": 8440,
      "Launch": 8441,
      "83": 8442,
      "figures": 8443,
      "manip": 8444,
      "MAG": 8445,
      "SaltInvocationError": 8446,
      "Bal": 8447,
      "IAM": 8448,
      "unlock": 8449,
      "concurrent": 8450,
      "softmax": 8451,
      "RNA": 8452,
      "Sent": 8453,
      "pyp": 8454,
      "KEYS": 8455,
      "caches": 8456,
      "Gene": 8457,
      "bw": 8458,
      "PY3": 8459,
      "trusted": 8460,
      "Pur": 8461,
      "Strip": 8462,
      "dset": 8463,
      "dll": 8464,
      "spy": 8465,
      "unked": 8466,
      "explan": 8467,
      "patient": 8468,
      "Prote": 8469,
      "invi": 8470,
      "sted": 8471,
      "osp": 8472,
      "Initializes": 8473,
      "Blue": 8474,
      "decomposition": 8475,
      "criterion": 8476,
      "aid": 8477,
      "uris": 8478,
      "They": 8479,
      "forever": 8480,
      "visitor": 8481,
      "Adapter": 8482,
      "LANGU": 8483,
      "recover": 8484,
      "attri": 8485,
      "concept": 8486,
      "teams": 8487,
      "NEW": 8488,
      "AI": 8489,
      "blog": 8490,
      "hype": 8491,
      "nw": 8492,
      "Processor": 8493,
      "asm": 8494,
      "concer": 8495,
      "ital": 8496,
      "fullpath": 8497,
      "rna": 8498,
      "dename": 8499,
      "FITS": 8500,
      "experimental": 8501,
      "inputed": 8502,
      "autiful": 8503,
      "reindex": 8504,
      "Deprecated": 8505,
      "Detect": 8506,
      "FUNCTION": 8507,
      "penalty": 8508,
      "assis": 8509,
      "Nu": 8510,
      "Score": 8511,
      "bat": 8512,
      "reli": 8513,
      "moti": 8514,
      "ERY": 8515,
      "FASTA": 8516,
      "SCHEMA": 8517,
      "DeprecationWarning": 8518,
      "GC": 8519,
      "gan": 8520,
      "ico": 8521,
      "liquid": 8522,
      "fieldname": 8523,
      "securityHandler": 8524,
      "Because": 8525,
      "Sci": 8526,
      "ente": 8527,
      "getenv": 8528,
      "indx": 8529,
      "expressed": 8530,
      "SETTING": 8531,
      "expiry": 8532,
      "shifted": 8533,
      "hparam": 8534,
      "sit": 8535,
      "Username": 8536,
      "optimized": 8537,
      "Exists": 8538,
      "aj": 8539,
      "ancestors": 8540,
      "delayed": 8541,
      "adjacent": 8542,
      "Trigger": 8543,
      "UDF": 8544,
      "allocate": 8545,
      "rac": 8546,
      "bib": 8547,
      "FFT": 8548,
      "ABC": 8549,
      "contribution": 8550,
      "punctuation": 8551,
      "Tim": 8552,
      "synon": 8553,
      "establish": 8554,
      "PSD": 8555,
      "finds": 8556,
      "Comput": 8557,
      "writable": 8558,
      "PROTO": 8559,
      "Works": 8560,
      "certificates": 8561,
      "Der": 8562,
      "Tele": 8563,
      "i3": 8564,
      "concrete": 8565,
      "Messages": 8566,
      "Alias": 8567,
      "Measure": 8568,
      "tty": 8569,
      "temporal": 8570,
      "Shortcut": 8571,
      "FILTER": 8572,
      "Ren": 8573,
      "licity": 8574,
      "hashable": 8575,
      "errmsg": 8576,
      "PNG": 8577,
      "peptide": 8578,
      "Average": 8579,
      "Mi": 8580,
      "ipro": 8581,
      "rdd": 8582,
      "keyed": 8583,
      "go2": 8584,
      "SERVICE": 8585,
      "NUMBER": 8586,
      "demo": 8587,
      "diver": 8588,
      "USB": 8589,
      "issued": 8590,
      "vehicle": 8591,
      "DH": 8592,
      "tie": 8593,
      "lfile": 8594,
      "matically": 8595,
      "1st": 8596,
      "BA": 8597,
      "DL": 8598,
      "Wrong": 8599,
      "xls": 8600,
      "scription": 8601,
      "hasher": 8602,
      "smtp": 8603,
      "Allows": 8604,
      "12345": 8605,
      "Sph": 8606,
      "bidden": 8607,
      "reboot": 8608,
      "assump": 8609,
      "Conta": 8610,
      "fileno": 8611,
      "COMMAND": 8612,
      "Nx": 8613,
      "Tile": 8614,
      "algorithms": 8615,
      "trimmed": 8616,
      "MagRec": 8617,
      "ambiguous": 8618,
      "eper": 8619,
      "tight": 8620,
      "texture": 8621,
      "ATCH": 8622,
      "strides": 8623,
      "Soup": 8624,
      "accessed": 8625,
      "bq": 8626,
      "jj": 8627,
      "yellow": 8628,
      "ctr": 8629,
      "exper": 8630,
      "earlier": 8631,
      "twice": 8632,
      "flex": 8633,
      "gat": 8634,
      "Std": 8635,
      "envs": 8636,
      "enums": 8637,
      "convex": 8638,
      "bots": 8639,
      "dual": 8640,
      "Reading": 8641,
      "linestyle": 8642,
      "204": 8643,
      "pools": 8644,
      "consumption": 8645,
      "sanity": 8646,
      "GitHub": 8647,
      "Utils": 8648,
      "income": 8649,
      "atol": 8650,
      "logout": 8651,
      "fluid": 8652,
      "earth": 8653,
      "MeasRec": 8654,
      "agen": 8655,
      "pure": 8656,
      "rw": 8657,
      "spot": 8658,
      "zA": 8659,
      "ention": 8660,
      "grads": 8661,
      "655": 8662,
      "Rs": 8663,
      "kk": 8664,
      "ncols": 8665,
      "fieldnames": 8666,
      "continuation": 8667,
      "Special": 8668,
      "uint16": 8669,
      "Transport": 8670,
      "announce": 8671,
      "fatal": 8672,
      "Db": 8673,
      "EK": 8674,
      "xl": 8675,
      "xdata": 8676,
      "geted": 8677,
      "timeline": 8678,
      "replacements": 8679,
      "iterables": 8680,
      "SQLAlchemy": 8681,
      "PYTHON": 8682,
      "ission": 8683,
      "Separ": 8684,
      "receiving": 8685,
      "Constant": 8686,
      "History": 8687,
      "Cookie": 8688,
      "nucleo": 8689,
      "tqdm": 8690,
      "Fast": 8691,
      "fopen": 8692,
      "contri": 8693,
      "fund": 8694,
      "completions": 8695,
      "keeping": 8696,
      "Static": 8697,
      "CONTENT": 8698,
      "shifts": 8699,
      "simplify": 8700,
      "Catalog": 8701,
      "aternion": 8702,
      "AES": 8703,
      "preferences": 8704,
      "Threshold": 8705,
      "cmdline": 8706,
      "Percent": 8707,
      "Complete": 8708,
      "ora": 8709,
      "coar": 8710,
      "opacity": 8711,
      "irth": 8712,
      "searches": 8713,
      "vlc": 8714,
      "Backend": 8715,
      "Processes": 8716,
      "Act": 8717,
      "GD": 8718,
      "prece": 8719,
      "fld": 8720,
      "increasing": 8721,
      "belong": 8722,
      "substitutions": 8723,
      "fqdn": 8724,
      "81": 8725,
      "mir": 8726,
      "val1": 8727,
      "FileName": 8728,
      "Updated": 8729,
      "instruments": 8730,
      "Increment": 8731,
      "javascript": 8732,
      "73": 8733,
      "sell": 8734,
      "bix": 8735,
      "ranks": 8736,
      "Allowed": 8737,
      "IMAGE": 8738,
      "AME": 8739,
      "Sparse": 8740,
      "tlen": 8741,
      "chmod": 8742,
      "signer": 8743,
      "histo": 8744,
      "Constraint": 8745,
      "renamed": 8746,
      "solid": 8747,
      "implements": 8748,
      "Fixed": 8749,
      "Est": 8750,
      "systemd": 8751,
      "Weight": 8752,
      "Assessment": 8753,
      "tabular": 8754,
      "inherited": 8755,
      "Surface": 8756,
      "erase": 8757,
      "odd": 8758,
      "XYZ": 8759,
      "pexpect": 8760,
      "unzip": 8761,
      "ious": 8762,
      "Serial": 8763,
      "SOL": 8764,
      "fcn": 8765,
      "ials": 8766,
      "righ": 8767,
      "caught": 8768,
      "INET": 8769,
      "Spe": 8770,
      "LOB": 8771,
      "cumsum": 8772,
      "lxc": 8773,
      "enrich": 8774,
      "proceed": 8775,
      "assemble": 8776,
      "JO": 8777,
      "pval": 8778,
      "ago": 8779,
      "ALT": 8780,
      "ITS": 8781,
      "Spark": 8782,
      "jvm": 8783,
      "oll": 8784,
      "splitting": 8785,
      "tablename": 8786,
      "cancelled": 8787,
      "Possible": 8788,
      "Potential": 8789,
      "Aggreg": 8790,
      "Defines": 8791,
      "APIError": 8792,
      "168": 8793,
      "Loading": 8794,
      "600": 8795,
      "chunked": 8796,
      "ArgumentError": 8797,
      "Specific": 8798,
      "ortho": 8799,
      "monom": 8800,
      "denom": 8801,
      "Ensures": 8802,
      "delegate": 8803,
      "gapic": 8804,
      "tuning": 8805,
      "allocation": 8806,
      "Formats": 8807,
      "Metrics": 8808,
      "marginal": 8809,
      "syllable": 8810,
      "Icon": 8811,
      "Long": 8812,
      "Tor": 8813,
      "vT": 8814,
      "REC": 8815,
      "Boot": 8816,
      "NAMES": 8817,
      "reasons": 8818,
      "succeeded": 8819,
      "oq": 8820,
      "stacked": 8821,
      "PY2": 8822,
      "ento": 8823,
      "decompress": 8824,
      "undo": 8825,
      "univ": 8826,
      "dicom": 8827,
      "crypt": 8828,
      "Bio": 8829,
      "Based": 8830,
      "screenshot": 8831,
      "quantile": 8832,
      "Lon": 8833,
      "SF": 8834,
      "confir": 8835,
      "outline": 8836,
      "cities": 8837,
      "ProcessError": 8838,
      "3333": 8839,
      "Implements": 8840,
      "courses": 8841,
      "separately": 8842,
      "underscore": 8843,
      "platforms": 8844,
      "sembl": 8845,
      "Shell": 8846,
      "pdu": 8847,
      "raid": 8848,
      "bud": 8849,
      "standardi": 8850,
      "033": 8851,
      "GG": 8852,
      "RM": 8853,
      "bise": 8854,
      "Restore": 8855,
      "descending": 8856,
      "ASN": 8857,
      "blobxfer": 8858,
      "Beautiful": 8859,
      "excluding": 8860,
      "Alignment": 8861,
      "contracts": 8862,
      "plist": 8863,
      "splitted": 8864,
      "udp": 8865,
      "radiance": 8866,
      "Serializer": 8867,
      "severity": 8868,
      "PORTED": 8869,
      "tube": 8870,
      "anc": 8871,
      "adm": 8872,
      "divi": 8873,
      "scaff": 8874,
      "importlib": 8875,
      "Contents": 8876,
      "MODU": 8877,
      "spectra": 8878,
      "BIN": 8879,
      "Mass": 8880,
      "tn": 8881,
      "deque": 8882,
      "decim": 8883,
      "Methods": 8884,
      "submissions": 8885,
      "PUB": 8886,
      "fonts": 8887,
      "ATA": 8888,
      "searched": 8889,
      "Wiki": 8890,
      "Snapshot": 8891,
      "Oc": 8892,
      "TAR": 8893,
      "gandi": 8894,
      "regs": 8895,
      "Abort": 8896,
      "retrieving": 8897,
      "easier": 8898,
      "quar": 8899,
      "substring": 8900,
      "instantiated": 8901,
      "Populate": 8902,
      "lout": 8903,
      "0x0": 8904,
      "contigs": 8905,
      "Charact": 8906,
      "slit": 8907,
      "entered": 8908,
      "movie": 8909,
      "readonly": 8910,
      "ONT": 8911,
      "2011": 8912,
      "Spin": 8913,
      "pes": 8914,
      "abund": 8915,
      "Desc": 8916,
      "RAW": 8917,
      "animation": 8918,
      "ILED": 8919,
      "chassis": 8920,
      "stringutils": 8921,
      "hosted": 8922,
      "uniq": 8923,
      "ASK": 8924,
      "naive": 8925,
      "sch": 8926,
      "invol": 8927,
      "tilde": 8928,
      "SpecRec": 8929,
      "MODULE": 8930,
      "npy": 8931,
      "DEF": 8932,
      "showing": 8933,
      "eck": 8934,
      "inform": 8935,
      "ros": 8936,
      "patched": 8937,
      "libvlc": 8938,
      "solute": 8939,
      "seeds": 8940,
      "asked": 8941,
      "parms": 8942,
      "vip": 8943,
      "Unimplemented": 8944,
      "website": 8945,
      "shouldn": 8946,
      "geometri": 8947,
      "rejected": 8948,
      "stash": 8949,
      "sensi": 8950,
      "Transition": 8951,
      "4f": 8952,
      "blocked": 8953,
      "sls": 8954,
      "oney": 8955,
      "xture": 8956,
      "erson": 8957,
      "Dev": 8958,
      "OID": 8959,
      "Qgs": 8960,
      "V2": 8961,
      "lify": 8962,
      "fromtimestamp": 8963,
      "DOUT": 8964,
      "hexa": 8965,
      "Shift": 8966,
      "BUILD": 8967,
      "ensive": 8968,
      "measures": 8969,
      "equality": 8970,
      "Phone": 8971,
      "summaries": 8972,
      "Pagin": 8973,
      "fnames": 8974,
      "rebuild": 8975,
      "logl": 8976,
      "ecc": 8977,
      "IGN": 8978,
      "ahead": 8979,
      "kid": 8980,
      "IDE": 8981,
      "rupted": 8982,
      "revisions": 8983,
      "ider": 8984,
      "conds": 8985,
      "painter": 8986,
      "glyphs": 8987,
      "DynamoDB": 8988,
      "cra": 8989,
      "dT": 8990,
      "NOQA": 8991,
      "Fol": 8992,
      "lsp": 8993,
      "qc": 8994,
      "zf": 8995,
      "targeted": 8996,
      "dropna": 8997,
      "x1b": 8998,
      "bur": 8999,
      "folio": 9000,
      "maxsize": 9001,
      "ORI": 9002,
      "Density": 9003,
      "alogs": 9004,
      "ospf": 9005,
      "derive": 9006,
      "Statistics": 9007,
      "Overlay": 9008,
      "Tools": 9009,
      "Press": 9010,
      "smoothed": 9011,
      "tition": 9012,
      "tel": 9013,
      "Real": 9014,
      "radii": 9015,
      "assemb": 9016,
      "visualization": 9017,
      "lal": 9018,
      "people": 9019,
      "imshow": 9020,
      "termination": 9021,
      "Once": 9022,
      "selves": 9023,
      "asafe": 9024,
      "TemporaryFile": 9025,
      "Provides": 9026,
      "allery": 9027,
      "LEFT": 9028,
      "capability": 9029,
      "shipping": 9030,
      "Shk": 9031,
      "adapters": 9032,
      "composed": 9033,
      "satisfy": 9034,
      "dscp": 9035,
      "apis": 9036,
      "spice": 9037,
      "datal": 9038,
      "TeX": 9039,
      "hyperedge": 9040,
      "c0": 9041,
      "rewrite": 9042,
      "arer": 9043,
      "classify": 9044,
      "uuid4": 9045,
      "ENDING": 9046,
      "exponential": 9047,
      "SUPPORTED": 9048,
      "xref": 9049,
      "inasafe": 9050,
      "abbix": 9051,
      "verts": 9052,
      "403": 9053,
      "embeddings": 9054,
      "UNIX": 9055,
      "uring": 9056,
      "sized": 9057,
      "migrate": 9058,
      "RESULT": 9059,
      "sqlite3": 9060,
      "improve": 9061,
      "Phase": 9062,
      "survi": 9063,
      "CalledProcessError": 9064,
      "guaranteed": 9065,
      "thesis": 9066,
      "Deferred": 9067,
      "Implementation": 9068,
      "PD": 9069,
      "lamb": 9070,
      "Arc": 9071,
      "dyn": 9072,
      "eigenvalues": 9073,
      "contrast": 9074,
      "slic": 9075,
      "lims": 9076,
      "weeks": 9077,
      "simulate": 9078,
      "COR": 9079,
      "subgraph": 9080,
      "allowing": 9081,
      "datad": 9082,
      "Comm": 9083,
      "utilities": 9084,
      "mst": 9085,
      "solutions": 9086,
      "dise": 9087,
      "clipboard": 9088,
      "TM": 9089,
      "dend": 9090,
      "mile": 9091,
      "pressed": 9092,
      "asn": 9093,
      "remotes": 9094,
      "Predi": 9095,
      "Heat": 9096,
      "decrypted": 9097,
      "Such": 9098,
      "tarfile": 9099,
      "Unpack": 9100,
      "apt": 9101,
      "Validator": 9102,
      "selectors": 9103,
      "Rest": 9104,
      "sos": 9105,
      "directives": 9106,
      "Team": 9107,
      "Omega": 9108,
      "Life": 9109,
      "TC": 9110,
      "ipython": 9111,
      "pha": 9112,
      "contours": 9113,
      "Lear": 9114,
      "Pan": 9115,
      "dut": 9116,
      "kargs": 9117,
      "hole": 9118,
      "maxim": 9119,
      "ularity": 9120,
      "profiler": 9121,
      "alignments": 9122,
      "bigquery": 9123,
      "declarations": 9124,
      "Ok": 9125,
      "bust": 9126,
      "Consum": 9127,
      "downloads": 9128,
      "buffered": 9129,
      "QUERY": 9130,
      "aff4": 9131,
      "billing": 9132,
      "Sigma": 9133,
      "Contact": 9134,
      "BeautifulSoup": 9135,
      "fic": 9136,
      "conform": 9137,
      "buy": 9138,
      "staff": 9139,
      "sentinel": 9140,
      "ContentType": 9141,
      "META": 9142,
      "urllib2": 9143,
      "Categor": 9144,
      "scratch": 9145,
      "SaltCloudSystemExit": 9146,
      "kn": 9147,
      "vR": 9148,
      "remember": 9149,
      "ada": 9150,
      "pathlib": 9151,
      "efficiency": 9152,
      "polling": 9153,
      "rights": 9154,
      "inity": 9155,
      "thr": 9156,
      "trl": 9157,
      "preorder": 9158,
      "ctrlpts": 9159,
      "spam": 9160,
      "pmagplotlib": 9161,
      "GM": 9162,
      "San": 9163,
      "bor": 9164,
      "ply": 9165,
      "elems": 9166,
      "differenti": 9167,
      "datetime64": 9168,
      "mong": 9169,
      "switches": 9170,
      "descendants": 9171,
      "xxx": 9172,
      "Shut": 9173,
      "VARI": 9174,
      "architecture": 9175,
      "ngrams": 9176,
      "vms": 9177,
      "wants": 9178,
      "nomin": 9179,
      "linesep": 9180,
      "haust": 9181,
      "hostport": 9182,
      "Low": 9183,
      "Descri": 9184,
      "decorators": 9185,
      "hourly": 9186,
      "fastafile": 9187,
      "Receive": 9188,
      "stddevs": 9189,
      "CAN": 9190,
      "MON": 9191,
      "amazon": 9192,
      "zs": 9193,
      "asp": 9194,
      "uninstall": 9195,
      "applet": 9196,
      "STDOUT": 9197,
      "Segments": 9198,
      "Annotation": 9199,
      "accordingly": 9200,
      "Matches": 9201,
      "IMP": 9202,
      "replaces": 9203,
      "RESP": 9204,
      "warded": 9205,
      "TIVE": 9206,
      "decess": 9207,
      "Repe": 9208,
      "recor": 9209,
      "RAY": 9210,
      "KB": 9211,
      "dask": 9212,
      "f0": 9213,
      "replay": 9214,
      "icreate": 9215,
      "aug": 9216,
      "Contains": 9217,
      "turicreate": 9218,
      "provisioning": 9219,
      "denominator": 9220,
      "banner": 9221,
      "CALL": 9222,
      "exceeded": 9223,
      "breakpoints": 9224,
      "Grade": 9225,
      "indicators": 9226,
      "waveform": 9227,
      "qqqq": 9228,
      "Gtk": 9229,
      "VO": 9230,
      "bm": 9231,
      "Forward": 9232,
      "Dynamic": 9233,
      "oo": 9234,
      "vfs": 9235,
      "tos": 9236,
      "latin": 9237,
      "111": 9238,
      "fetchall": 9239,
      "freeze": 9240,
      "Prior": 9241,
      "radio": 9242,
      "Monitor": 9243,
      "hydpy": 9244,
      "rn": 9245,
      "subsystem": 9246,
      "apikey": 9247,
      "Annot": 9248,
      "fluence": 9249,
      "FACT": 9250,
      "dbus": 9251,
      "tg": 9252,
      "cairo": 9253,
      "partner": 9254,
      "protocols": 9255,
      "walker": 9256,
      "taxonomy": 9257,
      "umin": 9258,
      "REMO": 9259,
      "costs": 9260,
      "Choose": 9261,
      "dbsException": 9262,
      "twee": 9263,
      "sums": 9264,
      "AGES": 9265,
      "MATCH": 9266,
      "nii": 9267,
      "cobian": 9268,
      "maintenance": 9269,
      "pager": 9270,
      "paste": 9271,
      "itervalues": 9272,
      "changelog": 9273,
      "yielding": 9274,
      "Medi": 9275,
      "150": 9276,
      "XXXX": 9277,
      "MySQL": 9278,
      "Indicator": 9279,
      "macs": 9280,
      "illed": 9281,
      "Services": 9282,
      "successor": 9283,
      "RequestException": 9284,
      "Inline": 9285,
      "mins": 9286,
      "subnets": 9287,
      "PATTERN": 9288,
      "octet": 9289,
      "depart": 9290,
      "ups": 9291,
      "mine": 9292,
      "PathSpec": 9293,
      "FAILED": 9294,
      "lites": 9295,
      "keystone": 9296,
      "transformers": 9297,
      "derivatives": 9298,
      "Pret": 9299,
      "stoch": 9300,
      "Upper": 9301,
      "feats": 9302,
      "110": 9303,
      "uish": 9304,
      "reporter": 9305,
      "eness": 9306,
      "ament": 9307,
      "quake": 9308,
      "SEC": 9309,
      "individuals": 9310,
      "zenith": 9311,
      "ligand": 9312,
      "affect": 9313,
      "Secret": 9314,
      "Gateway": 9315,
      "brokers": 9316,
      "Cach": 9317,
      "NORM": 9318,
      "Rat": 9319,
      "Span": 9320,
      "WITH": 9321,
      "keyring": 9322,
      "Archive": 9323,
      "DM": 9324,
      "Fault": 9325,
      "Many": 9326,
      "ea": 9327,
      "heights": 9328,
      "datat": 9329,
      "0x00": 9330,
      "momentum": 9331,
      "facets": 9332,
      "EXIST": 9333,
      "siblings": 9334,
      "acquisition": 9335,
      "CV": 9336,
      "jit": 9337,
      "rerun": 9338,
      "matter": 9339,
      "specifications": 9340,
      "carded": 9341,
      "Looks": 9342,
      "METHOD": 9343,
      "g1": 9344,
      "ars": 9345,
      "sklearn": 9346,
      "reporting": 9347,
      "Hello": 9348,
      "Combine": 9349,
      "magnetic": 9350,
      "masses": 9351,
      "pq": 9352,
      "z1": 9353,
      "think": 9354,
[...]
