{
  "version": "1.0",
  "truncation": null,
  "padding": null,
  "added_tokens": [
    {
      "id": 0,
      "content": "<START>",
      "single_word": false,
      "lstrip": false,
      "rstrip": false,
      "normalized": false,
      "special": true
    },
    {
      "id": 1,
      "content": "<END>",
      "single_word": false,
      "lstrip": false,
      "rstrip": false,
      "normalized": false,
      "special": true
    },
    {
      "id": 2,
      "content": "<SEP>",
      "single_word": false,
      "lstrip": false,
      "rstrip": false,
      "normalized": false,
      "special": true
    },
    {
      "id": 3,
      "content": "<INDENT>",
      "single_word": false,
      "lstrip": false,
      "rstrip": false,
      "normalized": false,
      "special": true
    },
    {
      "id": 4,
      "content": "<DEDENT>",
      "single_word": false,
      "lstrip": false,
      "rstrip": false,
      "normalized": false,
      "special": true
    },
    {
      "id": 5,
      "content": "<unk>",
      "single_word": false,
      "lstrip": false,
      "rstrip": false,
      "normalized": false,
      "special": true
    },
    {
      "id": 6,
      "content": "<pad>",
      "single_word": false,
      "lstrip": false,
      "rstrip": false,
      "normalized": false,
      "special": true
    },
    {
      "id": 7,
      "content": "<mask>",
      "single_word": false,
      "lstrip": false,
      "rstrip": false,
      "normalized": false,
      "special": true
    },
    {
      "id": 8,
      "content": "_",
      "single_word": false,
      "lstrip": false,
      "rstrip": false,
      "normalized": false,
      "special": true
    }
  ],
  "normalizer": {
    "type": "Sequence",
    "normalizers": [
      {
        "type": "NFD"
      },
      {
        "type": "StripAccents"
      },
      {
        "type": "Replace",
        "pattern": {
          "String": "\t"
        },
        "content": "    "
      },
      {
        "type": "Replace",
        "pattern": {
          "String": "#.*"
        },
        "content": "<COMMENT>"
      },
      {
        "type": "Replace",
        "pattern": {
          "String": "(['\\\"])(?:(?=(\\\\?))\\2.)*?\\1"
        },
        "content": "<STRING>"
      }
    ]
  },
  "pre_tokenizer": {
    "type": "ByteLevel",
    "add_prefix_space": true,
    "trim_offsets": true,
    "use_regex": true
  },
  "post_processor": {
    "type": "TemplateProcessing",
    "single": [
      {
        "SpecialToken": {
          "id": "<START>",
          "type_id": 0
        }
      },
      {
        "Sequence": {
          "id": "A",
          "type_id": 0
        }
      },
      {
        "SpecialToken": {
          "id": "<END>",
          "type_id": 0
        }
      }
    ],
    "pair": [
      {
        "SpecialToken": {
          "id": "<START>",
          "type_id": 0
        }
      },
      {
        "Sequence": {
          "id": "A",
          "type_id": 0
        }
      },
      {
        "SpecialToken": {
          "id": "<SEP>",
          "type_id": 0
        }
      },
      {
        "Sequence": {
          "id": "B",
          "type_id": 0
        }
      },
      {
        "SpecialToken": {
          "id": "<END>",
          "type_id": 0
        }
      }
    ],
    "special_tokens": {
      "<DEDENT>": {
        "id": "<DEDENT>",
        "ids": [
          4
        ],
        "tokens": [
          "<DEDENT>"
        ]
      },
      "<END>": {
        "id": "<END>",
        "ids": [
          1
        ],
        "tokens": [
          "<END>"
        ]
      },
      "<INDENT>": {
        "id": "<INDENT>",
        "ids": [
          3
        ],
        "tokens": [
          "<INDENT>"
        ]
      },
      "<SEP>": {
        "id": "<SEP>",
        "ids": [
          2
        ],
        "tokens": [
          "<SEP>"
        ]
      },
      "<START>": {
        "id": "<START>",
        "ids": [
          0
        ],
        "tokens": [
          "<START>"
        ]
      },
      "_": {
        "id": "_",
        "ids": [
          5
        ],
        "tokens": [
          "_"
        ]
      }
    }
  },
  "decoder": null,
  "model": {
    "type": "BPE",
    "dropout": null,
    "unk_token": "<unk>",
    "continuing_subword_prefix": null,
    "end_of_word_suffix": null,
    "fuse_unk": false,
    "byte_fallback": false,
    "ignore_merges": false,
    "vocab": {
      "<START>": 0,
      "<END>": 1,
      "<SEP>": 2,
      "<INDENT>": 3,
      "<DEDENT>": 4,
      "<unk>": 5,
      "<pad>": 6,
      "<mask>": 7,
      "_": 8,
      "!": 9,
      "\"": 10,
      "#": 11,
      "$": 12,
      "%": 13,
      "&": 14,
      "'": 15,
      "(": 16,
      ")": 17,
      "*": 18,
      "+": 19,
      ",": 20,
      "-": 21,
      ".": 22,
      "/": 23,
      "0": 24,
      "1": 25,
      "2": 26,
      "3": 27,
      "4": 28,
      "5": 29,
      "6": 30,
      "7": 31,
      "8": 32,
      "9": 33,
      ":": 34,
      ";": 35,
      "<": 36,
      "=": 37,
      ">": 38,
      "?": 39,
      "@": 40,
      "A": 41,
      "B": 42,
      "C": 43,
      "D": 44,
      "E": 45,
      "F": 46,
      "G": 47,
      "H": 48,
      "I": 49,
      "J": 50,
      "K": 51,
      "L": 52,
      "M": 53,
      "N": 54,
      "O": 55,
      "P": 56,
      "Q": 57,
      "R": 58,
      "S": 59,
      "T": 60,
      "U": 61,
      "V": 62,
      "W": 63,
      "X": 64,
      "Y": 65,
      "Z": 66,
      "[": 67,
      "\\": 68,
      "]": 69,
      "^": 70,
      "`": 71,
      "a": 72,
      "b": 73,
      "c": 74,
      "d": 75,
      "e": 76,
      "f": 77,
      "g": 78,
      "h": 79,
      "i": 80,
      "j": 81,
      "k": 82,
      "l": 83,
      "m": 84,
      "n": 85,
      "o": 86,
      "p": 87,
      "q": 88,
      "r": 89,
      "s": 90,
      "t": 91,
      "u": 92,
      "v": 93,
      "w": 94,
      "x": 95,
      "y": 96,
      "z": 97,
      "{": 98,
      "|": 99,
      "}": 100,
      "~": 101,
      "¡": 102,
      "¢": 103,
      "£": 104,
      "¤": 105,
      "¥": 106,
      "¦": 107,
      "§": 108,
      "¨": 109,
      "©": 110,
      "ª": 111,
      "«": 112,
      "¬": 113,
      "®": 114,
      "¯": 115,
      "°": 116,
      "±": 117,
      "²": 118,
      "³": 119,
      "´": 120,
      "µ": 121,
      "¶": 122,
      "·": 123,
      "¸": 124,
      "¹": 125,
      "º": 126,
      "»": 127,
      "¼": 128,
      "½": 129,
      "¾": 130,
      "¿": 131,
      "Â": 132,
      "Ã": 133,
      "Ä": 134,
      "Å": 135,
      "Æ": 136,
      "Ç": 137,
      "È": 138,
      "É": 139,
      "Ê": 140,
      "Ë": 141,
      "Î": 142,
      "Ï": 143,
      "Ð": 144,
      "Ñ": 145,
      "Ò": 146,
      "Ó": 147,
      "Ô": 148,
      "Õ": 149,
      "Ö": 150,
      "×": 151,
      "Ø": 152,
      "Ù": 153,
      "Ú": 154,
      "Û": 155,
      "à": 156,
      "á": 157,
      "â": 158,
      "ã": 159,
      "ä": 160,
      "å": 161,
      "æ": 162,
      "ç": 163,
      "è": 164,
      "é": 165,
      "ê": 166,
      "î": 167,
      "ï": 168,
      "ð": 169,
      "ā": 170,
      "Ă": 171,
      "ă": 172,
      "Ą": 173,
      "Ċ": 174,
      "č": 175,
      "Ē": 176,
      "ė": 177,
      "ě": 178,
      "ğ": 179,
      "Ġ": 180,
      "Ģ": 181,
      "ģ": 182,
      "Ĥ": 183,
      "ĥ": 184,
      "Ħ": 185,
      "ħ": 186,
      "Ĩ": 187,
      "ĩ": 188,
      "Ī": 189,
      "ī": 190,
      "Ĭ": 191,
      "ĭ": 192,
      "Į": 193,
      "į": 194,
      "İ": 195,
      "ı": 196,
      "Ĳ": 197,
      "ĳ": 198,
      "Ĵ": 199,
      "ĵ": 200,
      "Ķ": 201,
      "ķ": 202,
      "ĸ": 203,
      "Ĺ": 204,
      "ĺ": 205,
      "Ļ": 206,
      "ļ": 207,
      "Ľ": 208,
      "ľ": 209,
      "Ŀ": 210,
      "ŀ": 211,
      "Ł": 212,
      "ł": 213,
      "Ń": 214,
      "ĠĠ": 215,
      "ĠĠĠĠ": 216,
      "ĠĠĠ": 217,
      "ĠĠĠĠĠĠĠĠ": 218,
      "ĠĠĠĠĠĠĠ": 219,
      "in": 220,
      "se": 221,
      "re": 222,
      "ĊĠĠĠĠĠĠĠ": 223,
      "ĊĠĠĠĠĠĠĠĠ": 224,
      "on": 225,
      "at": 226,
      "Ġt": 227,
      "er": 228,
      "or": 229,
      "st": 230,
      "en": 231,
      "Ġa": 232,
      "ĊĠĠĠ": 233,
      "Ġ=": 234,
      "Ġi": 235,
      "de": 236,
      "he": 237,
      "ar": 238,
      "al": 239,
      "le": 240,
      "ĊĠĠĠĠĠĠĠĠĠĠĠ": 241,
      "me": 242,
      "Ġf": 243,
      "Ġc": 244,
      "\"\"": 245,
      "ion": 246,
      "Ġre": 247,
      "lf": 248,
      "self": 249,
      "Ġp": 250,
      "ur": 251,
      "it": 252,
      "Ġn": 253,
      "Ġin": 254,
      "an": 255,
      "ct": 256,
      "Ġthe": 257,
      "ce": 258,
      "Ġo": 259,
      "Ġs": 260,
      "ro": 261,
      "ge": 262,
      "Ġe": 263,
      "Ġif": 264,
      "ame": 265,
      "ut": 266,
      "ing": 267,
      "lo": 268,
      "Ġ'": 269,
      "ue": 270,
      "Ġd": 271,
      "Ġself": 272,
      "Ġb": 273,
      "ent": 274,
      "):": 275,
      "ĊĠĠĠĠĠĠĠĠĠĠĠĠĠĠĠĠ": 276,
      "pe": 277,
      "--": 278,
      "Ġde": 279,
      "urn": 280,
      "li": 281,
      "\"\"\"": 282,
      "turn": 283,
      "ate": 284,
      "Ġw": 285,
      "ĊĠĠĠĠĠĠĠĠĠĠĠĠĠĠĠ": 286,
      "fi": 287,
      "ot": 288,
      "ss": 289,
      "Ġm": 290,
      "un": 291,
      "Ġ\"\"\"": 292,
      "ra": 293,
      "Ġto": 294,
      "id": 295,
      "Ġ#": 296,
      "Ġfor": 297,
      "co": 298,
      "ĊĊĠĠĠĠĠĠĠ": 299,
      "mp": 300,
      "Ġis": 301,
      "ed": 302,
      "Ġreturn": 303,
      "ad": 304,
      "one": 305,
      "Ġdef": 306,
      "ul": 307,
      "la": 308,
      "val": 309,
      "Ġ(": 310,
      "Ġan": 311,
      "Ġ:": 312,
      "Ġof": 313,
      "ĊĊĠĠĠ": 314,
      "pt": 315,
      "ata": 316,
      "ch": 317,
      "Ġst": 318,
      "ri": 319,
      "ype": 320,
      "ke": 321,
      "is": 322,
      "um": 323,
      "get": 324,
      "()": 325,
      "name": 326,
      "None": 327,
      "il": 328,
      "ter": 329,
      "es": 330,
      "ĠT": 331,
      "ck": 332,
      "am": 333,
      "Ġ\"": 334,
      "di": 335,
      "ex": 336,
      "ation": 337,
      "ol": 338,
      "._": 339,
      "Ġnot": 340,
      "el": 341,
      "',": 342,
      "up": 343,
      "Ġse": 344,
      "par": 345,
      "th": 346,
      "ma": 347,
      "gs": 348,
      "ver": 349,
      "ath": 350,
      "value": 351,
      "Ġand": 352,
      "Ġcon": 353,
      "))": 354,
      "as": 355,
      "ult": 356,
      "Ġth": 357,
      "ction": 358,
      "['": 359,
      "']": 360,
      "ode": 361,
      "('": 362,
      "Ġex": 363,
      "con": 364,
      "----": 365,
      "ve": 366,
      "Ġl": 367,
      "Ġh": 368,
      "ror": 369,
      "key": 370,
      "ĊĠĠĠĠĠĠĠĠĠĠĠĠĠĠĠĠĠĠĠ": 371,
      "type": 372,
      "Ġbe": 373,
      "ble": 374,
      "ĊĠĠĠĠĠĠĠĠĠĠĠĠĠĠĠĠĠĠĠĠĠĠĠĠ": 375,
      "end": 376,
      "list": 377,
      "ser": 378,
      "ĠNone": 379,
      "ta": 380,
      "Ġfi": 381,
      "Ġg": 382,
      "orm": 383,
      "Ġ+": 384,
      "ime": 385,
      "int": 386,
      "Ġor": 387,
      "ect": 388,
      "pp": 389,
      "Ġu": 390,
      "ith": 391,
      "Ġco": 392,
      "bj": 393,
      "':": 394,
      "ĠA": 395,
      "param": 396,
      "Ġ1": 397,
      "od": 398,
      "')": 399,
      "sp": 400,
      "ig": 401,
      "ption": 402,
      "ext": 403,
      "and": 404,
      "to": 405,
      "Ġ[": 406,
      "Re": 407,
      "iz": 408,
      "Ġ*": 409,
      "Ġ_": 410,
      "ment": 411,
      "ĠI": 412,
      "qu": 413,
      "ort": 414,
      "Ġlo": 415,
      "Ġ-": 416,
      "te": 417,
      "set": 418,
      "age": 419,
      "path": 420,
      "Ġel": 421,
      "Ġ{": 422,
      "Ġdi": 423,
      "``": 424,
      "Ġelse": 425,
      "form": 426,
      "args": 427,
      "str": 428,
      "vi": 429,
      "Ġstr": 430,
      "rom": 431,
      "file": 432,
      "Ġr": 433,
      "Ġdata": 434,
      "Ġme": 435,
      "ly": 436,
      "Ġas": 437,
      "po": 438,
      "ĠS": 439,
      "ise": 440,
      "(\"": 441,
      "ance": 442,
      "data": 443,
      "Ġ0": 444,
      "et": 445,
      "nt": 446,
      "ĠC": 447,
      "Ġ%": 448,
      "Ġvalue": 449,
      "rue": 450,
      "rror": 451,
      "Ġ==": 452,
      "put": 453,
      "Error": 454,
      "ĠĠĠĠĠ": 455,
      "Ġname": 456,
      "res": 457,
      "Ġpro": 458,
      "Ġpar": 459,
      "ry": 460,
      "ine": 461,
      "Ġwith": 462,
      "ord": 463,
      "Ġar": 464,
      "able": 465,
      "que": 466,
      "ub": 467,
      "Ġal": 468,
      "ase": 469,
      "Ġra": 470,
      "ĠF": 471,
      "cal": 472,
      "ite": 473,
      "ĠP": 474,
      "Ġres": 475,
      "ist": 476,
      "ew": 477,
      "per": 478,
      "stance": 479,
      "che": 480,
      "Ġfile": 481,
      "bject": 482,
      "Ġma": 483,
      "us": 484,
      "ci": 485,
      "\",": 486,
      "Ġv": 487,
      "alse": 488,
      "out": 489,
      "ize": 490,
      ">>": 491,
      "),": 492,
      "ow": 493,
      "fig": 494,
      "ack": 495,
      "Ġlist": 496,
      "fo": 497,
      "Ġfrom": 498,
      "red": 499,
      "pro": 500,
      "att": 501,
      "ers": 502,
      "app": 503,
      "mple": 504,
      "art": 505,
      "ault": 506,
      "ĠThe": 507,
      "ĠĠĠĠĠĠĠĠĠĠĠĠĠĠĠĠ": 508,
      "Ġraise": 509,
      "kw": 510,
      "eld": 511,
      "our": 512,
      "time": 513,
      "ĠRe": 514,
      "format": 515,
      "ms": 516,
      "Ġon": 517,
      "quest": 518,
      "..": 519,
      "Ġkey": 520,
      "ure": 521,
      "Ġy": 522,
      "ĠD": 523,
      "ĠE": 524,
      "ht": 525,
      "date": 526,
      "kwargs": 527,
      "ĊĠĠĠĠĠĠĠĠĠĠĠĠĠĠĠĠĠĠĠĠĠĠĠ": 528,
      "\")": 529,
      "dex": 530,
      "ran": 531,
      "ic": 532,
      "lass": 533,
      "rent": 534,
      "])": 535,
      "all": 536,
      "Ġch": 537,
      "sion": 538,
      "ff": 539,
      "ray": 540,
      "sh": 541,
      "Ġthat": 542,
      "Ġwh": 543,
      "00": 544,
      "ource": 545,
      "ind": 546,
      "],": 547,
      "Ġx": 548,
      "Ġget": 549,
      "unt": 550,
      "Ġthis": 551,
      "code": 552,
      "Ġlen": 553,
      "Ġ2": 554,
      "Ġout": 555,
      "sed": 556,
      "ĊĠĠĠĠĠ": 557,
      "text": 558,
      "Ġlog": 559,
      "und": 560,
      "ill": 561,
      "Ġset": 562,
      "len": 563,
      "mm": 564,
      "iv": 565,
      "add": 566,
      "='": 567,
      "ĠN": 568,
      "cess": 569,
      "atch": 570,
      "pre": 571,
      "Ġ`": 572,
      "url": 573,
      "ust": 574,
      "error": 575,
      "append": 576,
      "Ġit": 577,
      "Ġpo": 578,
      "Ġpa": 579,
      "Ġexce": 580,
      "ity": 581,
      "Ġ``": 582,
      "ameter": 583,
      "thod": 584,
      "Ġsh": 585,
      "Ġby": 586,
      "im": 587,
      "odel": 588,
      "ctor": 589,
      "ger": 590,
      "reate": 591,
      "ip": 592,
      "dd": 593,
      "col": 594,
      "jo": 595,
      "pa": 596,
      "''": 597,
      "ile": 598,
      "ug": 599,
      "ition": 600,
      "oc": 601,
      "py": 602,
      "Ġare": 603,
      "Ġresult": 604,
      "ĊĊĠĠĠĠĠĠĠĠĠĠĠ": 605,
      "Ġen": 606,
      "low": 607,
      "mo": 608,
      "cl": 609,
      "ange": 610,
      "turns": 611,
      "__": 612,
      "lif": 613,
      "ive": 614,
      "sc": 615,
      "ument": 616,
      "ber": 617,
      "pi": 618,
      "ary": 619,
      "bo": 620,
      "unction": 621,
      "ces": 622,
      "ĠTrue": 623,
      "Ġobject": 624,
      "Ġtime": 625,
      ").": 626,
      "ĠM": 627,
      "Ġtype": 628,
      "instance": 629,
      "read": 630,
      "ute": 631,
      "Ġhe": 632,
      "spon": 633,
      "==": 634,
      "Ġelif": 635,
      "Ġnp": 636,
      "Ġcol": 637,
      "roup": 638,
      "Ġro": 639,
      "der": 640,
      "Ġtry": 641,
      "ĠV": 642,
      "ample": 643,
      "Ġnew": 644,
      "ĠIf": 645,
      "ssage": 646,
      "dict": 647,
      "ph": 648,
      "Ġwe": 649,
      "Ġla": 650,
      "ule": 651,
      "--------": 652,
      "Ġpre": 653,
      "om": 654,
      "Ġ**": 655,
      "rint": 656,
      "Ġexcept": 657,
      "Ġ<": 658,
      "rib": 659,
      "valid": 660,
      "Ġpath": 661,
      "ded": 662,
      "Ġwill": 663,
      "op": 664,
      "info": 665,
      "ign": 666,
      "log": 667,
      "ssion": 668,
      "peci": 669,
      "Ġstring": 670,
      "port": 671,
      "Ġnum": 672,
      "Ġun": 673,
      "ĊĠ": 674,
      "version": 675,
      "Ġ{}": 676,
      "True": 677,
      "dir": 678,
      "vent": 679,
      "Ġall": 680,
      "ĠR": 681,
      "ork": 682,
      "ator": 683,
      "ari": 684,
      "ĠL": 685,
      "Ġ)": 686,
      "Ġ>>": 687,
      "ĠO": 688,
      "Ġ'''": 689,
      "\":": 690,
      "attr": 691,
      "ĠFalse": 692,
      "class": 693,
      "sponse": 694,
      "bel": 695,
      "##": 696,
      "Ġint": 697,
      "ĠĠĠĠĠĠ": 698,
      "ca": 699,
      "tain": 700,
      "ery": 701,
      "Ġ>>>": 702,
      "ĠG": 703,
      "ĠU": 704,
      "ave": 705,
      "ild": 706,
      "Ġcont": 707,
      "size": 708,
      "fa": 709,
      "Ġdefault": 710,
      "ore": 711,
      "config": 712,
      "ys": 713,
      "update": 714,
      "fe": 715,
      "[\"": 716,
      "mb": 717,
      "ps": 718,
      "'.": 719,
      "False": 720,
      "load": 721,
      "lock": 722,
      "ated": 723,
      "cation": 724,
      "lement": 725,
      "min": 726,
      "ape": 727,
      "ĠReturns": 728,
      "Ġrequest": 729,
      "ken": 730,
      "ts": 731,
      "In": 732,
      "Ġisinstance": 733,
      "ameters": 734,
      "Ġk": 735,
      "pla": 736,
      "ren": 737,
      "alue": 738,
      "mage": 739,
      "vice": 740,
      "gument": 741,
      "ns": 742,
      "loat": 743,
      "ne": 744,
      "def": 745,
      "Ġoption": 746,
      "os": 747,
      ":`": 748,
      "Ġ>": 749,
      "string": 750,
      "ĠW": 751,
      "urrent": 752,
      "Ġfunction": 753,
      "Ġos": 754,
      "son": 755,
      "Ġid": 756,
      "Ġmethod": 757,
      "ost": 758,
      "ĊĠĠĠĠĠĠĠĠĠĠĠĠĠĠĠĠĠĠĠĠĠĠĠĠĠĠĠĠĠĠĠĠ": 759,
      "line": 760,
      "lit": 761,
      "heck": 762,
      "Ġdo": 763,
      "ial": 764,
      "rans": 765,
      "index": 766,
      "ener": 767,
      "query": 768,
      "Ġhas": 769,
      "Ġadd": 770,
      "Ġbo": 771,
      "čĊĠĠĠĠĠĠĠ": 772,
      "Ġuser": 773,
      "Ġspeci": 774,
      "Ġprint": 775,
      "start": 776,
      "join": 777,
      "\"]": 778,
      "Ġj": 779,
      "arget": 780,
      "array": 781,
      "ĠB": 782,
      "ies": 783,
      "Ġret": 784,
      "mmand": 785,
      "Ġ[]": 786,
      "uld": 787,
      "ĠTh": 788,
      "ste": 789,
      "tra": 790,
      "Ġ+=": 791,
      "():": 792,
      "Ġcan": 793,
      "rite": 794,
      "ER": 795,
      "count": 796,
      "back": 797,
      "ther": 798,
      "ĊĠĠĠĠĠĠĠĠĠĠĠĠĠĠĠĠĠĠĠĠĠĠĠĠĠĠĠĠĠĠĠĠĠĠĠĠĠĠĠĠ": 799,
      "Ġfil": 800,
      "ok": 801,
      "mat": 802,
      "Ġdict": 803,
      "Ġconfig": 804,
      "lient": 805,
      "uth": 806,
      "ag": 807,
      "Ġline": 808,
      "Ġuse": 809,
      "num": 810,
      ".__": 811,
      "Ġat": 812,
      "atus": 813,
      "Ġsub": 814,
      "Ġoutput": 815,
      "ir": 816,
      "iven": 817,
      "yn": 818,
      "Ġle": 819,
      "Ġ/": 820,
      "Ġcomp": 821,
      "return": 822,
      "Ġnode": 823,
      "word": 824,
      "ard": 825,
      "ifi": 826,
      "mport": 827,
      "ant": 828,
      "node": 829,
      "unc": 830,
      "Ġte": 831,
      "ight": 832,
      "ress": 833,
      "ON": 834,
      "ask": 835,
      "ty": 836,
      "base": 837,
      "ĠThis": 838,
      "ception": 839,
      "gth": 840,
      "Ġ\\": 841,
      "lin": 842,
      "ll": 843,
      "Con": 844,
      "Ġne": 845,
      "odule": 846,
      "].": 847,
      "Ġfield": 848,
      "ould": 849,
      "ĠEx": 850,
      "nd": 851,
      "max": 852,
      "not": 853,
      "Ġvalues": 854,
      "fix": 855,
      "**": 856,
      "ĊĠĠĠĠĠĠĠĠĠĠĠĠĠĠĠĠĠĠĠĠĠĠĠĠĠĠĠ": 857,
      "Ġ..": 858,
      "qui": 859,
      "ates": 860,
      "=\"": 861,
      "mpl": 862,
      "ĠH": 863,
      "ab": 864,
      "mit": 865,
      "own": 866,
      "Ġgiven": 867,
      "Ġ3": 868,
      "Ġapp": 869,
      "ec": 870,
      "bug": 871,
      "ĠValue": 872,
      "Ġerror": 873,
      "user": 874,
      "if": 875,
      "ting": 876,
      "by": 877,
      "\".": 878,
      "ĊĠĠĠĠĠĠĠĠĠ": 879,
      "rame": 880,
      ".\"\"\"": 881,
      "cord": 882,
      "ader": 883,
      "Ġno": 884,
      "lot": 885,
      "Ġstart": 886,
      "obj": 887,
      "Ġresponse": 888,
      "ml": 889,
      "ich": 890,
      "da": 891,
      "Ġite": 892,
      "field": 893,
      "ree": 894,
      "ump": 895,
      "Ġcall": 896,
      "lic": 897,
      "gra": 898,
      "IN": 899,
      "Ġmax": 900,
      "point": 901,
      "group": 902,
      "pos": 903,
      "Ġ!": 904,
      "vel": 905,
      "arch": 906,
      "ac": 907,
      "scri": 908,
      "work": 909,
      "Ġ|": 910,
      "wa": 911,
      "ĠValueError": 912,
      "Ġli": 913,
      "Ġso": 914,
      "uple": 915,
      "Ġspecifi": 916,
      "ude": 917,
      "ach": 918,
      "Ġargs": 919,
      "ning": 920,
      "Ġ!=": 921,
      "Ġkwargs": 922,
      "ĠIn": 923,
      "map": 924,
      "rst": 925,
      "split": 926,
      "AT": 927,
      "ls": 928,
      "([": 929,
      "ang": 930,
      "Ġac": 931,
      "act": 932,
      "attrib": 933,
      "ence": 934,
      "Ġinput": 935,
      "Ġnumber": 936,
      "Ġmodel": 937,
      "Ġcontain": 938,
      "vert": 939,
      "ariable": 940,
      "tt": 941,
      "Ġinstance": 942,
      "md": 943,
      "St": 944,
      "Ġwhich": 945,
      "sub": 946,
      "Ġmessage": 947,
      "default": 948,
      "Ġz": 949,
      "Ġcheck": 950,
      "uct": 951,
      "cur": 952,
      "Ġindex": 953,
      "we": 954,
      "Ex": 955,
      "result": 956,
      "sert": 957,
      "Ġused": 958,
      "Ġarray": 959,
      "ory": 960,
      "ST": 961,
      "model": 962,
      "{}": 963,
      "Ġser": 964,
      "params": 965,
      "Ġcurrent": 966,
      "ull": 967,
      "Ġcreate": 968,
      "comp": 969,
      "ound": 970,
      "values": 971,
      "ations": 972,
      "Ġend": 973,
      "RE": 974,
      "from": 975,
      "'s": 976,
      "Ġimport": 977,
      "state": 978,
      "Ġparam": 979,
      "ĠAr": 980,
      "ep": 981,
      "ses": 982,
      "Ġone": 983,
      "Ġpass": 984,
      "ron": 985,
      "request": 986,
      "ils": 987,
      "tern": 988,
      "iter": 989,
      "bu": 990,
      "tri": 991,
      "option": 992,
      "nel": 993,
      "Ġfa": 994,
      "spa": 995,
      "debug": 996,
      "its": 997,
      "place": 998,
      "ds": 999,
      "Ġ}": 1000,
      "Ġax": 1001,
      "())": 1002,
      "ĠPar": 1003,
      "Ġ--------": 1004,
      "Ġrange": 1005,
      "Ġfloat": 1006,
      "sing": 1007,
      "move": 1008,
      "cs": 1009,
      "ding": 1010,
      "ctory": 1011,
      "label": 1012,
      "ject": 1013,
      "ket": 1014,
      "[:": 1015,
      "Ġper": 1016,
      "pect": 1017,
      "Ġbase": 1018,
      "cont": 1019,
      "object": 1020,
      "row": 1021,
      "Ġmust": 1022,
      "write": 1023,
      "com": 1024,
      "ax": 1025,
      "shape": 1026,
      "Ġonly": 1027,
      "for": 1028,
      "pen": 1029,
      "ual": 1030,
      "'):": 1031,
      "ou": 1032,
      "Ġdire": 1033,
      "with": 1034,
      "====": 1035,
      "Ġca": 1036,
      "Ġshould": 1037,
      "Ġcal": 1038,
      "Ġargument": 1039,
      "ature": 1040,
      "Ġurl": 1041,
      "items": 1042,
      "Ġcode": 1043,
      "umn": 1044,
      "sent": 1045,
      "Ġsu": 1046,
      "Ġent": 1047,
      "Ġversion": 1048,
      "bs": 1049,
      "og": 1050,
      "inter": 1051,
      "Ġrun": 1052,
      "Ġhave": 1053,
      "ef": 1054,
      "Ġdis": 1055,
      "Ġbu": 1056,
      "01": 1057,
      "Ġreg": 1058,
      "'t": 1059,
      "Ġtext": 1060,
      "alt": 1061,
      "led": 1062,
      "ak": 1063,
      "ension": 1064,
      "ream": 1065,
      "ical": 1066,
      "ote": 1067,
      "Ġvalid": 1068,
      "json": 1069,
      "run": 1070,
      "Type": 1071,
      "Ġmin": 1072,
      "reg": 1073,
      "np": 1074,
      "Ġquery": 1075,
      "Ġinter": 1076,
      "nection": 1077,
      "Ġstate": 1078,
      "keys": 1079,
      "space": 1080,
      "Ġevent": 1081,
      "tes": 1082,
      "Ġexist": 1083,
      "inal": 1084,
      "Ġeach": 1085,
      "Ġsup": 1086,
      "gn": 1087,
      "####": 1088,
      "'],": 1089,
      "Ġitem": 1090,
      "df": 1091,
      "action": 1092,
      "adata": 1093,
      "Ġread": 1094,
      "call": 1095,
      "Ġ@": 1096,
      "Ġrow": 1097,
      "Ġlogger": 1098,
      "Ġtarget": 1099,
      "Ġany": 1100,
      "lat": 1101,
      "pts": 1102,
      "Ġmat": 1103,
      "arg": 1104,
      "lay": 1105,
      "Ġmatch": 1106,
      "feren": 1107,
      "mplate": 1108,
      "Ġpy": 1109,
      "][": 1110,
      "Ke": 1111,
      "Ġsource": 1112,
      "ield": 1113,
      "Ġformat": 1114,
      "ref": 1115,
      "thon": 1116,
      "ename": 1117,
      "func": 1118,
      "//": 1119,
      "ID": 1120,
      "Ġimage": 1121,
      "ments": 1122,
      "LE": 1123,
      "Ġlin": 1124,
      "::": 1125,
      "names": 1126,
      "idth": 1127,
      "Ġup": 1128,
      "lename": 1129,
      "output": 1130,
      "ler": 1131,
      "ix": 1132,
      "Ġspecified": 1133,
      "Ġother": 1134,
      "aders": 1135,
      "ens": 1136,
      "Name": 1137,
      "sum": 1138,
      "((": 1139,
      "OR": 1140,
      "ents": 1141,
      "clude": 1142,
      "ution": 1143,
      "Ġgroup": 1144,
      "ft": 1145,
      "Ġclass": 1146,
      "itle": 1147,
      "table": 1148,
      "andle": 1149,
      "so": 1150,
      "ME": 1151,
      "message": 1152,
      "Ġoptional": 1153,
      "be": 1154,
      "Ġparams": 1155,
      "fil": 1156,
      "lect": 1157,
      "filename": 1158,
      "lable": 1159,
      "block": 1160,
      "here": 1161,
      "main": 1162,
      "ĠParameters": 1163,
      "ĠArgs": 1164,
      "Ġ4": 1165,
      "Ġelement": 1166,
      "Ġfirst": 1167,
      "token": 1168,
      "Ġdate": 1169,
      "status": 1170,
      "Ġtrans": 1171,
      "parse": 1172,
      "annel": 1173,
      "new": 1174,
      "ap": 1175,
      "Ġcommand": 1176,
      "rid": 1177,
      "lob": 1178,
      "stri": 1179,
      "etwork": 1180,
      "Ġbool": 1181,
      "ched": 1182,
      "Ġwhen": 1183,
      "tadata": 1184,
      "Ġover": 1185,
      "uration": 1186,
      "view": 1187,
      "yste": 1188,
      "Key": 1189,
      "Ġ----------": 1190,
      "'])": 1191,
      "ide": 1192,
      "://": 1193,
      "item": 1194,
      "input": 1195,
      "Ġupdate": 1196,
      "Ġ{'": 1197,
      "method": 1198,
      "utes": 1199,
      "sk": 1200,
      "Ġinto": 1201,
      "orre": 1202,
      "av": 1203,
      "Data": 1204,
      "Ġsize": 1205,
      "lection": 1206,
      "Ġtuple": 1207,
      "Ġfiles": 1208,
      "check": 1209,
      "Ġtra": 1210,
      "Ġtable": 1211,
      "ctionary": 1212,
      "Ġcontin": 1213,
      "Ġlabel": 1214,
      "lib": 1215,
      "Ġpos": 1216,
      "sg": 1217,
      "ĠCon": 1218,
      "source": 1219,
      "Ġattrib": 1220,
      "rig": 1221,
      "api": 1222,
      "ĊĊĠĠĠĠĠĠĠĠĠĠĠĠĠĠĠ": 1223,
      "amples": 1224,
      "čĊĠĠĠĠĠĠĠĠĠĠĠ": 1225,
      "DE": 1226,
      "ong": 1227,
      "arning": 1228,
      "rix": 1229,
      "ries": 1230,
      "lete": 1231,
      "use": 1232,
      "Ġfilename": 1233,
      "ins": 1234,
      "rc": 1235,
      "ash": 1236,
      "scription": 1237,
      "().": 1238,
      "types": 1239,
      "nect": 1240,
      "face": 1241,
      "create": 1242,
      "Ġfound": 1243,
      "ĠX": 1244,
      "old": 1245,
      "Ġpoint": 1246,
      "mi": 1247,
      "ody": 1248,
      "Ġgener": 1249,
      "filter": 1250,
      "var": 1251,
      "Ġtoken": 1252,
      "pec": 1253,
      "Ġsp": 1254,
      "no": 1255,
      "Ġvariable": 1256,
      "lean": 1257,
      "ume": 1258,
      "host": 1259,
      "ous": 1260,
      "clo": 1261,
      "amp": 1262,
      "umpy": 1263,
      "ors": 1264,
      "off": 1265,
      "oth": 1266,
      "Ġcontinue": 1267,
      "tings": 1268,
      "itial": 1269,
      "Co": 1270,
      "Ġdoc": 1271,
      "ark": 1272,
      "do": 1273,
      "umns": 1274,
      "ures": 1275,
      "doc": 1276,
      "ackage": 1277,
      "Ġ----": 1278,
      "process": 1279,
      "ystem": 1280,
      "cre": 1281,
      "(),": 1282,
      "resh": 1283,
      "ference": 1284,
      "response": 1285,
      "Ġpl": 1286,
      "AR": 1287,
      "Ġext": 1288,
      "Ġ__": 1289,
      "ids": 1290,
      "ai": 1291,
      "Ġopen": 1292,
      "Id": 1293,
      "cy": 1294,
      "ging": 1295,
      "AL": 1296,
      "Ġobj": 1297,
      "event": 1298,
      "ay": 1299,
      "module": 1300,
      "Ġ->": 1301,
      "unk": 1302,
      "Pro": 1303,
      "ain": 1304,
      "PI": 1305,
      "files": 1306,
      "---": 1307,
      "SE": 1308,
      "raw": 1309,
      "Ġusing": 1310,
      "Ġdoes": 1311,
      "Ġbut": 1312,
      "AN": 1313,
      "quence": 1314,
      "mt": 1315,
      "Ġthen": 1316,
      "client": 1317,
      "andler": 1318,
      "Par": 1319,
      "ormal": 1320,
      ")))": 1321,
      "dis": 1322,
      "Ġass": 1323,
      "job": 1324,
      "Ġ...": 1325,
      "10": 1326,
      "msg": 1327,
      "db": 1328,
      "Ġmo": 1329,
      "quired": 1330,
      "pop": 1331,
      "Ġwork": 1332,
      "length": 1333,
      "image": 1334,
      "Ġfilter": 1335,
      "Ġpart": 1336,
      "Ġcontext": 1337,
      "Ġmodule": 1338,
      "htt": 1339,
      "Ġiter": 1340,
      "core": 1341,
      "ast": 1342,
      "Ġmsg": 1343,
      "ible": 1344,
      "float": 1345,
      "ized": 1346,
      "ĊĠĠĠĠ": 1347,
      "ĊĠĠĠĠĠĠĠĠĠĠĠĠĠĠĠĠĠĠĠĠĠĠĠĠĠĠĠĠĠĠĠ": 1348,
      "ped": 1349,
      "Ġdefin": 1350,
      "ho": 1351,
      "lp": 1352,
      "Ġresults": 1353,
      "pping": 1354,
      "Ġsign": 1355,
      "Ġta": 1356,
      "ĊĠĠĠĠĠĠĠĠĠĠ": 1357,
      "auth": 1358,
      "]:": 1359,
      "chema": 1360,
      "err": 1361,
      "otal": 1362,
      "cent": 1363,
      "target": 1364,
      "Ġgra": 1365,
      "idx": 1366,
      "ĠJ": 1367,
      "Ġdictionary": 1368,
      "Ġfe": 1369,
      "Ġparent": 1370,
      "ches": 1371,
      "ats": 1372,
      "match": 1373,
      "dire": 1374,
      "cls": 1375,
      "Ġassert": 1376,
      "utils": 1377,
      "trans": 1378,
      "rtype": 1379,
      "cul": 1380,
      "Ġver": 1381,
      "iled": 1382,
      "Ġ['": 1383,
      "Ġ--": 1384,
      "context": 1385,
      "`.": 1386,
      "plot": 1387,
      "link": 1388,
      "Ġaction": 1389,
      "pl": 1390,
      "Ġclient": 1391,
      "rial": 1392,
      "Ġlength": 1393,
      "Ġresource": 1394,
      "Ġsort": 1395,
      "mpty": 1396,
      "pr": 1397,
      "Ġblock": 1398,
      "Ġoptions": 1399,
      "indow": 1400,
      "andom": 1401,
      "Ġyou": 1402,
      "Ġwhile": 1403,
      "Ġjson": 1404,
      "are": 1405,
      "Res": 1406,
      "cale": 1407,
      "Ġmake": 1408,
      "Ġcount": 1409,
      "tag": 1410,
      "command": 1411,
      "tx": 1412,
      "ync": 1413,
      "level": 1414,
      "pri": 1415,
      "Ġcontent": 1416,
      "ld": 1417,
      "fore": 1418,
      "Get": 1419,
      "of": 1420,
      "reak": 1421,
      "Se": 1422,
      "ĠSe": 1423,
      "Ġauth": 1424,
      "ud": 1425,
      "Ġ.": 1426,
      "io": 1427,
      "Ġcls": 1428,
      "Ġhost": 1429,
      "Ġcur": 1430,
      "TE": 1431,
      "ved": 1432,
      "find": 1433,
      "Ġreturns": 1434,
      "entifi": 1435,
      "content": 1436,
      "ted": 1437,
      "Ġparameters": 1438,
      "Ġoff": 1439,
      "Ġwas": 1440,
      "ating": 1441,
      "options": 1442,
      "Ġorder": 1443,
      "Ġarguments": 1444,
      "Ġrecord": 1445,
      "Ġpri": 1446,
      "range": 1447,
      "Ġval": 1448,
      "Ġparameter": 1449,
      "ccess": 1450,
      "mbda": 1451,
      "Ġprovi": 1452,
      "Ġcorre": 1453,
      "Ġsc": 1454,
      "Ġlast": 1455,
      "Ġav": 1456,
      "cond": 1457,
      "Ġuni": 1458,
      "Ġprocess": 1459,
      "ĠY": 1460,
      ")]": 1461,
      "Ġ5": 1462,
      "sign": 1463,
      "present": 1464,
      "Ġform": 1465,
      "pend": 1466,
      "ick": 1467,
      "ĠQ": 1468,
      "ify": 1469,
      "Ġqu": 1470,
      "File": 1471,
      "xy": 1472,
      "ĠException": 1473,
      "Ġ('": 1474,
      "fter": 1475,
      "Ġyield": 1476,
      "TI": 1477,
      "igh": 1478,
      "Ġextra": 1479,
      "session": 1480,
      "Ġchange": 1481,
      "Ġindi": 1482,
      "Ġserver": 1483,
      "root": 1484,
      "Ġreturned": 1485,
      "[-": 1486,
      "ĊĠĠĠĠĠĠĠĠĠĠĠĠĠ": 1487,
      "formation": 1488,
      "queue": 1489,
      "Ġact": 1490,
      "ready": 1491,
      "Ġad": 1492,
      "right": 1493,
      "Ġsame": 1494,
      "Set": 1495,
      "Ġproper": 1496,
      "rt": 1497,
      "Ġoper": 1498,
      "coding": 1499,
      "Ġneed": 1500,
      "play": 1501,
      "Ġback": 1502,
      "part": 1503,
      "swith": 1504,
      "Ġcolumn": 1505,
      "Ġ-------": 1506,
      "'))": 1507,
      "64": 1508,
      "imum": 1509,
      "čĊĠĠĠ": 1510,
      "replace": 1511,
      "Ġfol": 1512,
      "temp": 1513,
      "viron": 1514,
      "iss": 1515,
      "Ġparser": 1516,
      "Ġstatus": 1517,
      "ĠCo": 1518,
      "Ġdirectory": 1519,
      "lines": 1520,
      "man": 1521,
      "Ġnames": 1522,
      "Ġhtt": 1523,
      "Ġchar": 1524,
      "strip": 1525,
      "rit": 1526,
      "cate": 1527,
      "Ġq": 1528,
      "Ġed": 1529,
      "Ġmult": 1530,
      "Ġarg": 1531,
      "PE": 1532,
      "Ġmode": 1533,
      "efault": 1534,
      "Ġsys": 1535,
      "number": 1536,
      "ner": 1537,
      "stamp": 1538,
      "Ġcase": 1539,
      "mode": 1540,
      "List": 1541,
      "Ġdiff": 1542,
      "cket": 1543,
      "ĊĠĠĠĠĠĠĠĠĠĠĠĠ": 1544,
      "su": 1545,
      "ome": 1546,
      "Ġwhere": 1547,
      "width": 1548,
      "change": 1549,
      "32": 1550,
      "dim": 1551,
      "prefix": 1552,
      "frame": 1553,
      "ĠID": 1554,
      "copy": 1555,
      "store": 1556,
      "color": 1557,
      "Ġtask": 1558,
      "De": 1559,
      "ĊĊĠ": 1560,
      "comm": 1561,
      "Ġkeys": 1562,
      "Ġload": 1563,
      "itions": 1564,
      "Un": 1565,
      "ĠSt": 1566,
      ")):": 1567,
      "Ar": 1568,
      "current": 1569,
      "order": 1570,
      "ĠAn": 1571,
      "RL": 1572,
      "cmd": 1573,
      "ert": 1574,
      "lower": 1575,
      "ose": 1576,
      "'),": 1577,
      "parent": 1578,
      "12": 1579,
      "wise": 1580,
      "Ġport": 1581,
      "cache": 1582,
      "ĠGet": 1583,
      "})": 1584,
      "Ġtag": 1585,
      "Ġbreak": 1586,
      "req": 1587,
      "ative": 1588,
      "Ġfind": 1589,
      "ĠReturn": 1590,
      "vid": 1591,
      "Ġshape": 1592,
      "Ġtimeout": 1593,
      "lobal": 1594,
      "AC": 1595,
      "TP": 1596,
      "Ġsession": 1597,
      "ization": 1598,
      "Ġnumpy": 1599,
      "Ġnext": 1600,
      "'].": 1601,
      "last": 1602,
      "ailable": 1603,
      "resource": 1604,
      "Ġheader": 1605,
      "ingle": 1606,
      "uri": 1607,
      "attern": 1608,
      "Ġaxis": 1609,
      "Element": 1610,
      "address": 1611,
      "Ġallow": 1612,
      "yle": 1613,
      "(*": 1614,
      "loc": 1615,
      "limit": 1616,
      "lease": 1617,
      "Ġparse": 1618,
      "function": 1619,
      "ib": 1620,
      "vis": 1621,
      "']:": 1622,
      "ĠType": 1623,
      "Ġpage": 1624,
      "ties": 1625,
      "Ġmore": 1626,
      "header": 1627,
      "fields": 1628,
      "Ġdel": 1629,
      "Ġchild": 1630,
      "},": 1631,
      "Ġlocal": 1632,
      "ises": 1633,
      "gen": 1634,
      "env": 1635,
      "Ġcolor": 1636,
      "To": 1637,
      "Ġalready": 1638,
      "ell": 1639,
      "EN": 1640,
      "ĊĠĠĠĠĠĠĠĠĊĠĠĠĠĠĠĠ": 1641,
      "DO": 1642,
      "Ġrepresent": 1643,
      "du": 1644,
      "Ġsalt": 1645,
      "lication": 1646,
      "ĠFor": 1647,
      "Ġservice": 1648,
      "Ġorig": 1649,
      "axis": 1650,
      "Ġthan": 1651,
      "http": 1652,
      "Ġfla": 1653,
      "ols": 1654,
      "server": 1655,
      "...": 1656,
      "vector": 1657,
      "Ġroot": 1658,
      "Ġobjects": 1659,
      "ster": 1660,
      "uto": 1661,
      "Ġ'.": 1662,
      "Ġsupport": 1663,
      "search": 1664,
      "mary": 1665,
      "Ġag": 1666,
      "Ġmay": 1667,
      "conds": 1668,
      "ring": 1669,
      "net": 1670,
      "Ġpas": 1671,
      "Ġplot": 1672,
      "exist": 1673,
      "Ġinte": 1674,
      "Ġdf": 1675,
      "argument": 1676,
      "Ġthere": 1677,
      "Ġexception": 1678,
      "element": 1679,
      "uid": 1680,
      "top": 1681,
      "title": 1682,
      "Exception": 1683,
      "child": 1684,
      "ans": 1685,
      "FI": 1686,
      "ffer": 1687,
      "print": 1688,
      "Ġsingle": 1689,
      "struct": 1690,
      "offset": 1691,
      "ĊĠĠĠĠĠĠ": 1692,
      "Me": 1693,
      "Ġref": 1694,
      "LO": 1695,
      "like": 1696,
      "mplement": 1697,
      "cor": 1698,
      "Ġcallback": 1699,
      "ister": 1700,
      "Ġfields": 1701,
      "Ġinfo": 1702,
      "Ġlimit": 1703,
      "Ġentry": 1704,
      "zer": 1705,
      "Ġcmd": 1706,
      "entifier": 1707,
      "Ġheaders": 1708,
      "ternal": 1709,
      "pass": 1710,
      "ustom": 1711,
      "Ġtw": 1712,
      "stra": 1713,
      "Ġlay": 1714,
      "ential": 1715,
      "graph": 1716,
      "Ġman": 1717,
      "Ġdtype": 1718,
      "SI": 1719,
      "open": 1720,
      "ret": 1721,
      "Ġprovided": 1722,
      "yload": 1723,
      "mail": 1724,
      "mission": 1725,
      "Value": 1726,
      "Ġhelp": 1727,
      "]]": 1728,
      "fy": 1729,
      "contain": 1730,
      "Di": 1731,
      "atures": 1732,
      "Ġattribute": 1733,
      "Ġtest": 1734,
      "Ġlogging": 1735,
      "ĠSet": 1736,
      "mote": 1737,
      "ymb": 1738,
      "Ġ'%": 1739,
      "Ġexec": 1740,
      "pected": 1741,
      "ĠKey": 1742,
      "RO": 1743,
      "Ġbet": 1744,
      "Ġtemplate": 1745,
      "pth": 1746,
      "Ġoffset": 1747,
      "wait": 1748,
      "hether": 1749,
      "========": 1750,
      "Ġenum": 1751,
      "page": 1752,
      "Ġinformation": 1753,
      "Ġsearch": 1754,
      "ager": 1755,
      "les": 1756,
      "Ġdest": 1757,
      "stream": 1758,
      "LI": 1759,
      "Ġlevel": 1760,
      "(_": 1761,
      "ĠDefault": 1762,
      "task": 1763,
      "Ġnon": 1764,
      "script": 1765,
      "']['": 1766,
      "exception": 1767,
      "exec": 1768,
      "Ġ>=": 1769,
      "Ġinclude": 1770,
      "Ġpassed": 1771,
      "ql": 1772,
      "Ġconnection": 1773,
      "({": 1774,
      "########": 1775,
      "Frame": 1776,
      "record": 1777,
      "GE": 1778,
      "Ġhasattr": 1779,
      "Ġtemp": 1780,
      "gener": 1781,
      "Ġproject": 1782,
      "Ġtf": 1783,
      "ency": 1784,
      "local": 1785,
      "ĊĠĠĠĠĠĠĠĠĠĠĠĠĠĠĠĠĠ": 1786,
      "Ġattr": 1787,
      "ML": 1788,
      "erge": 1789,
      "Ġsome": 1790,
      "cli": 1791,
      "flow": 1792,
      "`,": 1793,
      "ween": 1794,
      "Ġfunc": 1795,
      "close": 1796,
      "cept": 1797,
      "round": 1798,
      "Ġab": 1799,
      "ĠData": 1800,
      "Ġprefix": 1801,
      "Ġlines": 1802,
      "uni": 1803,
      "Ġdim": 1804,
      "Ġbytes": 1805,
      "Ġstream": 1806,
      "ont": 1807,
      "Return": 1808,
      "ĊĠĠĠĠĠĠĠĠĠĠĠĠĠĠĠĠĠĠĠĠĠĠĠĠĠĠĠĠĠĠĠĠĠĠĠĠĠĠĠĠĠĠĠĠĠĠĠĠ": 1809,
      "las": 1810,
      "pon": 1811,
      "000": 1812,
      "Ġcontaining": 1813,
      "mask": 1814,
      "ĠAdd": 1815,
      "gor": 1816,
      "Ġmetadata": 1817,
      "callback": 1818,
      "Ser": 1819,
      "gment": 1820,
      "hash": 1821,
      "Ġ<=": 1822,
      "test": 1823,
      "ice": 1824,
      "CO": 1825,
      "``.": 1826,
      "Ġcoord": 1827,
      "Ġinst": 1828,
      "Ġits": 1829,
      "Ġvi": 1830,
      "html": 1831,
      "Ġ\"\"": 1832,
      "send": 1833,
      "Ġremove": 1834,
      "uster": 1835,
      "Ġcache": 1836,
      "nown": 1837,
      "Ġaddress": 1838,
      "mag": 1839,
      "ĊĠĠĠĠĠĠĠĠĠĠĠĠĠĠĠĠĠĠĠĠĠ": 1840,
      "metadata": 1841,
      "remove": 1842,
      "SS": 1843,
      "ities": 1844,
      "returns": 1845,
      "Ġmatrix": 1846,
      "term": 1847,
      "Ġmap": 1848,
      "ility": 1849,
      "cope": 1850,
      "ass": 1851,
      "connect": 1852,
      "ĠCreate": 1853,
      "[:,": 1854,
      "Ġjob": 1855,
      "Ġsum": 1856,
      "box": 1857,
      "bytes": 1858,
      "Ġafter": 1859,
      "Ġign": 1860,
      "section": 1861,
      "Ġdist": 1862,
      "erate": 1863,
      "Ġlocation": 1864,
      "----------------": 1865,
      "gram": 1866,
      "lation": 1867,
      "init": 1868,
      "ĠDe": 1869,
      "ugh": 1870,
      "sor": 1871,
      "Ġcopy": 1872,
      "char": 1873,
      "Ġ&": 1874,
      "Ġwrite": 1875,
      "Ġconvert": 1876,
      "encode": 1877,
      "mon": 1878,
      "project": 1879,
      "datetime": 1880,
      "std": 1881,
      "channel": 1882,
      "Ġinitial": 1883,
      "go": 1884,
      "bose": 1885,
      "ĠWe": 1886,
      "Ġitems": 1887,
      ".')": 1888,
      "cat": 1889,
      "Ġrequired": 1890,
      "Ġdatetime": 1891,
      "headers": 1892,
      "tree": 1893,
      "olume": 1894,
      "location": 1895,
      "Ġcomm": 1896,
      "}'.": 1897,
      "]))": 1898,
      "ensions": 1899,
      "UT": 1900,
      "pper": 1901,
      "Ġbefore": 1902,
      "ocket": 1903,
      "points": 1904,
      "Ġcl": 1905,
      "Ġph": 1906,
      "Ġweight": 1907,
      "Ġ6": 1908,
      "qual": 1909,
      "sort": 1910,
      "del": 1911,
      "Ġpackage": 1912,
      "orage": 1913,
      "fn": 1914,
      "Ġbody": 1915,
      "Ġcomple": 1916,
      "Ġdataset": 1917,
      "bin": 1918,
      "ear": 1919,
      "service": 1920,
      "Ġthread": 1921,
      "Ġerrors": 1922,
      "Ġstruct": 1923,
      "template": 1924,
      "ĊĠĠĠĠĠĠĠĠĠĠĠĠĠĠĠĠĠĠ": 1925,
      "TTP": 1926,
      ".\")": 1927,
      "ĊĠĠĠĠĠĠĠĠĠĠĠĠĠĠĠĠĠĠĠĠ": 1928,
      "parser": 1929,
      "ensor": 1930,
      "startswith": 1931,
      "post": 1932,
      "Time": 1933,
      "Ġlink": 1934,
      "ither": 1935,
      "ĠTypeError": 1936,
      "idget": 1937,
      "exp": 1938,
      "Ġdevice": 1939,
      "itional": 1940,
      "Ġconfiguration": 1941,
      "Ġsample": 1942,
      "rap": 1943,
      "Ġbetween": 1944,
      "ownload": 1945,
      "Ġgetattr": 1946,
      "Ġfollow": 1947,
      "Ġclo": 1948,
      "ful": 1949,
      "25": 1950,
      "bro": 1951,
      "Ġavailable": 1952,
      "ĠPy": 1953,
      "Ġtop": 1954,
      "util": 1955,
      "ĊĠĠĠĠĊĠĠĠ": 1956,
      "licy": 1957,
      "RI": 1958,
      "verse": 1959,
      "UL": 1960,
      "ĊĠĠĠĠĠĠĠĠĠĠĠĠĠĠĠĠĠĠĠĠĠĠĠĠĠĠĠĠĠĠĠĠĠĠĠ": 1961,
      "fla": 1962,
      "ake": 1963,
      "ges": 1964,
      "Ġgraph": 1965,
      "Ġsequence": 1966,
      "variable": 1967,
      "Ġter": 1968,
      "Ġword": 1969,
      "={": 1970,
      "Ġchannel": 1971,
      "wer": 1972,
      "ĠList": 1973,
      "build": 1974,
      "the": 1975,
      "logger": 1976,
      "Ġcom": 1977,
      "\"):": 1978,
      "99": 1979,
      "handle": 1980,
      "dist": 1981,
      "Ġdb": 1982,
      "Ġframe": 1983,
      "nodes": 1984,
      "čĊ": 1985,
      "Ġmem": 1986,
      "Ġnetwork": 1987,
      "onent": 1988,
      "Ġsend": 1989,
      "ĠPro": 1990,
      "rs": 1991,
      "Ġnormal": 1992,
      "cry": 1993,
      ".,": 1994,
      "Ġexp": 1995,
      "opts": 1996,
      "spec": 1997,
      "ification": 1998,
      "Sub": 1999,
      "timeout": 2000,
      "ĠAPI": 2001,
      "ttrib": 2002,
      "ĊĠĠĠĠĠĠĠĠĠĠĠĠĠĠĠĠĠĠĠĠĠĠĠĠĠĠĠĠ": 2003,
      "ored": 2004,
      "pol": 2005,
      "Ġcolumns": 2006,
      "Ġ10": 2007,
      "exists": 2008,
      "ĊĠĠĠĠĠĠĠĠĠĠĠĠĠĠ": 2009,
      "bar": 2010,
      "only": 2011,
      "bool": 2012,
      "ank": 2013,
      "ym": 2014,
      "Ġapi": 2015,
      "Ġold": 2016,
      "ward": 2017,
      "ux": 2018,
      "ĠK": 2019,
      "MA": 2020,
      "Ġenumerate": 2021,
      "abled": 2022,
      "si": 2023,
      "Ġfull": 2024,
      "ĊĠĠĠĠĠĠĠĠĠĠĠĠĠĠĠĠĠĠĠĠĠĠĠĠĠ": 2025,
      "lear": 2026,
      "Ġdocument": 2027,
      "mod": 2028,
      "Ġali": 2029,
      "Ġtwo": 2030,
      "my": 2031,
      "stack": 2032,
      "itor": 2033,
      "SON": 2034,
      "NA": 2035,
      "settings": 2036,
      "Ġempty": 2037,
      "tric": 2038,
      "Ġvar": 2039,
      "ination": 2040,
      "izer": 2041,
      "bit": 2042,
      "ĠUn": 2043,
      "Ġlook": 2044,
      "let": 2045,
      "dtype": 2046,
      "Ġnamespace": 2047,
      "AD": 2048,
      "est": 2049,
      "16": 2050,
      "Ġgen": 2051,
      "container": 2052,
      "pha": 2053,
      "ular": 2054,
      ":]": 2055,
      "difi": 2056,
      "fer": 2057,
      "Ġsorted": 2058,
      "Ġ]": 2059,
      "mem": 2060,
      "side": 2061,
      "Ch": 2062,
      "lper": 2063,
      "fl": 2064,
      "connection": 2065,
      "delete": 2066,
      "proper": 2067,
      "Ġ8": 2068,
      "column": 2069,
      "Ġcalled": 2070,
      "TY": 2071,
      "Ġpassword": 2072,
      "ptional": 2073,
      "Ġtitle": 2074,
      "Ġnodes": 2075,
      "ĊĠĠĠĠĠĠĠĠĠĠĠĠĠĠĠĠĠĠĠĠĠĠ": 2076,
      "weight": 2077,
      "]['": 2078,
      "pub": 2079,
      "xml": 2080,
      "Ġtotal": 2081,
      "utf": 2082,
      "Add": 2083,
      "Ġhandle": 2084,
      "ions": 2085,
      "Ġbuild": 2086,
      "Ġbeen": 2087,
      "ING": 2088,
      "very": 2089,
      "Ġalso": 2090,
      "ĠTO": 2091,
      "pression": 2092,
      "warning": 2093,
      "ĠCheck": 2094,
      "pk": 2095,
      "gr": 2096,
      "tuple": 2097,
      "peri": 2098,
      "now": 2099,
      "Ġcreated": 2100,
      "ics": 2101,
      "cf": 2102,
      "Ġ''": 2103,
      "Ġsk": 2104,
      "serial": 2105,
      "entry": 2106,
      "itude": 2107,
      "body": 2108,
      "Ġraw": 2109,
      "Ġerr": 2110,
      "čĊĠĠĠĠĠĠĠĠĠĠĠĠĠĠĠ": 2111,
      "ĊĠĠĠĠĠĠĠĠĠĠĠĠĠĠĠĠĠĠĠĠĠĠĠĠĠĠĠĠĠĠĠĠĠĠĠĠĠĠĠĠĠĠĠĠĠĠĠĠĠĠĠĠĠĠĠĠ": 2112,
      "olean": 2113,
      "ait": 2114,
      "etch": 2115,
      "network": 2116,
      "iple": 2117,
      "The": 2118,
      "vals": 2119,
      "vices": 2120,
      "istr": 2121,
      "Ġbin": 2122,
      "entity": 2123,
      "vironment": 2124,
      "riter": 2125,
      "comment": 2126,
      "org": 2127,
      "Ġchunk": 2128,
      "over": 2129,
      "meta": 2130,
      "Ġexists": 2131,
      "columns": 2132,
      "uage": 2133,
      "(**": 2134,
      "Fa": 2135,
      "11": 2136,
      "anguage": 2137,
      "coord": 2138,
      "rop": 2139,
      "seq": 2140,
      "ĠNot": 2141,
      "other": 2142,
      "ugin": 2143,
      "lasses": 2144,
      "Ġcalcul": 2145,
      "-+": 2146,
      "results": 2147,
      "Ġreference": 2148,
      "lambda": 2149,
      "ĊĠĠĠĠĠĠĠĠĠĠĠĠĠĠĠĠĠĠĠĠĠĠĠĠĠĠĠĠĠ": 2150,
      "issing": 2151,
      "cho": 2152,
      "decode": 2153,
      "Ġlike": 2154,
      "0000": 2155,
      "Ġdiffe": 2156,
      "Ġpoints": 2157,
      "ĠRa": 2158,
      "Ġsee": 2159,
      "sample": 2160,
      "ĠET": 2161,
      "sup": 2162,
      "Ġsettings": 2163,
      "Ġbound": 2164,
      "quire": 2165,
      "save": 2166,
      "=[": 2167,
      "Ġdescription": 2168,
      "conf": 2169,
      "Ġfinal": 2170,
      "tails": 2171,
      ")[": 2172,
      "Lo": 2173,
      "pack": 2174,
      "mark": 2175,
      "irs": 2176,
      "speci": 2177,
      "ants": 2178,
      "lice": 2179,
      "Ġsave": 2180,
      "older": 2181,
      "Ġmask": 2182,
      "medi": 2183,
      "next": 2184,
      "ymbol": 2185,
      "derr": 2186,
      "Not": 2187,
      "gest": 2188,
      "ĊĠĠĠĠĠĠĠĠĠĠĠĠĠĠĠĠĠĠĠĠĠĠĠĠĠĠ": 2189,
      "grid": 2190,
      "parameters": 2191,
      "roll": 2192,
      "step": 2193,
      "labels": 2194,
      "olution": 2195,
      "extra": 2196,
      "CE": 2197,
      "batch": 2198,
      "ĠSee": 2199,
      "pace": 2200,
      "description": 2201,
      "ttribute": 2202,
      "full": 2203,
      "ob": 2204,
      "Ġshow": 2205,
      "Ġgo": 2206,
      "tocol": 2207,
      "ride": 2208,
      "Ġdatabase": 2209,
      "ĠURL": 2210,
      "Ġpi": 2211,
      "dered": 2212,
      "gex": 2213,
      "Ġkeyword": 2214,
      "layer": 2215,
      "Ġop": 2216,
      "Ġattributes": 2217,
      "Ġlat": 2218,
      "Ġsuccess": 2219,
      "\\\\": 2220,
      "Ġsection": 2221,
      "ush": 2222,
      "Col": 2223,
      "Ġtypes": 2224,
      "hed": 2225,
      "alog": 2226,
      "Ġexample": 2227,
      "paths": 2228,
      "ript": 2229,
      "Ġstep": 2230,
      "ng": 2231,
      "UN": 2232,
      "Ġhash": 2233,
      "rol": 2234,
      "cp": 2235,
      "arn": 2236,
      "Ġenv": 2237,
      "Ġwidth": 2238,
      "Ġcharact": 2239,
      "ponse": 2240,
      "vious": 2241,
      "ĠExample": 2242,
      "Ġposition": 2243,
      "pdate": 2244,
      "'][": 2245,
      "CH": 2246,
      "ined": 2247,
      "Ġbased": 2248,
      "comple": 2249,
      "PO": 2250,
      "Ġdefined": 2251,
      "clu": 2252,
      "``,": 2253,
      "indi": 2254,
      "').": 2255,
      "mean": 2256,
      "den": 2257,
      "cade": 2258,
      "Ġlib": 2259,
      "Ġpub": 2260,
      "Ġencoding": 2261,
      "left": 2262,
      "Ġtree": 2263,
      "Ġthem": 2264,
      "has": 2265,
      "Ġpython": 2266,
      "__['": 2267,
      "Ġim": 2268,
      "oper": 2269,
      "alys": 2270,
      "matrix": 2271,
      "Ġsplit": 2272,
      "Ġrequests": 2273,
      "Ġstop": 2274,
      "extend": 2275,
      "Ġselect": 2276,
      "Ġrandom": 2277,
      "Ġcli": 2278,
      "umber": 2279,
      "Ġwhether": 2280,
      "stat": 2281,
      "annot": 2282,
      "Ġaccess": 2283,
      "try": 2284,
      "mult": 2285,
      "objects": 2286,
      "ves": 2287,
      "Ġ'/": 2288,
      "Ġdepend": 2289,
      "ĠIt": 2290,
      "addr": 2291,
      "Ġidx": 2292,
      "Ġhttp": 2293,
      "salt": 2294,
      "aded": 2295,
      "style": 2296,
      "diff": 2297,
      "Ġob": 2298,
      "Ġcollection": 2299,
      "pc": 2300,
      "keep": 2301,
      "ĠNote": 2302,
      "package": 2303,
      "ĠTODO": 2304,
      "Ġjust": 2305,
      "Ġlabels": 2306,
      "MP": 2307,
      "Config": 2308,
      ":`~": 2309,
      "Ġfeature": 2310,
      "device": 2311,
      "unter": 2312,
      "Ġ'-": 2313,
      "dump": 2314,
      "Object": 2315,
      "Ġview": 2316,
      "oci": 2317,
      "FA": 2318,
      "ATE": 2319,
      "Ġlayer": 2320,
      "orig": 2321,
      "Ġreplace": 2322,
      "Ġdelete": 2323,
      "DI": 2324,
      "password": 2325,
      "Ġeither": 2326,
      "bound": 2327,
      "Ġwant": 2328,
      "Ġind": 2329,
      "Ġstd": 2330,
      "ffix": 2331,
      "alid": 2332,
      "vate": 2333,
      "Ġschema": 2334,
      "schema": 2335,
      "Ġcontainer": 2336,
      "Ġexisting": 2337,
      "Create": 2338,
      "rapper": 2339,
      "Ġ\"%": 2340,
      "Ġvector": 2341,
      "Ġelements": 2342,
      "Ġbatch": 2343,
      "inst": 2344,
      "stead": 2345,
      "ĠKeyError": 2346,
      "entic": 2347,
      "ĠRun": 2348,
      "No": 2349,
      "Ġforce": 2350,
      "LA": 2351,
      "Ġopt": 2352,
      "rm": 2353,
      "gress": 2354,
      "Ġrule": 2355,
      "thing": 2356,
      "Ġsa": 2357,
      ".\"": 2358,
      "ww": 2359,
      "ssible": 2360,
      "Ġpost": 2361,
      "zone": 2362,
      "na": 2363,
      "profile": 2364,
      "ince": 2365,
      "gin": 2366,
      "cies": 2367,
      "20": 2368,
      "Dict": 2369,
      "valu": 2370,
      "Ġinteger": 2371,
      "Ġaccount": 2372,
      "Ġcorrespon": 2373,
      "src": 2374,
      "Ġconnect": 2375,
      "Ġvari": 2376,
      "Ġstrings": 2377,
      "','": 2378,
      "Ġ'{": 2379,
      "Path": 2380,
      "Ġotherwise": 2381,
      "Ġprofile": 2382,
      "Ġright": 2383,
      ")),": 2384,
      "olve": 2385,
      "Ġmark": 2386,
      "ranch": 2387,
      "exc": 2388,
      "first": 2389,
      "Ġtmp": 2390,
      "Ġsuper": 2391,
      "ribution": 2392,
      "stop": 2393,
      "posit": 2394,
      "rary": 2395,
      "Ġasync": 2396,
      "groups": 2397,
      "ĠJSON": 2398,
      "med": 2399,
      "rough": 2400,
      "Ġoriginal": 2401,
      "sa": 2402,
      "Ġsystem": 2403,
      "Ġpayload": 2404,
      "CT": 2405,
      "crypt": 2406,
      "active": 2407,
      "ily": 2408,
      "ĠName": 2409,
      "brocade": 2410,
      "requ": 2411,
      "handler": 2412,
      "FF": 2413,
      "delta": 2414,
      "cause": 2415,
      "tr": 2416,
      "]):": 2417,
      "domain": 2418,
      "reshold": 2419,
      "duct": 2420,
      "rule": 2421,
      "Class": 2422,
      "Request": 2423,
      "vari": 2424,
      "Ġexc": 2425,
      "ĠDi": 2426,
      "Ġzip": 2427,
      "rate": 2428,
      "wh": 2429,
      "Ġhere": 2430,
      "tags": 2431,
      "dataset": 2432,
      "stats": 2433,
      "math": 2434,
      "access": 2435,
      "ĠRes": 2436,
      "random": 2437,
      "system": 2438,
      "fs": 2439,
      "helper": 2440,
      "igma": 2441,
      "Invalid": 2442,
      "show": 2443,
      "alysis": 2444,
      "zip": 2445,
      "En": 2446,
      "ven": 2447,
      "raph": 2448,
      "Ġhandler": 2449,
      "ĠHTTP": 2450,
      "Ġoperation": 2451,
      "ias": 2452,
      "-+-+": 2453,
      "Ġvariables": 2454,
      "Ġcoordin": 2455,
      "opt": 2456,
      "Ġsi": 2457,
      "ten": 2458,
      "Ġglobal": 2459,
      "Ġdesc": 2460,
      "samples": 2461,
      "ived": 2462,
      "gory": 2463,
      "Ġthey": 2464,
      "zeros": 2465,
      "sys": 2466,
      "Ġcontains": 2467,
      "direct": 2468,
      "=(": 2469,
      "ĠRaises": 2470,
      "Ġmeta": 2471,
      "true": 2472,
      "Ġfl": 2473,
      "lied": 2474,
      "rows": 2475,
      "}\".": 2476,
      "Ġinstead": 2477,
      "ason": 2478,
      "eded": 2479,
      "Ġqueue": 2480,
      "Ġrows": 2481,
      "Ġcustom": 2482,
      "ĠLO": 2483,
      "atter": 2484,
      "Th": 2485,
      "TION": 2486,
      "ĠMe": 2487,
      "ings": 2488,
      "Ġcond": 2489,
      "rec": 2490,
      "ctions": 2491,
      "TYPE": 2492,
      "ton": 2493,
      "Ġpla": 2494,
      "Ġnow": 2495,
      "Ġlambda": 2496,
      "tmp": 2497,
      "redential": 2498,
      "rel": 2499,
      "shot": 2500,
      "ply": 2501,
      "Ġstat": 2502,
      "ĊĠĠĠĠĠĠĠĠĠĠĠĠĠĠĠĠĠĠĠĠĠĠĠĠĠĠĠĠĠĠ": 2503,
      "Po": 2504,
      "nder": 2505,
      "Ġwait": 2506,
      "unit": 2507,
      "mal": 2508,
      "ero": 2509,
      "dev": 2510,
      "Ġregion": 2511,
      "ransp": 2512,
      "OT": 2513,
      "Ġge": 2514,
      "Ġfig": 2515,
      "ators": 2516,
      "Ġmapping": 2517,
      "Ġfollowing": 2518,
      "verage": 2519,
      "Cont": 2520,
      "directory": 2521,
      "mplemented": 2522,
      "cell": 2523,
      "Ġ'_": 2524,
      "ndarray": 2525,
      "Ġdon": 2526,
      "Ġmissing": 2527,
      "onents": 2528,
      "ie": 2529,
      "Ġtags": 2530,
      "txt": 2531,
      "Ġwindow": 2532,
      "Ġignore": 2533,
      "Ġfailed": 2534,
      "ĠLo": 2535,
      "Ġopts": 2536,
      "Ġunicode": 2537,
      "Ġleft": 2538,
      "ices": 2539,
      "CON": 2540,
      "Ġhttps": 2541,
      "ĠPython": 2542,
      "ĠOptional": 2543,
      "nap": 2544,
      "Ġplt": 2545,
      "wd": 2546,
      "optional": 2547,
      "Ġsent": 2548,
      "Ġdistance": 2549,
      "total": 2550,
      "ink": 2551,
      "rip": 2552,
      "Ġip": 2553,
      "Ġ'\\": 2554,
      "Ġdir": 2555,
      "Ġ[\"": 2556,
      "tect": 2557,
      "Ġmultiple": 2558,
      "abs": 2559,
      "ware": 2560,
      "IT": 2561,
      "Ġseconds": 2562,
      "Ġunique": 2563,
      "Ġdirect": 2564,
      "Node": 2565,
      "Ġremo": 2566,
      "\"],": 2567,
      "az": 2568,
      "Ġus": 2569,
      "ĠTo": 2570,
      "day": 2571,
      "04": 2572,
      "String": 2573,
      "Ġsix": 2574,
      "Ġpattern": 2575,
      "height": 2576,
      "username": 2577,
      "fra": 2578,
      "book": 2579,
      "NAME": 2580,
      "SubElement": 2581,
      "ker": 2582,
      "Log": 2583,
      "vo": 2584,
      "gy": 2585,
      "Ġ(\"": 2586,
      "Ġsupported": 2587,
      "sv": 2588,
      "Ġremote": 2589,
      "Ġunit": 2590,
      "hell": 2591,
      "Ġdifferent": 2592,
      "select": 2593,
      "Ġsrc": 2594,
      "Ġmean": 2595,
      "ffect": 2596,
      "buffer": 2597,
      "Form": 2598,
      "Ġpd": 2599,
      "her": 2600,
      "ET": 2601,
      "dest": 2602,
      "Ġ',": 2603,
      "Ġproperties": 2604,
      "itch": 2605,
      "Ġusername": 2606,
      "ULT": 2607,
      "Ġfail": 2608,
      "andard": 2609,
      "Ite": 2610,
      "EL": 2611,
      "normal": 2612,
      "Ġpk": 2613,
      "ĠWh": 2614,
      "Ġ7": 2615,
      "02": 2616,
      "Ġserial": 2617,
      "gorith": 2618,
      "ek": 2619,
      "Ġadded": 2620,
      "ered": 2621,
      "Ġloop": 2622,
      "Ġverbose": 2623,
      "aml": 2624,
      "'''": 2625,
      "lative": 2626,
      "timestamp": 2627,
      "namespace": 2628,
      "Ġabs": 2629,
      "interface": 2630,
      "alled": 2631,
      "Ġparsed": 2632,
      "Returns": 2633,
      "make": 2634,
      "position": 2635,
      "cret": 2636,
      "Ġpresent": 2637,
      "Ġ{\"": 2638,
      "eve": 2639,
      "Ġspecify": 2640,
      "Index": 2641,
      "Ġskip": 2642,
      "hist": 2643,
      "Ġpol": 2644,
      "dot": 2645,
      "termin": 2646,
      "ites": 2647,
      "Ġund": 2648,
      "Ġsignal": 2649,
      "ced": 2650,
      "Ġpe": 2651,
      "tach": 2652,
      "account": 2653,
      "down": 2654,
      "stim": 2655,
      "NT": 2656,
      "Ġawait": 2657,
      "Ġsecond": 2658,
      "Ġrece": 2659,
      "uture": 2660,
      "áĦ": 2661,
      "áħ": 2662,
      "Ġprevious": 2663,
      "Ġgenerate": 2664,
      "Ġassoci": 2665,
      "indices": 2666,
      "python": 2667,
      "Ġwarning": 2668,
      "Ġ{}\".": 2669,
      "ĊĊĠĠĠĠĠĠĠĠĠĠĠĠĠĠĠĠĠĠĠ": 2670,
      "fici": 2671,
      "Ġmy": 2672,
      "chron": 2673,
      "andas": 2674,
      "can": 2675,
      "Ġbecause": 2676,
      "asure": 2677,
      "Ġlong": 2678,
      "Ġreport": 2679,
      "Check": 2680,
      "curs": 2681,
      "SC": 2682,
      "mount": 2683,
      "straint": 2684,
      "Ġ\".": 2685,
      "Ġrel": 2686,
      "Ġproperty": 2687,
      "Ġstore": 2688,
      "ually": 2689,
      "Ġinvalid": 2690,
      "15": 2691,
      "\"])": 2692,
      "ĠUse": 2693,
      "way": 2694,
      "24": 2695,
      "Ġcons": 2696,
      "istry": 2697,
      "Ġmain": 2698,
      "Ġsim": 2699,
      "Ġdisplay": 2700,
      "scale": 2701,
      "models": 2702,
      "ĠComp": 2703,
      "const": 2704,
      "known": 2705,
      "Ġtake": 2706,
      "Ġedge": 2707,
      "Ġresp": 2708,
      "Ġflag": 2709,
      "Ġexpected": 2710,
      "Ġwithin": 2711,
      "plo": 2712,
      "ĠLOG": 2713,
      "Response": 2714,
      "exit": 2715,
      "Ġconn": 2716,
      "errors": 2717,
      "chunk": 2718,
      "Ġextract": 2719,
      "Qu": 2720,
      "Ġnote": 2721,
      "ences": 2722,
      "ighb": 2723,
      "Comp": 2724,
      "serv": 2725,
      "ways": 2726,
      "Ġiss": 2727,
      "Ġthrough": 2728,
      "Ġheight": 2729,
      "State": 2730,
      "'}": 2731,
      "Ġdomain": 2732,
      "pository": 2733,
      "gre": 2734,
      "Ġtheir": 2735,
      "stdout": 2736,
      "Ġpossible": 2737,
      "ĠGener": 2738,
      "cc": 2739,
      "stru": 2740,
      "ynchron": 2741,
      "chain": 2742,
      "Ġregister": 2743,
      "Ġbyte": 2744,
      "pattern": 2745,
      "Ġinterface": 2746,
      "rest": 2747,
      "Ġtimestamp": 2748,
      "Ġsamples": 2749,
      "au": 2750,
      "Ġsepar": 2751,
      "Ġappro": 2752,
      "Ġmaximum": 2753,
      "ured": 2754,
      "raise": 2755,
      "ian": 2756,
      "sq": 2757,
      "river": 2758,
      "Ġidentifier": 2759,
      "cut": 2760,
      "ared": 2761,
      "Array": 2762,
      "Ġdisable": 2763,
      "Ġcent": 2764,
      "proxy": 2765,
      "cker": 2766,
      "ely": 2767,
      "Ġtrain": 2768,
      "Ġtrue": 2769,
      "import": 2770,
      "fit": 2771,
      "ithub": 2772,
      "Ġxml": 2773,
      "</": 2774,
      "ift": 2775,
      "window": 2776,
      "depth": 2777,
      "attrs": 2778,
      "ier": 2779,
      "vider": 2780,
      "Ġmerge": 2781,
      "ANG": 2782,
      "Ġindices": 2783,
      "ater": 2784,
      "Ġmon": 2785,
      "Ġvis": 2786,
      "calar": 2787,
      "execute": 2788,
      "Ġcorrect": 2789,
      "sl": 2790,
      "FAULT": 2791,
      "gorithm": 2792,
      "]),": 2793,
      "ĊĠĠĠĠĠĠĠĠĠĠĠĠĠĠĠĠĠĠĠĠĠĠĠĠĠĠĠĠĠĠĠĠĠ": 2794,
      "methods": 2795,
      "numpy": 2796,
      "ĊĠĠĠĠĠĠĠĠĠĠĠĠĠĠĠĠĠĠĠĠĠĠĠĠĠĠĠĠĠĠĠĠĠĠĠĠĠĠĠ": 2797,
      "Ġmod": 2798,
      "ĠSer": 2799,
      "sets": 2800,
      "Text": 2801,
      "angle": 2802,
      "Ġsuch": 2803,
      "Ġspec": 2804,
      "oto": 2805,
      "Ġstack": 2806,
      "Ġbeing": 2807,
      "Ġgrid": 2808,
      "Ġspecific": 2809,
      "ically": 2810,
      "cast": 2811,
      "ĠAttribute": 2812,
      "Ġscale": 2813,
      "tract": 2814,
      "train": 2815,
      "Ġdecor": 2816,
      "upper": 2817,
      "andid": 2818,
      "Ġmatches": 2819,
      "mbed": 2820,
      "uted": 2821,
      "čĊčĊĠĠĠĠĠĠĠ": 2822,
      "ĠIP": 2823,
      "properties": 2824,
      "sequence": 2825,
      "AB": 2826,
      "Ġwithout": 2827,
      "Ġyour": 2828,
      "Ġpaths": 2829,
      "Ġtransform": 2830,
      "cores": 2831,
      "site": 2832,
      "Ġ9": 2833,
      "desc": 2834,
      "Ġendpoint": 2835,
      "Ġ):": 2836,
      "Ġkeep": 2837,
      "Ġboth": 2838,
      "Ġsite": 2839,
      "thread": 2840,
      "raises": 2841,
      "factor": 2842,
      "Ġassign": 2843,
      "ĠOn": 2844,
      "encies": 2845,
      "napshot": 2846,
      "bl": 2847,
      "git": 2848,
      "non": 2849,
      "DB": 2850,
      "Ġcell": 2851,
      "Ġevery": 2852,
      "Ġctx": 2853,
      "50": 2854,
      "conn": 2855,
      "Ġdebug": 2856,
      "ä¸": 2857,
      "Item": 2858,
      "manager": 2859,
      "80": 2860,
      "repo": 2861,
      "Ġboolean": 2862,
      "Event": 2863,
      "Ġenvironment": 2864,
      "until": 2865,
      "actions": 2866,
      "latform": 2867,
      "men": 2868,
      "Ġfit": 2869,
      "empty": 2870,
      "ĠĊĠĠĠĠĠĠĠ": 2871,
      "Ġcorresponding": 2872,
      "dified": 2873,
      "Ġthese": 2874,
      "Ġhist": 2875,
      "/{": 2876,
      "Ġinit": 2877,
      "bab": 2878,
      "case": 2879,
      "US": 2880,
      "coder": 2881,
      "features": 2882,
      "lector": 2883,
      "poch": 2884,
      "global": 2885,
      "Sh": 2886,
      "lap": 2887,
      "Found": 2888,
      "Ġabout": 2889,
      "vars": 2890,
      "late": 2891,
      "IO": 2892,
      "oid": 2893,
      "lem": 2894,
      "cle": 2895,
      "coded": 2896,
      "Ġreal": 2897,
      "KE": 2898,
      "feature": 2899,
      "TR": 2900,
      "head": 2901,
      "reference": 2902,
      "ia": 2903,
      "any": 2904,
      ".'": 2905,
      "inis": 2906,
      "uplic": 2907,
      "33": 2908,
      "lab": 2909,
      "Ġrunning": 2910,
      "meth": 2911,
      "ĊĊĠĠĠĠĠ": 2912,
      "tax": 2913,
      "mbers": 2914,
      "initial": 2915,
      "Ġretri": 2916,
      "ross": 2917,
      "Ġpop": 2918,
      "Info": 2919,
      "required": 2920,
      "Ġsure": 2921,
      "just": 2922,
      "region": 2923,
      "An": 2924,
      "loop": 2925,
      "Ġclean": 2926,
      "seconds": 2927,
      "ended": 2928,
      "('\\": 2929,
      "Ġindic": 2930,
      "ĊĠĠĠĠĠĠĠĠĠĠĠĠĠĠĠĠĠĠĠĠĠĠĠĠĠĠĠĠĠĠĠĠĠĠ": 2931,
      "tf": 2932,
      "arr": 2933,
      "Ġexpression": 2934,
      "Ġapply": 2935,
      "cer": 2936,
      "Ġstyle": 2937,
      "Ġ'--": 2938,
      "Model": 2939,
      "Ġzero": 2940,
      "Ġreq": 2941,
      "Ġfix": 2942,
      "classes": 2943,
      "vision": 2944,
      "Ġ'*": 2945,
      "Ġrest": 2946,
      "Ġstructure": 2947,
      "requency": 2948,
      "https": 2949,
      "Ġvert": 2950,
      "Ġconf": 2951,
      "ĠSh": 2952,
      "redentials": 2953,
      "edge": 2954,
      "Failed": 2955,
      "Ġcomponent": 2956,
      "stderr": 2957,
      "esc": 2958,
      "Ġweights": 2959,
      "mapping": 2960,
      "gine": 2961,
      "board": 2962,
      "Ġcho": 2963,
      "ground": 2964,
      "Ġdoesn": 2965,
      "TER": 2966,
      "cloud": 2967,
      "Ġwrit": 2968,
      "ire": 2969,
      "Ġcannot": 2970,
      "tc": 2971,
      "ogle": 2972,
      "lan": 2973,
      "transform": 2974,
      "Ġaut": 2975,
      "Ġ201": 2976,
      "_,": 2977,
      "alle": 2978,
      "Ġcluster": 2979,
      "gments": 2980,
      "Ġcate": 2981,
      "Ġmatching": 2982,
      "ynchronous": 2983,
      "encoding": 2984,
      "ws": 2985,
      "SO": 2986,
      "Ġunder": 2987,
      "55": 2988,
      "Ġdefaults": 2989,
      "score": 2990,
      "less": 2991,
      "Ġinclu": 2992,
      "_{": 2993,
      "greg": 2994,
      "patch": 2995,
      "termine": 2996,
      "Ġspace": 2997,
      "ilter": 2998,
      "insert": 2999,
      "andl": 3000,
      "Client": 3001,
      "19": 3002,
      "folder": 3003,
      "Ġdelta": 3004,
      "Ġ{}'.": 3005,
      "Ġscope": 3006,
      "lig": 3007,
      "Ġvolume": 3008,
      "Message": 3009,
      "cheme": 3010,
      "ported": 3011,
      "common": 3012,
      "User": 3013,
      ":%": 3014,
      "Ġseries": 3015,
      "Ġbit": 3016,
      "trics": 3017,
      "okup": 3018,
      "201": 3019,
      "[:-": 3020,
      "Ġfn": 3021,
      "ĊĠĠĠĠĠĠĠĠĠĠĠĠĠĠĠĠĠĠĠĠĠĠĠĠĠĠĠĠĠĠĠĠĠĠĠĠ": 3022,
      "idden": 3023,
      "bers": 3024,
      "uild": 3025,
      "alcul": 3026,
      "tail": 3027,
      "__,": 3028,
      "Ġcould": 3029,
      "added": 3030,
      "collection": 3031,
      "Read": 3032,
      "Ġmessages": 3033,
      "attributes": 3034,
      "ivity": 3035,
      "EX": 3036,
      "ority": 3037,
      "year": 3038,
      "Ġtimes": 3039,
      "Ġ100": 3040,
      "14": 3041,
      "DataFrame": 3042,
      "Ġnd": 3043,
      "DF": 3044,
      "af": 3045,
      "Ġhow": 3046,
      "Ġvalidate": 3047,
      "used": 3048,
      "eps": 3049,
      "validate": 3050,
      "ĠZ": 3051,
      "lim": 3052,
      "ik": 3053,
      "Ġsince": 3054,
      "itive": 3055,
      "VER": 3056,
      "lish": 3057,
      "Ġmemory": 3058,
      "30": 3059,
      "Ġconst": 3060,
      "tom": 3061,
      "Ġang": 3062,
      "Ġtr": 3063,
      "By": 3064,
      "ertifi": 3065,
      "vers": 3066,
      "ives": 3067,
      "children": 3068,
      "GER": 3069,
      "Ġstats": 3070,
      "aries": 3071,
      "Ġagain": 3072,
      "atio": 3073,
      "tered": 3074,
      "pid": 3075,
      "Ġparts": 3076,
      "Ġcallable": 3077,
      "scope": 3078,
      "Ġ'{}": 3079,
      "ulation": 3080,
      "norm": 3081,
      "Ġ12": 3082,
      "licit": 3083,
      "izes": 3084,
      "100": 3085,
      "=%": 3086,
      "Ġallowed": 3087,
      "words": 3088,
      "ient": 3089,
      "warn": 3090,
      "Result": 3091,
      "Ġscript": 3092,
      "vec": 3093,
      "Ġevents": 3094,
      "parts": 3095,
      "center": 3096,
      "dius": 3097,
      "Ġpipe": 3098,
      "Ġchanges": 3099,
      "sure": 3100,
      "Parser": 3101,
      "ĠAttributeError": 3102,
      "nan": 3103,
      "ness": 3104,
      "SH": 3105,
      "################": 3106,
      "email": 3107,
      "}.": 3108,
      "SP": 3109,
      "Ġassociated": 3110,
      "where": 3111,
      "Ġcompute": 3112,
      "depend": 3113,
      "Ġseq": 3114,
      "TO": 3115,
      "Instance": 3116,
      "NO": 3117,
      "ctx": 3118,
      "Ġlon": 3119,
      "Ġalpha": 3120,
      "Field": 3121,
      "adding": 3122,
      "Ġhigh": 3123,
      "vm": 3124,
      "dt": 3125,
      "ending": 3126,
      "units": 3127,
      "Ġtokens": 3128,
      "*(": 3129,
      "lon": 3130,
      "series": 3131,
      "ha": 3132,
      "\"))": 3133,
      "('/": 3134,
      "Ġdone": 3135,
      "ĠExamples": 3136,
      "card": 3137,
      "cols": 3138,
      "ferences": 3139,
      "ision": 3140,
      "Ġow": 3141,
      "Ġfunctions": 3142,
      "Ġda": 3143,
      "Ġestim": 3144,
      "bits": 3145,
      "Ġsocket": 3146,
      "tools": 3147,
      "Ġdepth": 3148,
      "Ġlower": 3149,
      "Ġwould": 3150,
      "ED": 3151,
      "payload": 3152,
      "leg": 3153,
      "ox": 3154,
      "hex": 3155,
      "identifier": 3156,
      "IP": 3157,
      "Ġutils": 3158,
      "leep": 3159,
      "Ġroute": 3160,
      "cfg": 3161,
      "Ġflags": 3162,
      "AP": 3163,
      "uuid": 3164,
      "interval": 3165,
      "leted": 3166,
      "Ġapplication": 3167,
      "ĠRuntime": 3168,
      "docs": 3169,
      "Ġentity": 3170,
      "csv": 3171,
      "olute": 3172,
      "ynam": 3173,
      "ometry": 3174,
      "Ġfeatures": 3175,
      "Ġnet": 3176,
      "ĠWhen": 3177,
      "Ġcursor": 3178,
      "MO": 3179,
      "Ġour": 3180,
      "ensity": 3181,
      "Ġcomment": 3182,
      "policy": 3183,
      "Ġequal": 3184,
      "iod": 3185,
      "ĠCLI": 3186,
      "dr": 3187,
      "()):": 3188,
      "Ġfactor": 3189,
      "Ġrelative": 3190,
      "omat": 3191,
      "Ġyang": 3192,
      "eno": 3193,
      "Ġneeded": 3194,
      "auto": 3195,
      "Or": 3196,
      "Ġimp": 3197,
      "Ġemail": 3198,
      "atten": 3199,
      "Ġdownload": 3200,
      "Ġdt": 3201,
      "Ġproxy": 3202,
      "Ġfra": 3203,
      "}\\": 3204,
      "report": 3205,
      "Ġiterable": 3206,
      "Ġbest": 3207,
      "rf": 3208,
      "}{": 3209,
      "Ġclose": 3210,
      "Ġalign": 3211,
      "Ġcontents": 3212,
      "als": 3213,
      "exceptions": 3214,
      "Ġtri": 3215,
      "Run": 3216,
      "Ġtx": 3217,
      "GET": 3218,
      "Ġwhat": 3219,
      "aly": 3220,
      "Ġaccept": 3221,
      "URL": 3222,
      "Ġpix": 3223,
      "Ġevalu": 3224,
      "Ġvia": 3225,
      "\"),": 3226,
      "ĠNo": 3227,
      "Ġbinary": 3228,
      "(-": 3229,
      "ĠFile": 3230,
      "Ġoc": 3231,
      "UR": 3232,
      "endswith": 3233,
      "Ġcoordinates": 3234,
      "Ġdetails": 3235,
      "QU": 3236,
      "pac": 3237,
      "fast": 3238,
      "press": 3239,
      "cessed": 3240,
      ">`": 3241,
      "commit": 3242,
      "Ġ((": 3243,
      "Ġcre": 3244,
      "Group": 3245,
      "els": 3246,
      "dumps": 3247,
      "tick": 3248,
      "Ġassume": 3249,
      "witch": 3250,
      "variables": 3251,
      "ze": 3252,
      "Ġauthor": 3253,
      "Ġannot": 3254,
      "ration": 3255,
      "}'": 3256,
      "curity": 3257,
      "Ġentries": 3258,
      "unique": 3259,
      "align": 3260,
      "ged": 3261,
      "Ġremoved": 3262,
      "attribute": 3263,
      "AM": 3264,
      "ving": 3265,
      "Ġinstances": 3266,
      "Ġadditional": 3267,
      "Ġinputs": 3268,
      "changes": 3269,
      "Session": 3270,
      "BU": 3271,
      "Ġmethods": 3272,
      "ilder": 3273,
      "Ġsegment": 3274,
      "olver": 3275,
      "cb": 3276,
      "ends": 3277,
      "Ġ},": 3278,
      "Ġupdated": 3279,
      "Ġstorage": 3280,
      "Ġ\"{": 3281,
      "Ġgroups": 3282,
      "App": 3283,
      "metric": 3284,
      "trace": 3285,
      "prec": 3286,
      "('%": 3287,
      "****": 3288,
      "Argument": 3289,
      "convert": 3290,
      "long": 3291,
      "Ġmath": 3292,
      "register": 3293,
      "ES": 3294,
      "aved": 3295,
      "Ġarch": 3296,
      "Ġdimension": 3297,
      "spe": 3298,
      "pare": 3299,
      "Out": 3300,
      "serialize": 3301,
      "sid": 3302,
      "Ġplugin": 3303,
      "Ġindent": 3304,
      "Ġrepo": 3305,
      "ATI": 3306,
      "'](": 3307,
      "chine": 3308,
      "================": 3309,
      "ersion": 3310,
      "pix": 3311,
      "Ġsignature": 3312,
      "distance": 3313,
      "mpt": 3314,
      "tokens": 3315,
      "Auth": 3316,
      "hes": 3317,
      "Ġalways": 3318,
      "ĠDo": 3319,
      "34": 3320,
      "qa": 3321,
      "dec": 3322,
      "Ġlanguage": 3323,
      "Ġperform": 3324,
      "document": 3325,
      "Ġdown": 3326,
      "TH": 3327,
      "Ġextension": 3328,
      "60": 3329,
      "Ġrepresenting": 3330,
      "clean": 3331,
      "unicode": 3332,
      "Ġmetric": 3333,
      "asic": 3334,
      "()))": 3335,
      "ATH": 3336,
      "loads": 3337,
      "gp": 3338,
      "Py": 3339,
      "ulate": 3340,
      "('-": 3341,
      "strict": 3342,
      "Ġbuffer": 3343,
      "lint": 3344,
      "environ": 3345,
      "dims": 3346,
      "Ġfolder": 3347,
      "Ġscore": 3348,
      "Ġunits": 3349,
      "allow": 3350,
      "Ġcomb": 3351,
      "Ġterm": 3352,
      "Ġrequire": 3353,
      "ĠUpdate": 3354,
      "vs": 3355,
      "Ġpredi": 3356,
      "remote": 3357,
      "parameter": 3358,
      "missions": 3359,
      "Inter": 3360,
      "ru": 3361,
      "Ġinsert": 3362,
      "uting": 3363,
      "ĠRuntimeError": 3364,
      "bot": 3365,
      "Context": 3366,
      "hook": 3367,
      "cos": 3368,
      "DEFAULT": 3369,
      "amily": 3370,
      "flags": 3371,
      "ĠCh": 3372,
      "({'": 3373,
      "logging": 3374,
      "img": 3375,
      "Ġstdout": 3376,
      "Ġrequested": 3377,
      "inte": 3378,
      "Ġretry": 3379,
      "wrap": 3380,
      "Ġclick": 3381,
      "ĠDefaults": 3382,
      "ERR": 3383,
      "Ġcor": 3384,
      "fact": 3385,
      "Ġtrace": 3386,
      "()[": 3387,
      "cimal": 3388,
      ".*": 3389,
      "Ġmulti": 3390,
      "Ġaxes": 3391,
      "Ġstored": 3392,
      "ĊĠĠĠĠĠĠĠĠĠĠĠĠĠĠĠĠĠĠĠĠĠĠĠĠĠĠĠĠĠĠĠĠĠĠĠĠĠ": 3393,
      "zero": 3394,
      "sql": 3395,
      "real": 3396,
      "Ġchain": 3397,
      "Ġstandard": 3398,
      "Ġcharacters": 3399,
      "ĠDE": 3400,
      "chedule": 3401,
      "Ġbox": 3402,
      "utable": 3403,
      "Ġ\"/": 3404,
      "Ġ})": 3405,
      "ole": 3406,
      "plotlib": 3407,
      "mac": 3408,
      "Ġprivate": 3409,
      "Pre": 3410,
      "(['": 3411,
      "quences": 3412,
      "rence": 3413,
      "ively": 3414,
      "blem": 3415,
      "author": 3416,
      "KEY": 3417,
      "expected": 3418,
      "Ġ\"\\": 3419,
      "cursor": 3420,
      "pool": 3421,
      "fill": 3422,
      "cluster": 3423,
      "ĠOther": 3424,
      "Ġwrap": 3425,
      "ĊĠĠĠĠĠĠĠĠĠĠĠĠĠĠĠĠĠĠĠĠĠĠĠĠĠĠĠĠĠĠĠĠĠĠĠĠĠĠ": 3426,
      "ĠArgument": 3427,
      "Ġ_,": 3428,
      "fetch": 3429,
      "sqrt": 3430,
      "ĠOr": 3431,
      "bind": 3432,
      "Ġht": 3433,
      "defin": 3434,
      "Ġhparams": 3435,
      "Ġrole": 3436,
      "Ġplace": 3437,
      "Ġdistribution": 3438,
      "ters": 3439,
      "fg": 3440,
      "Ġuntil": 3441,
      "quires": 3442,
      "QL": 3443,
      "force": 3444,
      "Process": 3445,
      "Ġinterval": 3446,
      "alpha": 3447,
      "Ġloc": 3448,
      "uring": 3449,
      "spect": 3450,
      "IL": 3451,
      "ransport": 3452,
      "ĠNumber": 3453,
      "Handler": 3454,
      "period": 3455,
      "Ġcommon": 3456,
      "edges": 3457,
      "sec": 3458,
      "Ġnoqa": 3459,
      "HE": 3460,
      "sep": 3461,
      "formed": 3462,
      "Ġfill": 3463,
      "null": 3464,
      "(\"%": 3465,
      "Ġsur": 3466,
      "sm": 3467,
      "figs": 3468,
      "merge": 3469,
      "jobs": 3470,
      "times": 3471,
      "ilt": 3472,
      "display": 3473,
      "Ġcomplete": 3474,
      "Per": 3475,
      "events": 3476,
      "Ġrepresentation": 3477,
      "Size": 3478,
      "corre": 3479,
      "__)": 3480,
      "ĠIO": 3481,
      "ango": 3482,
      "ui": 3483,
      "storage": 3484,
      "Ġker": 3485,
      "Ent": 3486,
      "dat": 3487,
      "Ġexit": 3488,
      "atted": 3489,
      "xx": 3490,
      "Ġsm": 3491,
      "route": 3492,
      "ĠĠĠĠĠĠĠĠĠĠĠĠĠĠĠĠĠĠĠĠĠĠĠĠĠĠĠĠĠĠĠĠ": 3493,
      "Ġ-=": 3494,
      "je": 3495,
      "Ġactive": 3496,
      "Ġpair": 3497,
      "dirname": 3498,
      "Ġndarray": 3499,
      "eric": 3500,
      "ĠAny": 3501,
      "states": 3502,
      "rtual": 3503,
      "Ġdestination": 3504,
      "-%": 3505,
      "ength": 3506,
      "Ġmeans": 3507,
      "Gener": 3508,
      "Parse": 3509,
      "Ġcat": 3510,
      "ane": 3511,
      "LOG": 3512,
      "/%": 3513,
      "periment": 3514,
      "API": 3515,
      "ertificate": 3516,
      "dio": 3517,
      "weights": 3518,
      "fname": 3519,
      "AS": 3520,
      "sn": 3521,
      "čĊĠĠĠĠĠĠĠĠĠĠĠĠĠĠĠĠĠĠĠ": 3522,
      "Ġneg": 3523,
      "ĠApp": 3524,
      "Ġshort": 3525,
      "Ġmost": 3526,
      "coords": 3527,
      "sted": 3528,
      "PC": 3529,
      "des": 3530,
      "Ġnamed": 3531,
      "Ġinstall": 3532,
      "Ġwere": 3533,
      "github": 3534,
      "mg": 3535,
      "Ġexclude": 3536,
      "13": 3537,
      "sens": 3538,
      "come": 3539,
      "ĠValid": 3540,
      "prop": 3541,
      "Input": 3542,
      "Ġrecords": 3543,
      "roller": 3544,
      "ĠDataFrame": 3545,
      "ĠPath": 3546,
      "Ġrec": 3547,
      "lack": 3548,
      "Ġzone": 3549,
      "ather": 3550,
      "Ġgenerator": 3551,
      "Ġuri": 3552,
      "Ġgenerated": 3553,
      "UP": 3554,
      "entication": 3555,
      "'\\": 3556,
      "Te": 3557,
      "ĠRE": 3558,
      "clear": 3559,
      "Ġsubject": 3560,
      "Ġinternal": 3561,
      "member": 3562,
      "Ġ'*'": 3563,
      "include": 3564,
      "Ġmedi": 3565,
      "Rec": 3566,
      "_.": 3567,
      "istered": 3568,
      "Table": 3569,
      "Ġactual": 3570,
      "Ġbash": 3571,
      "reshape": 3572,
      "Ġcharacter": 3573,
      "Ġimg": 3574,
      "verbose": 3575,
      "18": 3576,
      "Base": 3577,
      ".)": 3578,
      "Ġsetting": 3579,
      "Ġperiod": 3580,
      "Ġcompat": 3581,
      "master": 3582,
      "={}": 3583,
      "Ġpool": 3584,
      "Ġselected": 3585,
      "Ġ\",": 3586,
      "Ġfmt": 3587,
      "Ġwrapper": 3588,
      "defaults": 3589,
      "flag": 3590,
      "help": 3591,
      "codes": 3592,
      "ĠMake": 3593,
      "ĠPer": 3594,
      "volume": 3595,
      "Ġdirectly": 3596,
      "Ġattemp": 3597,
      "loaded": 3598,
      "Ġdefinition": 3599,
      "amma": 3600,
      "ĠUser": 3601,
      "Query": 3602,
      "ues": 3603,
      "modules": 3604,
      "FO": 3605,
      "ams": 3606,
      "sired": 3607,
      "Ġensure": 3608,
      "Ġids": 3609,
      "Ġmodels": 3610,
      "(\"\\": 3611,
      "Ġart": 3612,
      "Ġjoin": 3613,
      "layers": 3614,
      "inputs": 3615,
      "17": 3616,
      "bove": 3617,
      "application": 3618,
      "ĠAl": 3619,
      "Ġbucket": 3620,
      "Ġauto": 3621,
      "cii": 3622,
      "defined": 3623,
      "otential": 3624,
      "NS": 3625,
      "Ġregex": 3626,
      "Ġway": 3627,
      "Image": 3628,
      "ĠIndex": 3629,
      "Ġbranch": 3630,
      "Ġpairs": 3631,
      "byte": 3632,
      "Ġleast": 3633,
      "span": 3634,
      "role": 3635,
      "ignore": 3636,
      "ND": 3637,
      "PRO": 3638,
      "rb": 3639,
      "CK": 3640,
      "sen": 3641,
      "Ġday": 3642,
      "Ġpylint": 3643,
      "Date": 3644,
      "Ġsuffix": 3645,
      "Ġsuccessful": 3646,
      "fmt": 3647,
      "ocation": 3648,
      "summary": 3649,
      "Update": 3650,
      "yg": 3651,
      "fic": 3652,
      "Ġprobab": 3653,
      "Content": 3654,
      "ene": 3655,
      "tion": 3656,
      "On": 3657,
      "Ġsql": 3658,
      "gb": 3659,
      "socket": 3660,
      "Trans": 3661,
      "secret": 3662,
      "phi": 3663,
      "rl": 3664,
      "cip": 3665,
      "ports": 3666,
      "Reg": 3667,
      "ower": 3668,
      "served": 3669,
      "Count": 3670,
      "Ġhtml": 3671,
      "tact": 3672,
      "light": 3673,
      "Ġimplement": 3674,
      "Le": 3675,
      "kind": 3676,
      "utation": 3677,
      "Ġdisk": 3678,
      "Ġlists": 3679,
      "He": 3680,
      "fd": 3681,
      "Ġlar": 3682,
      "endpoint": 3683,
      "Ġoptim": 3684,
      "ĊĠĠĠĠĠĠĠĠĠĠĠĠĠĠĠĠĠĠĠĠĠĠĠĠĠĠĠĠĠĠĠĠĠĠĠĠĠĠĠĠĠĠĠ": 3685,
      "Ġ'',": 3686,
      "WS": 3687,
      "Ġut": 3688,
      "ĠTime": 3689,
      "miss": 3690,
      "alk": 3691,
      "Ġ200": 3692,
      "Ġoverride": 3693,
      "alias": 3694,
      "Ġfilters": 3695,
      "regex": 3696,
      "cording": 3697,
      "kets": 3698,
      "ĠEn": 3699,
      "Ġkw": 3700,
      "cessary": 3701,
      "Ġdirection": 3702,
      "Ġappend": 3703,
      "56": 3704,
      "Ġrender": 3705,
      "ï¼": 3706,
      "ploy": 3707,
      "Ġfalse": 3708,
      "allback": 3709,
      "]+": 3710,
      "Ġprotocol": 3711,
      "ĠAs": 3712,
      "ĠOS": 3713,
      "argv": 3714,
      "Ġctypes": 3715,
      "Ġbot": 3716,
      "Ġsym": 3717,
      "VAL": 3718,
      "Ġpolicy": 3719,
      "install": 3720,
      "yntax": 3721,
      "lookup": 3722,
      "counts": 3723,
      "Ġhead": 3724,
      "ĠWhether": 3725,
      "Ġmany": 3726,
      "custom": 3727,
      "Ġcommit": 3728,
      "Ġcalling": 3729,
      "Ġ$": 3730,
      "Ġgre": 3731,
      "Ġbl": 3732,
      "Ġimages": 3733,
      "release": 3734,
      "Ġlock": 3735,
      "Ġprop": 3736,
      "Ġrot": 3737,
      "Valid": 3738,
      "Ġtransaction": 3739,
      "Ġder": 3740,
      "Ġreverse": 3741,
      "signal": 3742,
      "slice": 3743,
      "success": 3744,
      "Ġneeds": 3745,
      "symbol": 3746,
      "Dis": 3747,
      "Ġwarnings": 3748,
      ",)": 3749,
      "effici": 3750,
      "ĠString": 3751,
      "ATION": 3752,
      "Ġ%(": 3753,
      "osition": 3754,
      "expr": 3755,
      "Ġyear": 3756,
      "Ġupper": 3757,
      "ĠĠĠĠĠĠĠĠĠ": 3758,
      "Ġextensions": 3759,
      "Ġedges": 3760,
      "counter": 3761,
      "ĠCol": 3762,
      "rain": 3763,
      "jango": 3764,
      "Ġfont": 3765,
      "ribe": 3766,
      "mpling": 3767,
      "ilar": 3768,
      "Ġfp": 3769,
      "Status": 3770,
      "FILE": 3771,
      "Ġanalysis": 3772,
      "after": 3773,
      "foo": 3774,
      "}\"": 3775,
      "Ġmu": 3776,
      "property": 3777,
      "Ġty": 3778,
      "Ġcy": 3779,
      "Ġflow": 3780,
      "Ġattrs": 3781,
      "ga": 3782,
      "widget": 3783,
      "obs": 3784,
      "Ġdraw": 3785,
      "Ġcondition": 3786,
      "language": 3787,
      "Ġwidget": 3788,
      "steps": 3789,
      "Ġtrig": 3790,
      "ressed": 3791,
      "Ġalgorithm": 3792,
      "dic": 3793,
      "mu": 3794,
      "Ġarrays": 3795,
      "Ġchanged": 3796,
      "ention": 3797,
      "heet": 3798,
      "ĠInvalid": 3799,
      "Ġsymbol": 3800,
      "Man": 3801,
      ")])": 3802,
      "Ġvm": 3803,
      "Ġprogress": 3804,
      "Ġuses": 3805,
      "pter": 3806,
      "Ġthose": 3807,
      "ĠQu": 3808,
      "win": 3809,
      "ases": 3810,
      "Ġcalculate": 3811,
      "ĠOnly": 3812,
      "tk": 3813,
      "Ġho": 3814,
      "Ġdetect": 3815,
      "Ġdec": 3816,
      "apply": 3817,
      "Graph": 3818,
      "changed": 3819,
      "logy": 3820,
      "duce": 3821,
      "Ġdecorator": 3822,
      "Ġamount": 3823,
      "complete": 3824,
      "()]": 3825,
      "filepath": 3826,
      "ĠXML": 3827,
      "buf": 3828,
      "writ": 3829,
      "bucket": 3830,
      "Ġ16": 3831,
      "Ġlookup": 3832,
      "tab": 3833,
      "links": 3834,
      "Iter": 3835,
      "sym": 3836,
      "okie": 3837,
      "Start": 3838,
      "IG": 3839,
      "Ġfname": 3840,
      "sorted": 3841,
      "suffix": 3842,
      "Ġ,": 3843,
      "('--": 3844,
      "Ġfinally": 3845,
      "maining": 3846,
      "uter": 3847,
      "Ġtrack": 3848,
      "Ġ{},": 3849,
      "22": 3850,
      "elements": 3851,
      "__.": 3852,
      "ĠĊĠĠĠ": 3853,
      "Ġpandas": 3854,
      "Connection": 3855,
      "ense": 3856,
      "ified": 3857,
      "Ġ'')": 3858,
      "tore": 3859,
      "erature": 3860,
      "compile": 3861,
      "ĠBy": 3862,
      "Ġ//": 3863,
      "Ġpkg": 3864,
      "download": 3865,
      "200": 3866,
      "velo": 3867,
      "Ġminimum": 3868,
      "PATH": 3869,
      "Ġcommands": 3870,
      "Ġmember": 3871,
      "IM": 3872,
      "istics": 3873,
      "Ġautomat": 3874,
      "utton": 3875,
      "POST": 3876,
      "gate": 3877,
      ")*": 3878,
      "www": 3879,
      "ĠOtherwise": 3880,
      "Ġfetch": 3881,
      "lev": 3882,
      "database": 3883,
      "ĠRead": 3884,
      "Exec": 3885,
      "faces": 3886,
      "Ġchildren": 3887,
      "ERROR": 3888,
      "SION": 3889,
      "imer": 3890,
      "=_": 3891,
      "Ġslice": 3892,
      "Ġcomponents": 3893,
      "ĠConfig": 3894,
      "Version": 3895,
      "sole": 3896,
      "ugins": 3897,
      "public": 3898,
      "acy": 3899,
      "multi": 3900,
      "Ġconver": 3901,
      "Ġsupp": 3902,
      "pipe": 3903,
      "axes": 3904,
      "Ġanother": 3905,
      "Ġ\"_": 3906,
      "Ġprev": 3907,
      "Ġlibrary": 3908,
      "contents": 3909,
      "assign": 3910,
      "OP": 3911,
      "Ġscan": 3912,
      "gt": 3913,
      "ons": 3914,
      "Ġfuture": 3915,
      "Ġmag": 3916,
      "DS": 3917,
      "nn": 3918,
      "fail": 3919,
      "oms": 3920,
      "resses": 3921,
      "Number": 3922,
      "vide": 3923,
      "sig": 3924,
      "Ġrate": 3925,
      "channels": 3926,
      "Ġpublic": 3927,
      "Series": 3928,
      "Al": 3929,
      "none": 3930,
      "CS": 3931,
      "ocab": 3932,
      "Ġabove": 3933,
      "-+-+-+-+": 3934,
      "eval": 3935,
      "iew": 3936,
      "agent": 3937,
      "Ġ[(": 3938,
      "ibility": 3939,
      "freq": 3940,
      "ĠRemove": 3941,
      "Ġnumbers": 3942,
      "ifier": 3943,
      "sha": 3944,
      "Ġsubprocess": 3945,
      "Ġsummary": 3946,
      "lex": 3947,
      "tty": 3948,
      "uint": 3949,
      "UM": 3950,
      "urse": 3951,
      "Ġrelation": 3952,
      "sim": 3953,
      "Ġaccording": 3954,
      "resources": 3955,
      "month": 3956,
      "details": 3957,
      "arm": 3958,
      "Ġcandid": 3959,
      "Ġstates": 3960,
      "font": 3961,
      "Ġhy": 3962,
      "ĠConvert": 3963,
      "basename": 3964,
      "Ġetc": 3965,
      "expand": 3966,
      "This": 3967,
      "Ġexpi": 3968,
      "}}": 3969,
      "Ġangle": 3970,
      "Ġverify": 3971,
      "Ġalias": 3972,
      "çļ": 3973,
      "generate": 3974,
      "andlers": 3975,
      "Map": 3976,
      "Ġweb": 3977,
      "rag": 3978,
      "Ġcenter": 3979,
      "Code": 3980,
      "Ġdat": 3981,
      "'re": 3982,
      "501": 3983,
      "IS": 3984,
      "]*": 3985,
      "Ġkind": 3986,
      "For": 3987,
      "....": 3988,
      "Ġtensor": 3989,
      "cd": 3990,
      "ĠĠĠĠĠĠĠĠĠĠ": 3991,
      "çļĦ": 3992,
      "Ġthreshold": 3993,
      "protocol": 3994,
      "ypes": 3995,
      ":-": 3996,
      "admin": 3997,
      "SET": 3998,
      "Ġbar": 3999,
      "pkg": 4000,
      ")/": 4001,
      "ship": 4002,
      "Point": 4003,
      "Ġproduct": 4004,
      "area": 4005,
      "Ġident": 4006,
      "From": 4007,
      "ĠYou": 4008,
      "RA": 4009,
      "}/": 4010,
      "tool": 4011,
      "Line": 4012,
      "Ġspe": 4013,
      "66": 4014,
      "sigma": 4015,
      "Ġ\"-": 4016,
      "Ġnecessary": 4017,
      "Ġexecute": 4018,
      "eff": 4019,
      "astype": 4020,
      "sleep": 4021,
      "Ġdimensions": 4022,
      "Ġcurrently": 4023,
      "Ġclasses": 4024,
      "jection": 4025,
      "Ġdesired": 4026,
      "ells": 4027,
      "('.": 4028,
      "Ġmaster": 4029,
      "Ġreason": 4030,
      "memory": 4031,
      "Ġexceptions": 4032,
      "Ġsetup": 4033,
      "scan": 4034,
      "ĠNO": 4035,
      "partition": 4036,
      "ropy": 4037,
      "ĠAll": 4038,
      "icle": 4039,
      "ling": 4040,
      "Ġrepository": 4041,
      "Ġoperator": 4042,
      "Ġpacket": 4043,
      "Ġkernel": 4044,
      "history": 4045,
      "lies": 4046,
      "Ġ(%": 4047,
      "reset": 4048,
      "ĠĠĠĠĠĠĠĠĠĠĠ": 4049,
      "safe": 4050,
      "Ġstderr": 4051,
      "subject": 4052,
      "scriptor": 4053,
      "abel": 4054,
      "HTTP": 4055,
      "Ġstarting": 4056,
      "čĊĠĠĠĠĠĠĠĠ": 4057,
      "05": 4058,
      "Ġcontrol": 4059,
      "Ġresources": 4060,
      "As": 4061,
      "Ġbind": 4062,
      "Ġinstalled": 4063,
      "gene": 4064,
      "missing": 4065,
      "plugin": 4066,
      "straints": 4067,
      "AGE": 4068,
      "gg": 4069,
      "fun": 4070,
      "spath": 4071,
      "tz": 4072,
      "Ġbro": 4073,
      "cesses": 4074,
      "ĠYANG": 4075,
      "threshold": 4076,
      "icro": 4077,
      "Ġasynchronous": 4078,
      "Ġ[],": 4079,
      "Ġcfg": 4080,
      "Desc": 4081,
      "ĠArguments": 4082,
      "Service": 4083,
      "Ġoccur": 4084,
      "ĠFind": 4085,
      "cipy": 4086,
      "atches": 4087,
      "Ġ\"{}": 4088,
      "åı": 4089,
      "oot": 4090,
      "Ġreset": 4091,
      "03": 4092,
      "olved": 4093,
      "ines": 4094,
      "colors": 4095,
      "ATA": 4096,
      "login": 4097,
      "ife": 4098,
      "Ġencoded": 4099,
      "Ġpartition": 4100,
      "mass": 4101,
      "MS": 4102,
      "Ġusers": 4103,
      "short": 4104,
      "ops": 4105,
      "Ġincluded": 4106,
      "Ġrelease": 4107,
      "ĠSpeci": 4108,
      "ones": 4109,
      "Ġignored": 4110,
      "peration": 4111,
      "Ġcalls": 4112,
      "filters": 4113,
      "operation": 4114,
      "rand": 4115,
      "']))": 4116,
      "cons": 4117,
      "Ġput": 4118,
      "Ġtermin": 4119,
      "ĊĠĠĠĠĠĠĠĠĠĠĠĠĠĠĠĠĠĠĠĠĠĠĠĠĠĠĠĠĠĠĠĠĠĠĠĠĠĠĠĠĠ": 4120,
      "Ġgene": 4121,
      "Ġside": 4122,
      "\"].": 4123,
      "Ġshell": 4124,
      "pair": 4125,
      "atterns": 4126,
      "ĠTrans": 4127,
      "sess": 4128,
      "Ġupload": 4129,
      "ancel": 4130,
      "ric": 4131,
      "ĠUni": 4132,
      "Ġwords": 4133,
      "Ġbits": 4134,
      "ĠParse": 4135,
      "vidual": 4136,
      "áĨ": 4137,
      "Ġinv": 4138,
      "pars": 4139,
      "ogram": 4140,
      "segment": 4141,
      "Ġorigin": 4142,
      "fp": 4143,
      "extract": 4144,
      "mediate": 4145,
      "note": 4146,
      "Ġvalidation": 4147,
      "ABLE": 4148,
      "mid": 4149,
      "branch": 4150,
      "retry": 4151,
      "component": 4152,
      "Ġpick": 4153,
      "Ġsimple": 4154,
      "ĠIOError": 4155,
      "Ġdetermine": 4156,
      "ifact": 4157,
      "Ġduration": 4158,
      "bins": 4159,
      ":\\": 4160,
      "gories": 4161,
      "Ġduring": 4162,
      "Ġcategory": 4163,
      "inf": 4164,
      "undle": 4165,
      "23": 4166,
      "category": 4167,
      "before": 4168,
      "ridge": 4169,
      "factory": 4170,
      "Ġclear": 4171,
      "percent": 4172,
      "alculate": 4173,
      "Tree": 4174,
      "PAR": 4175,
      "compute": 4176,
      ")\"": 4177,
      "lots": 4178,
      "Ġraised": 4179,
      "cursive": 4180,
      "draw": 4181,
      "inished": 4182,
      "invalid": 4183,
      "Do": 4184,
      "Ġloaded": 4185,
      "hs": 4186,
      "ĠĠĠĠĠĠĠĠĠĠĠĠ": 4187,
      "sd": 4188,
      "Ġtuples": 4189,
      "dify": 4190,
      "enabled": 4191,
      "ymbols": 4192,
      "Ġmeasure": 4193,
      "Ġalong": 4194,
      "arguments": 4195,
      "Ġwell": 4196,
      "Str": 4197,
      "beta": 4198,
      "clus": 4199,
      "Ġscalar": 4200,
      "Ġfast": 4201,
      "Ġ[])": 4202,
      "iteritems": 4203,
      "skip": 4204,
      "cr": 4205,
      "Record": 4206,
      "]])": 4207,
      "Ġeffect": 4208,
      "bed": 4209,
      "setdefault": 4210,
      "--------------------------------": 4211,
      "this": 4212,
      "iki": 4213,
      "repr": 4214,
      "firm": 4215,
      "Ġ),": 4216,
      "structure": 4217,
      "Ġbackend": 4218,
      "ctories": 4219,
      "home": 4220,
      "Ġdst": 4221,
      "__(": 4222,
      "Ġap": 4223,
      "TML": 4224,
      "âĶ": 4225,
      "Filter": 4226,
      "Ġavoid": 4227,
      "čĊĠĠĠĠĠĠĠĠčĊĠĠĠĠĠĠĠ": 4228,
      "\"]:": 4229,
      "priate": 4230,
      "ality": 4231,
      "inv": 4232,
      "Ġpad": 4233,
      "Ġtoo": 4234,
      "Ġcounter": 4235,
      "Ġdeleted": 4236,
      "Lay": 4237,
      "Ġsigma": 4238,
      "FOR": 4239,
      "quival": 4240,
      "final": 4241,
      "lso": 4242,
      "Ġcached": 4243,
      "ĊĠĠĠĠĠĠĠĠĠĠĠĠĠĠĠĠĠĠĠĠĠĠĠĠĠĠĠĠĠĠĠĠĠĠĠĠĠĠĠĠĠĠ": 4244,
      "crypted": 4245,
      "Ġbegin": 4246,
      "XX": 4247,
      "matches": 4248,
      "drop": 4249,
      "binary": 4250,
      "grade": 4251,
      "Resource": 4252,
      "track": 4253,
      "ĠPre": 4254,
      "{}'.": 4255,
      "setup": 4256,
      "ks": 4257,
      "TIME": 4258,
      "Ġ\"--": 4259,
      "example": 4260,
      "Ġbelow": 4261,
      "Ġreply": 4262,
      "components": 4263,
      "Ġmodified": 4264,
      "Ġexpect": 4265,
      "entries": 4266,
      "Bu": 4267,
      "days": 4268,
      "Ġsupplied": 4269,
      "trieve": 4270,
      "NotFound": 4271,
      "Ġmonth": 4272,
      "|'": 4273,
      "Ġsens": 4274,
      "ands": 4275,
      "Ġfrequency": 4276,
      "ural": 4277,
      "Ġast": 4278,
      "umb": 4279,
      "deredDict": 4280,
      "Ġsets": 4281,
      "Ġ))": 4282,
      "ascii": 4283,
      "indent": 4284,
      "pad": 4285,
      "high": 4286,
      "Of": 4287,
      "loss": 4288,
      "commands": 4289,
      "Ġvariant": 4290,
      "precated": 4291,
      "gers": 4292,
      "%(": 4293,
      "Ġduplic": 4294,
      "isfile": 4295,
      "ĠIN": 4296,
      "75": 4297,
      "istent": 4298,
      ":])": 4299,
      "Could": 4300,
      "Ġretrieve": 4301,
      "cert": 4302,
      "pd": 4303,
      "Ġdrop": 4304,
      "Ġappropriate": 4305,
      "Ġmove": 4306,
      "blocks": 4307,
      "86": 4308,
      "async": 4309,
      "Ġneighb": 4310,
      "ĠCommand": 4311,
      "Ġans": 4312,
      "found": 4313,
      "Ġagainst": 4314,
      "condition": 4315,
      "90": 4316,
      "Obj": 4317,
      "ars": 4318,
      "Ġautomatically": 4319,
      "cing": 4320,
      "rep": 4321,
      "Ġenabled": 4322,
      "Ġ[[": 4323,
      "Ġonce": 4324,
      "ulti": 4325,
      "rer": 4326,
      "dimension": 4327,
      "Ġstri": 4328,
      "ĠAlso": 4329,
      "pacity": 4330,
      "gree": 4331,
      "web": 4332,
      "84": 4333,
      "frac": 4334,
      "ours": 4335,
      "ĠHe": 4336,
      "GS": 4337,
      ")).": 4338,
      "Ġspecial": 4339,
      "catalog": 4340,
      "Load": 4341,
      "allel": 4342,
      "pb": 4343,
      "Clo": 4344,
      "images": 4345,
      "sin": 4346,
      "Fe": 4347,
      "Ġns": 4348,
      "users": 4349,
      "Ġhex": 4350,
      "scape": 4351,
      ")'": 4352,
      "Ġnorm": 4353,
      "Ġsaved": 4354,
      "Ġexport": 4355,
      "Ġfeed": 4356,
      "Ġenable": 4357,
      "records": 4358,
      "Ġreceived": 4359,
      "mplates": 4360,
      "Ġcredentials": 4361,
      "redu": 4362,
      "Ġmight": 4363,
      "Option": 4364,
      "tw": 4365,
      "Ġcolors": 4366,
      "reat": 4367,
      "spaces": 4368,
      "Default": 4369,
      "concat": 4370,
      "Ġradius": 4371,
      "imp": 4372,
      "neighb": 4373,
      "Ġincre": 4374,
      "vl": 4375,
      "ilities": 4376,
      "ACK": 4377,
      "Ġabsolute": 4378,
      "ii": 4379,
      "Ġcut": 4380,
      "TS": 4381,
      "td": 4382,
      "Ġconverted": 4383,
      "oriz": 4384,
      "dirs": 4385,
      "Token": 4386,
      "grees": 4387,
      "nb": 4388,
      "Ġsnapshot": 4389,
      "Ġatom": 4390,
      "Ġcsv": 4391,
      "ping": 4392,
      "Ġdot": 4393,
      "BUG": 4394,
      "Ca": 4395,
      "UB": 4396,
      "We": 4397,
      "Ġmesh": 4398,
      "ĠInput": 4399,
      "google": 4400,
      ")}": 4401,
      "Ġfailure": 4402,
      "Ġembed": 4403,
      "Ġrequires": 4404,
      "rect": 4405,
      "single": 4406,
      "layout": 4407,
      "hostname": 4408,
      "Ġknown": 4409,
      "running": 4410,
      "\").": 4411,
      "Ġactions": 4412,
      "product": 4413,
      "Ġchecks": 4414,
      "arange": 4415,
      "Ġexact": 4416,
      "Ġtraining": 4417,
      "Ġarr": 4418,
      "MM": 4419,
      "rece": 4420,
      "Ġtab": 4421,
      "ough": 4422,
      "Ġlet": 4423,
      "ited": 4424,
      "sidered": 4425,
      "Ġversionadded": 4426,
      "signature": 4427,
      "Tra": 4428,
      "ĠLog": 4429,
      "conv": 4430,
      "antity": 4431,
      "Ġpercent": 4432,
      "aving": 4433,
      "27": 4434,
      "oo": 4435,
      "Manager": 4436,
      "Action": 4437,
      "ĊĊĊĠĠĠ": 4438,
      "created": 4439,
      "(\\": 4440,
      "js": 4441,
      "Attribute": 4442,
      "Command": 4443,
      "mgmt": 4444,
      "Ġimplemented": 4445,
      "Ġusage": 4446,
      "atom": 4447,
      "Ġmodules": 4448,
      "Ġfigure": 4449,
      "OL": 4450,
      "enum": 4451,
      "members": 4452,
      "Ġlow": 4453,
      "Cannot": 4454,
      "Ġrep": 4455,
      "second": 4456,
      "Ġregistered": 4457,
      "definition": 4458,
      "uff": 4459,
      "ression": 4460,
      "Ġyet": 4461,
      "Ġformatted": 4462,
      "Ġsig": 4463,
      "uous": 4464,
      "']]": 4465,
      "jor": 4466,
      "anis": 4467,
      "Ġexecution": 4468,
      "={'": 4469,
      "Ġconsidered": 4470,
      "Ġpers": 4471,
      "dst": 4472,
      "rot": 4473,
      "mesh": 4474,
      "lip": 4475,
      "orary": 4476,
      "ĠImport": 4477,
      "Ġseed": 4478,
      "dient": 4479,
      "ĠNotes": 4480,
      "engine": 4481,
      "riteria": 4482,
      "Ġredirect": 4483,
      "Ġrank": 4484,
      "Ġbuf": 4485,
      "servation": 4486,
      "Ġprovide": 4487,
      "ĠDis": 4488,
      "Ġ'__": 4489,
      "Ġ20": 4490,
      "Ġelem": 4491,
      "Ġpadding": 4492,
      "Ġsetattr": 4493,
      "verify": 4494,
      "ĠCan": 4495,
      "Warning": 4496,
      "Ġscal": 4497,
      "\"][\"": 4498,
      "Ġapplied": 4499,
      "hood": 4500,
      "ĠLoad": 4501,
      "Source": 4502,
      "Widget": 4503,
      "digest": 4504,
      "Ġarea": 4505,
      "Ġasset": 4506,
      "čĊčĊĠĠĠ": 4507,
      "yaml": 4508,
      "Ġoutputs": 4509,
      "ĠPo": 4510,
      "(__": 4511,
      "ĠBo": 4512,
      "havi": 4513,
      "ĠTe": 4514,
      "ada": 4515,
      "ĠĊĠĠĠĠĠĠĠĠĠĠĠ": 4516,
      "ked": 4517,
      "indows": 4518,
      "messages": 4519,
      "Ġdump": 4520,
      "Ġoverwrite": 4521,
      "rr": 4522,
      "Ġinside": 4523,
      "unch": 4524,
      "ĠLOGGER": 4525,
      "render": 4526,
      "ĠId": 4527,
      "SER": 4528,
      "Ġleg": 4529,
      "sources": 4530,
      "Ġeven": 4531,
      "sumer": 4532,
      "duration": 4533,
      "mooth": 4534,
      "View": 4535,
      "Ġyaml": 4536,
      "ĠEach": 4537,
      "expression": 4538,
      "ASE": 4539,
      "Ġgit": 4540,
      "Mo": 4541,
      "Ġdetermin": 4542,
      "Ġgot": 4543,
      "seed": 4544,
      "Ġwritten": 4545,
      "(',": 4546,
      "ral": 4547,
      "otes": 4548,
      "ription": 4549,
      "(?": 4550,
      "control": 4551,
      "VE": 4552,
      "Optional": 4553,
      "CP": 4554,
      "Ġnormalize": 4555,
      ".\",": 4556,
      "95": 4557,
      "Ġsteps": 4558,
      "Ġsequences": 4559,
      "ĠRequest": 4560,
      "Ġarchive": 4561,
      "Ġbounds": 4562,
      "Ġlogin": 4563,
      "'|'": 4564,
      "Ġ{})": 4565,
      "mer": 4566,
      "separ": 4567,
      "structor": 4568,
      "dle": 4569,
      "Ġve": 4570,
      "ĠDict": 4571,
      "shift": 4572,
      "Ġdecode": 4573,
      "ube": 4574,
      "=-": 4575,
      "Ġstrip": 4576,
      "proc": 4577,
      "Format": 4578,
      "Ġpartial": 4579,
      "Ġexplicit": 4580,
      "Def": 4581,
      "exclude": 4582,
      "osid": 4583,
      "limiter": 4584,
      "dx": 4585,
      "At": 4586,
      "40": 4587,
      "aut": 4588,
      "alg": 4589,
      "cum": 4590,
      "sync": 4591,
      "ront": 4592,
      "ZE": 4593,
      "Ġsources": 4594,
      "theta": 4595,
      "TA": 4596,
      "Ġprec": 4597,
      "EM": 4598,
      "tensor": 4599,
      "variant": 4600,
      "emon": 4601,
      "Ġ-----": 4602,
      "processing": 4603,
      "')[": 4604,
      "sur": 4605,
      "SA": 4606,
      "configuration": 4607,
      "Ġpositive": 4608,
      "Ġcounts": 4609,
      "Ġsn": 4610,
      "ident": 4611,
      "Ġdefining": 4612,
      "inc": 4613,
      "ĠQt": 4614,
      "ili": 4615,
      "Ġdid": 4616,
      "Ġproblem": 4617,
      "Ġwin": 4618,
      "writer": 4619,
      "VI": 4620,
      "orld": 4621,
      "bounds": 4622,
      "Link": 4623,
      "tile": 4624,
      "provider": 4625,
      "sem": 4626,
      "Box": 4627,
      "Ġsmall": 4628,
      "ava": 4629,
      "=\"\"": 4630,
      "ĠOpen": 4631,
      "Ġknow": 4632,
      "__.__": 4633,
      "echo": 4634,
      "Ġmachine": 4635,
      "Ġnegative": 4636,
      "IC": 4637,
      "Ġattach": 4638,
      "quivalent": 4639,
      "asset": 4640,
      "Ac": 4641,
      "shell": 4642,
      "Ġepoch": 4643,
      "xim": 4644,
      "}:": 4645,
      "Ġselection": 4646,
      "256": 4647,
      "Ġ##": 4648,
      "metrics": 4649,
      "Ġcla": 4650,
      "Ġnotification": 4651,
      "Spec": 4652,
      "lis": 4653,
      "iso": 4654,
      "Ġtakes": 4655,
      "Ġpid": 4656,
      "Ġmac": 4657,
      "Convert": 4658,
      "driver": 4659,
      "Ġprogram": 4660,
      "Stream": 4661,
      "available": 4662,
      "Ġrules": 4663,
      "Ġstill": 4664,
      "Ġregistry": 4665,
      "Ġprocessed": 4666,
      "ĠObject": 4667,
      "LIN": 4668,
      "Ġnested": 4669,
      "Ġchannels": 4670,
      "UE": 4671,
      "\\'": 4672,
      "measure": 4673,
      "Ġinspect": 4674,
      "Ġmid": 4675,
      "Ġprocessing": 4676,
      "Unable": 4677,
      "Ġissue": 4678,
      "Ġds": 4679,
      "private": 4680,
      "Ġagent": 4681,
      "generator": 4682,
      "Ġnb": 4683,
      "96": 4684,
      "Ġsl": 4685,
      "variance": 4686,
      "origin": 4687,
      "rowser": 4688,
      "OS": 4689,
      "Ġtool": 4690,
      "backend": 4691,
      "ï¼Į": 4692,
      "OK": 4693,
      "activ": 4694,
      "ierarch": 4695,
      "ifest": 4696,
      "vas": 4697,
      "Ġutil": 4698,
      "expi": 4699,
      "ynamic": 4700,
      "abspath": 4701,
      "reader": 4702,
      "platform": 4703,
      "Ġmetrics": 4704,
      "mitted": 4705,
      "Met": 4706,
      "Ġdev": 4707,
      "Ġorg": 4708,
      "boot": 4709,
      "unpack": 4710,
      "`:": 4711,
      "Ġplatform": 4712,
      "Ġsafe": 4713,
      "ndim": 4714,
      "Ġcir": 4715,
      "85": 4716,
      "Ġrepe": 4717,
      "Ġdescrib": 4718,
      "Call": 4719,
      ",'": 4720,
      "integer": 4721,
      "Ġpower": 4722,
      "Ġtargets": 4723,
      "epoch": 4724,
      "sy": 4725,
      "ĠError": 4726,
      "Ġ''.": 4727,
      "35": 4728,
      "Ġtasks": 4729,
      "hidden": 4730,
      ".',": 4731,
      "Ġmanager": 4732,
      "ever": 4733,
      "pdf": 4734,
      "targets": 4735,
      "Ġrelated": 4736,
      "Ġstatement": 4737,
      "onal": 4738,
      "Ġfilepath": 4739,
      "Address": 4740,
      "Ġhapp": 4741,
      "____": 4742,
      "ĠBuild": 4743,
      "=['": 4744,
      "36": 4745,
      "Ġ'<": 4746,
      "ĠCont": 4747,
      "Ġpackages": 4748,
      "utor": 4749,
      "ender": 4750,
      "Ġworks": 4751,
      "strings": 4752,
      "PRE": 4753,
      "Ġmapped": 4754,
      "resp": 4755,
      "Ġaverage": 4756,
      "Ġcoeffici": 4757,
      "Ġmarker": 4758,
      "Ġconstruct": 4759,
      "Ġless": 4760,
      "begin": 4761,
      "_)": 4762,
      "Ġ1000": 4763,
      "Block": 4764,
      "Ġå": 4765,
      "rong": 4766,
      "Ġengine": 4767,
      "Ġ~": 4768,
      "ygon": 4769,
      "Ġspecification": 4770,
      "ratio": 4771,
      "Server": 4772,
      "Ġconnected": 4773,
      "HO": 4774,
      "div": 4775,
      "asis": 4776,
      "ĊĠĠĠĠĠĠĠĠĠĠĠĠĠĠĠĠĠĠĠĠĠĠĠĠĠĠĠĠĠĠĠĠĠĠĠĠĠĠĠĠĠĠĠĠ": 4777,
      "hing": 4778,
      "Ġsimp": 4779,
      "progress": 4780,
      "='',": 4781,
      "ferred": 4782,
      "Ġalt": 4783,
      "tasks": 4784,
      "'\"": 4785,
      "Ġ(:": 4786,
      "Ġround": 4787,
      "auss": 4788,
      "Ġblocks": 4789,
      "Ġmd": 4790,
      "rules": 4791,
      "Ġtile": 4792,
      "ied": 4793,
      "Ġversions": 4794,
      "Ġaggreg": 4795,
      "ula": 4796,
      "Ġimplementation": 4797,
      "neg": 4798,
      "Entry": 4799,
      "Ġnone": 4800,
      "best": 4801,
      "diag": 4802,
      "ouble": 4803,
      "upload": 4804,
      "Ġidentifi": 4805,
      "Ġprimary": 4806,
      "scheme": 4807,
      "strument": 4808,
      "irst": 4809,
      "quare": 4810,
      "ocument": 4811,
      "TypeError": 4812,
      "ORD": 4813,
      "ENT": 4814,
      "Level": 4815,
      "registry": 4816,
      "Ġlater": 4817,
      "hy": 4818,
      "iterable": 4819,
      "rev": 4820,
      "fid": 4821,
      "rupt": 4822,
      "Ġ')": 4823,
      "quote": 4824,
      "done": 4825,
      "pan": 4826,
      "stit": 4827,
      "Ġmakes": 4828,
      "PS": 4829,
      "require": 4830,
      "uler": 4831,
      "pm": 4832,
      "Ġworking": 4833,
      "Implemented": 4834,
      "predi": 4835,
      "illar": 4836,
      "Function": 4837,
      "lag": 4838,
      "ĠOSError": 4839,
      "correct": 4840,
      "Ġpipeline": 4841,
      "System": 4842,
      "zy": 4843,
      "Ġcover": 4844,
      "dc": 4845,
      "ä»": 4846,
      "Ġtopic": 4847,
      "Ġsy": 4848,
      "Unknown": 4849,
      "ĊĠĠĠĠĠĠĠĠĠĠĠĠĠĠĠĠĠĠĠĠĠĠĠĠĠĠĠĠĠĠĠĠĠĠĠĠĠĠĠĠĠĠĠĠĠĠĠ": 4850,
      "Ġvirtual": 4851,
      "Ġmatplotlib": 4852,
      "ckets": 4853,
      "see": 4854,
      "Ġpr": 4855,
      "Ġrespect": 4856,
      "ĠBe": 4857,
      "lyph": 4858,
      "lineno": 4859,
      "Ġown": 4860,
      "Ġsat": 4861,
      "Output": 4862,
      "Ġ[-": 4863,
      "Ġinterpol": 4864,
      "['_": 4865,
      "direction": 4866,
      "ĠReg": 4867,
      "ĠIter": 4868,
      "Method": 4869,
      "tack": 4870,
      "Ġbeta": 4871,
      "topic": 4872,
      "Ġreci": 4873,
      "Ġworker": 4874,
      "ĠStart": 4875,
      "End": 4876,
      "ĠInitial": 4877,
      "Ġexpr": 4878,
      "eries": 4879,
      "cogn": 4880,
      "esca": 4881,
      "Ġremaining": 4882,
      "Ġdataframe": 4883,
      "Ġbackground": 4884,
      "Tag": 4885,
      "Ġinner": 4886,
      "Ġiterator": 4887,
      "Ġfixed": 4888,
      "pred": 4889,
      "isdir": 4890,
      "Ġiteration": 4891,
      "original": 4892,
      "usters": 4893,
      "Ġbins": 4894,
      "ssh": 4895,
      "ĠOut": 4896,
      "power": 4897,
      "Ġcols": 4898,
      "cu": 4899,
      "Ġdig": 4900,
      "Store": 4901,
      "Ġcert": 4902,
      "owner": 4903,
      "Ġfiltered": 4904,
      "oom": 4905,
      "chor": 4906,
      "dl": 4907,
      "Ġ\\'": 4908,
      "aa": 4909,
      "Sign": 4910,
      "Ġscheme": 4911,
      "Proper": 4912,
      "ĠForm": 4913,
      "ĠThere": 4914,
      "tainer": 4915,
      "static": 4916,
      "ĠSub": 4917,
      "ĠGiven": 4918,
      "Ġpotential": 4919,
      "estim": 4920,
      "serve": 4921,
      "Ġphase": 4922,
      "ĠCompute": 4923,
      "coordin": 4924,
      "free": 4925,
      "keyword": 4926,
      "ĠCreates": 4927,
      "ĠFI": 4928,
      "ĠBase": 4929,
      "epcopy": 4930,
      "Ġprovider": 4931,
      "Ġcp": 4932,
      "enu": 4933,
      "mar": 4934,
      "Ġpartic": 4935,
      "]],": 4936,
      "Mode": 4937,
      "Ġ[{": 4938,
      "Ġfreq": 4939,
      "`)": 4940,
      "ally": 4941,
      "transaction": 4942,
      "Ġmatched": 4943,
      "tables": 4944,
      "mk": 4945,
      "lier": 4946,
      "services": 4947,
      "Ġbasestring": 4948,
      "geo": 4949,
      "ĊĊĊĠĠĠĠĠĠĠ": 4950,
      "Pa": 4951,
      "Ġhostname": 4952,
      "Ġcb": 4953,
      "comb": 4954,
      "ĠFunction": 4955,
      "Ġstage": 4956,
      "ĠCode": 4957,
      "sock": 4958,
      "INT": 4959,
      "sessment": 4960,
      "Ġlate": 4961,
      "Ġcollections": 4962,
      "70": 4963,
      "Hel": 4964,
      "most": 4965,
      "ALL": 4966,
      "Ġpredict": 4967,
      "outputs": 4968,
      "Ad": 4969,
      "Ġspa": 4970,
      "ips": 4971,
      "Ġ<<": 4972,
      "Params": 4973,
      "Ġ':": 4974,
      "Ġindividual": 4975,
      "cryption": 4976,
      "Ġcatalog": 4977,
      "ector": 4978,
      "ĊĠĠĠĠĠĠĠĠĠĠĠĠĠĠĠĠĠĠĠĠĠĠĠĠĠĠĠĠĠĠĠĠĠĠĠĠĠĠĠĠĠĠĠĠĠ": 4979,
      "Ġlayout": 4980,
      "ĠNode": 4981,
      "zen": 4982,
      "embed": 4983,
      "rpc": 4984,
      "dn": 4985,
      "Ġscipy": 4986,
      "Ġcoordinate": 4987,
      ".'.": 4988,
      "media": 4989,
      "Ġsecurity": 4990,
      "Ġactiv": 4991,
      "Ġcompar": 4992,
      "FIG": 4993,
      "Num": 4994,
      "Range": 4995,
      "END": 4996,
      "logical": 4997,
      "usage": 4998,
      "packages": 4999,
      "Ġmembers": 5000,
      "fied": 5001,
      "Ġspan": 5002,
      "ipv": 5003,
      "fc": 5004,
      "Ġcore": 5005,
      "br": 5006,
      "family": 5007,
      "ĠNotImplemented": 5008,
      "Ġsolution": 5009,
      "Ġaddr": 5010,
      "Ġcases": 5011,
      "Ġsep": 5012,
      "pg": 5013,
      "Ġmass": 5014,
      "cla": 5015,
      "Ġsec": 5016,
      "magic": 5017,
      "Ġprior": 5018,
      "oring": 5019,
      "holder": 5020,
      "worker": 5021,
      "Ġener": 5022,
      "Ġmodifi": 5023,
      "Row": 5024,
      "Ġsimilar": 5025,
      "prob": 5026,
      "Color": 5027,
      "ssl": 5028,
      "sage": 5029,
      "PTION": 5030,
      "gz": 5031,
      "Ġdocumentation": 5032,
      "flush": 5033,
      "extension": 5034,
      "Ġ*=": 5035,
      "Ed": 5036,
      "Part": 5037,
      "Ġlinks": 5038,
      "AND": 5039,
      "('_": 5040,
      "ĠGenerate": 5041,
      "Job": 5042,
      "Ġchunks": 5043,
      "Ġuseful": 5044,
      "ROM": 5045,
      "uess": 5046,
      "ĠIndexError": 5047,
      "reen": 5048,
      "Ġhistory": 5049,
      "Ġitself": 5050,
      "duced": 5051,
      ")+": 5052,
      "Ġreturning": 5053,
      "Ġhelper": 5054,
      "sto": 5055,
      "olds": 5056,
      "26": 5057,
      "tic": 5058,
      "rency": 5059,
      "refresh": 5060,
      "Ġsurface": 5061,
      "cpu": 5062,
      "operator": 5063,
      "actor": 5064,
      "Ġintegr": 5065,
      "em": 5066,
      "wrapper": 5067,
      "lihood": 5068,
      "STR": 5069,
      "Ġcoords": 5070,
      ")\\": 5071,
      "edit": 5072,
      "otype": 5073,
      "Ġfore": 5074,
      "78": 5075,
      "ĠHTML": 5076,
      "GB": 5077,
      "delay": 5078,
      "tein": 5079,
      "security": 5080,
      "relation": 5081,
      "tl": 5082,
      "ĠAc": 5083,
      "ailf": 5084,
      "creen": 5085,
      "Ġæ": 5086,
      "parsed": 5087,
      "Ġtables": 5088,
      "partial": 5089,
      "ĠIDs": 5090,
      "kernel": 5091,
      "Ġ?": 5092,
      "internal": 5093,
      "ttp": 5094,
      "alance": 5095,
      "bos": 5096,
      "Parameter": 5097,
      "upported": 5098,
      "Ġforward": 5099,
      "Ġconfigured": 5100,
      "Ġallows": 5101,
      "allet": 5102,
      "sence": 5103,
      "Ġpositions": 5104,
      "Ġren": 5105,
      "loader": 5106,
      ")-": 5107,
      "inner": 5108,
      "Ġregular": 5109,
      "flatten": 5110,
      "Ġps": 5111,
      "Ġparsing": 5112,
      "Ġnull": 5113,
      "Ġauthentication": 5114,
      "struction": 5115,
      "raps": 5116,
      ")',": 5117,
      "Ġoperations": 5118,
      "Ġ\\\\": 5119,
      "attach": 5120,
      "verts": 5121,
      "(\"-": 5122,
      "feed": 5123,
      "false": 5124,
      "Ġattempt": 5125,
      "ARN": 5126,
      "scal": 5127,
      "Ġcreating": 5128,
      "requests": 5129,
      "Ġconv": 5130,
      "Dir": 5131,
      "Ġcurr": 5132,
      "Ġadmin": 5133,
      "Ġtick": 5134,
      "âĶĢ": 5135,
      "LL": 5136,
      "Write": 5137,
      "MENT": 5138,
      "Ġnormalized": 5139,
      "ond": 5140,
      ")**": 5141,
      "Ġconversion": 5142,
      "ĠOrderedDict": 5143,
      "identity": 5144,
      "elem": 5145,
      "Su": 5146,
      "Ġwrapped": 5147,
      "Ġbehavi": 5148,
      "~~": 5149,
      "functions": 5150,
      "ĠCall": 5151,
      ",))": 5152,
      "Ġresolve": 5153,
      "Ġcompatible": 5154,
      "Ġaltern": 5155,
      "ij": 5156,
      "Ġobs": 5157,
      "(':": 5158,
      "ptr": 5159,
      "ĠDB": 5160,
      "Ref": 5161,
      "Ġhook": 5162,
      "refs": 5163,
      "tp": 5164,
      "Ġâ": 5165,
      "png": 5166,
      "seg": 5167,
      "argin": 5168,
      "ract": 5169,
      "Ġexperiment": 5170,
      "Ġrect": 5171,
      "tries": 5172,
      "anti": 5173,
      "ragma": 5174,
      "wiki": 5175,
      "alf": 5176,
      "Ġnothing": 5177,
      "uses": 5178,
      "ĊĊĠĠĠĠĠĠĠĠĠ": 5179,
      "analysis": 5180,
      "Device": 5181,
      "Ġaround": 5182,
      "pairs": 5183,
      "Ġpretty": 5184,
      "Ġcalculated": 5185,
      "Ġdue": 5186,
      "ĠURI": 5187,
      "reverse": 5188,
      "Ġeps": 5189,
      "Ġdelay": 5190,
      "Ġservices": 5191,
      "DIR": 5192,
      "ranspose": 5193,
      "{}\".": 5194,
      "Int": 5195,
      "PA": 5196,
      "ĠAt": 5197,
      "Ġau": 5198,
      "Ġescape": 5199,
      "apping": 5200,
      "big": 5201,
      "Ġdependencies": 5202,
      "choice": 5203,
      "Ġreader": 5204,
      "Ġdriver": 5205,
      "proto": 5206,
      "Ġsomething": 5207,
      "crete": 5208,
      "cm": 5209,
      "Ġanaly": 5210,
      "')]": 5211,
      "selection": 5212,
      "lict": 5213,
      "calc": 5214,
      "notification": 5215,
      "Qt": 5216,
      "DATA": 5217,
      "SIZE": 5218,
      ".\\": 5219,
      "Ġdiag": 5220,
      "Ġbad": 5221,
      "ĠImage": 5222,
      "voke": 5223,
      "Ġloss": 5224,
      "slug": 5225,
      "Ġexternal": 5226,
      "Ġfd": 5227,
      "cepts": 5228,
      "prev": 5229,
      "disk": 5230,
      "ipping": 5231,
      "flux": 5232,
      "fasta": 5233,
      "forms": 5234,
      "Ġequ": 5235,
      "cio": 5236,
      "ĊĠĠĠĠĠĠĠĠĠĠĠĠĠĠĠĠĠĠĠĠĠĠĠĠĠĠĠĠĠĠĠĠĠĠĠĠĠĠĠĠĠĠĠĠĠĠ": 5237,
      "\"\\": 5238,
      "equal": 5239,
      "pose": 5240,
      "][\"": 5241,
      "Ġparticular": 5242,
      "Ġsecret": 5243,
      "ount": 5244,
      "Ġmx": 5245,
      "radi": 5246,
      "Ġvals": 5247,
      "stract": 5248,
      "fin": 5249,
      "Ġwhose": 5250,
      "MAT": 5251,
      "94": 5252,
      "cwd": 5253,
      "Ġ60": 5254,
      "cript": 5255,
      "failed": 5256,
      "bam": 5257,
      "snapshot": 5258,
      "export": 5259,
      "Ġcollect": 5260,
      "hosts": 5261,
      "Ġdeploy": 5262,
      "Ġio": 5263,
      "question": 5264,
      "ĠMax": 5265,
      "Ġlinear": 5266,
      "Ġ15": 5267,
      "UID": 5268,
      "Ġresid": 5269,
      "ĠHow": 5270,
      "Ġprecision": 5271,
      "atype": 5272,
      "Sp": 5273,
      "*.": 5274,
      "Ġtemperature": 5275,
      "Ġpixel": 5276,
      "1000": 5277,
      "Ġclosed": 5278,
      "pture": 5279,
      "Ġts": 5280,
      "tage": 5281,
      "ĠHandle": 5282,
      "optim": 5283,
      "ĠWrite": 5284,
      "ĠMessage": 5285,
      "asarray": 5286,
      "Find": 5287,
      "ider": 5288,
      "Ġdefine": 5289,
      "ĠOption": 5290,
      "aves": 5291,
      "Ġblob": 5292,
      "radius": 5293,
      "archive": 5294,
      "Ġtrigger": 5295,
      "Ġkeywords": 5296,
      "Ġtor": 5297,
      "Ġedit": 5298,
      "tour": 5299,
      "ĠĠĠĠĠĠĠĠĠĠĠĠĠĠĠ": 5300,
      "MAX": 5301,
      "Column": 5302,
      "Ġstrict": 5303,
      "ongo": 5304,
      "olders": 5305,
      "COL": 5306,
      "ĠSalt": 5307,
      "Ġbutton": 5308,
      "orth": 5309,
      "mut": 5310,
      "CM": 5311,
      "reply": 5312,
      "Ġpur": 5313,
      "Ġratio": 5314,
      "Task": 5315,
      "ACE": 5316,
      "ĠResponse": 5317,
      "ierarchy": 5318,
      "forward": 5319,
      "PUT": 5320,
      "_(": 5321,
      "YY": 5322,
      "cover": 5323,
      "77": 5324,
      "vlan": 5325,
      "connected": 5326,
      "vol": 5327,
      "iling": 5328,
      "Ġboot": 5329,
      "ftime": 5330,
      "atory": 5331,
      "CL": 5332,
      "pick": 5333,
      "uman": 5334,
      "Ġgreater": 5335,
      "ationError": 5336,
      "Ġresulting": 5337,
      "Ġindexes": 5338,
      "Ġplease": 5339,
      "linear": 5340,
      "calcul": 5341,
      "\"\"\",": 5342,
      "posure": 5343,
      "Work": 5344,
      "Ġisn": 5345,
      "seek": 5346,
      "Ġada": 5347,
      "istic": 5348,
      "TED": 5349,
      "wb": 5350,
      "Ġscores": 5351,
      "Ġterms": 5352,
      "selected": 5353,
      "Ġactually": 5354,
      "NE": 5355,
      "attention": 5356,
      "Ġreading": 5357,
      "Ġdays": 5358,
      "clusive": 5359,
      "resolve": 5360,
      "scores": 5361,
      "Ġcertificate": 5362,
      "ĠOne": 5363,
      "aggreg": 5364,
      "28": 5365,
      "Open": 5366,
      "ĠClo": 5367,
      "lastic": 5368,
      "reason": 5369,
      "ĠArray": 5370,
      "Build": 5371,
      "button": 5372,
      "ools": 5373,
      "DEBUG": 5374,
      "inish": 5375,
      "Ġsto": 5376,
      "('{": 5377,
      "ĠCalculate": 5378,
      "ĠNotImplementedError": 5379,
      "Ġrv": 5380,
      "Ġtran": 5381,
      "Ġseparate": 5382,
      "Ġ],": 5383,
      "LECT": 5384,
      "Ġ\"<": 5385,
      "[:]": 5386,
      "Ġ:]": 5387,
      "Ġmade": 5388,
      "ctionaries": 5389,
      "configs": 5390,
      "ĠPO": 5391,
      "orizont": 5392,
      "escape": 5393,
      "rank": 5394,
      "Ġpermissions": 5395,
      "\">": 5396,
      "lst": 5397,
      "rum": 5398,
      "Ġturn": 5399,
      "Ġdirectories": 5400,
      "/'": 5401,
      "Ġwriter": 5402,
      "terms": 5403,
      "cached": 5404,
      "Ġrepr": 5405,
      "rstrip": 5406,
      "plan": 5407,
      "unic": 5408,
      "[(": 5409,
      "px": 5410,
      "clar": 5411,
      "signed": 5412,
      "utc": 5413,
      "Ġbuilt": 5414,
      "Ġfilenames": 5415,
      "override": 5416,
      "Ġuid": 5417,
      "predict": 5418,
      "cov": 5419,
      "ulk": 5420,
      "prompt": 5421,
      "Ġcandidate": 5422,
      "compat": 5423,
      "ValueError": 5424,
      "Ġpack": 5425,
      "Ġpatch": 5426,
      "viation": 5427,
      "Ġidentity": 5428,
      "accept": 5429,
      "Ġpermission": 5430,
      "suppress": 5431,
      "Ġshutil": 5432,
      "Ġupdates": 5433,
      "ORT": 5434,
      "Ġequivalent": 5435,
      "ĠModel": 5436,
      "Ġunknown": 5437,
      "Ġworkflow": 5438,
      "Ġrefresh": 5439,
      "ĊĊĠĠĠĠĠĠĠĠĠĠ": 5440,
      "Change": 5441,
      "]).": 5442,
      "Ġencode": 5443,
      "ĠMA": 5444,
      "lar": 5445,
      "Ġlayers": 5446,
      "Ġvertex": 5447,
      "INFO": 5448,
      "ritical": 5449,
      "ĠNe": 5450,
      "orter": 5451,
      "Ġinterpre": 5452,
      "Ġswitch": 5453,
      "Ġowner": 5454,
      "Label": 5455,
      "bi": 5456,
      "Ġden": 5457,
      "Ġuuid": 5458,
      "Ġappe": 5459,
      "ysical": 5460,
      "aw": 5461,
      "iver": 5462,
      "Ġspect": 5463,
      "specimen": 5464,
      "Dyn": 5465,
      "Search": 5466,
      "menu": 5467,
      "RED": 5468,
      "Ġmedia": 5469,
      "HER": 5470,
      "candid": 5471,
      "yncio": 5472,
      "enable": 5473,
      "ĠSo": 5474,
      "BO": 5475,
      "ĠFilter": 5476,
      "Ġsubset": 5477,
      "Ġqui": 5478,
      "Auto": 5479,
      "Ġtheta": 5480,
      "Ġseen": 5481,
      "Ġproc": 5482,
      "Ġ32": 5483,
      "åĪ": 5484,
      "marker": 5485,
      "ĊĊĠĠĠĠĠĠĠĠĠĠĠĠĠĠĠĠĠĠĠĠĠĠĠ": 5486,
      "Ġincluding": 5487,
      "wards": 5488,
      "environment": 5489,
      "resid": 5490,
      "Ġ'#": 5491,
      "iler": 5492,
      "Ġfs": 5493,
      "soft": 5494,
      "detail": 5495,
      "instances": 5496,
      "All": 5497,
      "Ġgeometry": 5498,
      "Ġmerged": 5499,
      "nu": 5500,
      "Ġshut": 5501,
      "ĠDictionary": 5502,
      "frames": 5503,
      "74": 5504,
      ":`.": 5505,
      "PY": 5506,
      "Ġ``'": 5507,
      "eds": 5508,
      "pus": 5509,
      "destination": 5510,
      "sr": 5511,
      "minion": 5512,
      "band": 5513,
      "Ġsegments": 5514,
      "uble": 5515,
      "amount": 5516,
      "modified": 5517,
      "Max": 5518,
      "blob": 5519,
      "editor": 5520,
      "reduce": 5521,
      "PER": 5522,
      "ueue": 5523,
      "ĠNOTE": 5524,
      "utype": 5525,
      "ĊĊĠĠĠĠĠĠ": 5526,
      "ĠQuery": 5527,
      "dp": 5528,
      "lices": 5529,
      "ĠWindows": 5530,
      "Ġshared": 5531,
      "ado": 5532,
      "Ġindicating": 5533,
      "normalize": 5534,
      "********": 5535,
      "Ġoutfile": 5536,
      "priority": 5537,
      "tol": 5538,
      "break": 5539,
      "+'": 5540,
      "bus": 5541,
      "transport": 5542,
      "Ġnumeric": 5543,
      "igen": 5544,
      "packet": 5545,
      "Ġhand": 5546,
      "clip": 5547,
      "onical": 5548,
      "Ġrecursive": 5549,
      "lists": 5550,
      "rase": 5551,
      "ĠĠĠĠĠĠĠĠĠĠĠĠĠĠ": 5552,
      "ĠTra": 5553,
      "bank": 5554,
      "Ġordered": 5555,
      "Ġreads": 5556,
      "Ġmultip": 5557,
      "Ġthree": 5558,
      "sections": 5559,
      "Ġsw": 5560,
      "Ġdeprecated": 5561,
      "hi": 5562,
      "ĠAss": 5563,
      "Ġchecked": 5564,
      "è¯": 5565,
      "unknown": 5566,
      "istration": 5567,
      "IF": 5568,
      "Ġproto": 5569,
      "push": 5570,
      "semble": 5571,
      "bosity": 5572,
      "glob": 5573,
      "Ġ::": 5574,
      "Ġnoise": 5575,
      "library": 5576,
      "ulated": 5577,
      "Ġcurve": 5578,
      "ticks": 5579,
      "tached": 5580,
      "ouse": 5581,
      "Ġobtain": 5582,
      "rant": 5583,
      "indexes": 5584,
      "Ġbel": 5585,
      "cluded": 5586,
      "Logger": 5587,
      "Tensor": 5588,
      "ĠUT": 5589,
      "Layer": 5590,
      "extmethods": 5591,
      "urls": 5592,
      "Ġextmethods": 5593,
      "DynClass": 5594,
      "Ġjobs": 5595,
      "ĠImportError": 5596,
      "Cur": 5597,
      "cred": 5598,
      "Ġpragma": 5599,
      "AME": 5600,
      "Ġflux": 5601,
      "Network": 5602,
      "Ġretrie": 5603,
      "Ġdefinitions": 5604,
      "Ġcomplex": 5605,
      "DD": 5606,
      "orizontal": 5607,
      "Variable": 5608,
      "Ġ30": 5609,
      "props": 5610,
      "Ġpriority": 5611,
      "Ġtz": 5612,
      "ĠSets": 5613,
      "eq": 5614,
      "sw": 5615,
      "Ġcells": 5616,
      "ĠMust": 5617,
      "nl": 5618,
      "Ġsync": 5619,
      "gnitude": 5620,
      "repository": 5621,
      "Ġassigned": 5622,
      "Ġeval": 5623,
      "('.')": 5624,
      "ilon": 5625,
      "Ġentire": 5626,
      "Page": 5627,
      "enate": 5628,
      "Ġmanage": 5629,
      "^{": 5630,
      "anded": 5631,
      "(\"--": 5632,
      "azard": 5633,
      ".\".": 5634,
      "Ġ).": 5635,
      "Ġfails": 5636,
      "Ġlooking": 5637,
      "ummy": 5638,
      "based": 5639,
      "Ġdevices": 5640,
      "keywords": 5641,
      "Length": 5642,
      "ims": 5643,
      "emit": 5644,
      "Parameters": 5645,
      "PU": 5646,
      "handlers": 5647,
      "grad": 5648,
      "IST": 5649,
      "ading": 5650,
      "Handle": 5651,
      "Ġcost": 5652,
      "39": 5653,
      "pot": 5654,
      "bad": 5655,
      "cn": 5656,
      "Ġcomments": 5657,
      "Ġcross": 5658,
      "Ġtransition": 5659,
      "strftime": 5660,
      "selector": 5661,
      "rectory": 5662,
      ")(": 5663,
      "constants": 5664,
      "Ġmount": 5665,
      "Ġvectors": 5666,
      "Ġannotation": 5667,
      "rypt": 5668,
      "Act": 5669,
      "Exist": 5670,
      "Ġenergy": 5671,
      "SD": 5672,
      "peak": 5673,
      "Ġadjust": 5674,
      ".%": 5675,
      "era": 5676,
      "Ġcalc": 5677,
      "arest": 5678,
      "ffici": 5679,
      "ĠFirst": 5680,
      "VERSION": 5681,
      "roy": 5682,
      "ĠMo": 5683,
      "Ġstatic": 5684,
      "lished": 5685,
      "lt": 5686,
      "figure": 5687,
      "Ġexpand": 5688,
      "versed": 5689,
      ">\"": 5690,
      "Ġ\"'": 5691,
      "Ġsock": 5692,
      "JSON": 5693,
      "redirect": 5694,
      "icip": 5695,
      "visible": 5696,
      "supported": 5697,
      "calls": 5698,
      "Ġschedule": 5699,
      "trig": 5700,
      "SIG": 5701,
      "geometry": 5702,
      "CA": 5703,
      "Ġcourse": 5704,
      "Ġgeo": 5705,
      "Ġcompare": 5706,
      "docker": 5707,
      "tar": 5708,
      "getattr": 5709,
      "gent": 5710,
      "ĠInter": 5711,
      "which": 5712,
      "Ġbottom": 5713,
      "Ġsparse": 5714,
      "CONFIG": 5715,
      "Ġpmag": 5716,
      "ĠText": 5717,
      "Ġpeer": 5718,
      "Ġbig": 5719,
      "Execution": 5720,
      "ordered": 5721,
      "aussian": 5722,
      "pages": 5723,
      "Ġfun": 5724,
      "Ġmot": 5725,
      "ison": 5726,
      "cheduler": 5727,
      "Ġ'{}'": 5728,
      ");": 5729,
      "()),": 5730,
      "Ġcast": 5731,
      "subprocess": 5732,
      "Ġord": 5733,
      "NG": 5734,
      "rd": 5735,
      "cha": 5736,
      "many": 5737,
      "\"'": 5738,
      "/(": 5739,
      "uation": 5740,
      "adcast": 5741,
      "Ġes": 5742,
      "reads": 5743,
      "Min": 5744,
      "ĠĠĠĠĠĠĠĠĠĠĠĠĠ": 5745,
      "Ġgu": 5746,
      "']),": 5747,
      "Ġunpack": 5748,
      "atrix": 5749,
      "ĊĠĠĠĠĠĠĠĠĠĠĠĠĊĠĠĠĠĠĠĠĠĠĠĠ": 5750,
      "allowed": 5751,
      "Ġgood": 5752,
      "wn": 5753,
      "Ġrotation": 5754,
      "devices": 5755,
      "Ġfree": 5756,
      "Ġrev": 5757,
      "Ġmis": 5758,
      "ĠAuth": 5759,
      "ĠNew": 5760,
      "pandas": 5761,
      "ĠTry": 5762,
      "pers": 5763,
      "Ġvol": 5764,
      "Ġkeyid": 5765,
      "levels": 5766,
      "Ġflat": 5767,
      "assert": 5768,
      "Ġdictionaries": 5769,
      "Can": 5770,
      "([[": 5771,
      "PIPE": 5772,
      "Pri": 5773,
      "price": 5774,
      "erred": 5775,
      "\"][": 5776,
      "ONE": 5777,
      "ilent": 5778,
      "park": 5779,
      "Bo": 5780,
      "USER": 5781,
      "Ġconstant": 5782,
      "kedirs": 5783,
      "Ġindicates": 5784,
      "car": 5785,
      "Ġpeak": 5786,
      "ĠOutput": 5787,
      "Ġprompt": 5788,
      "pipeline": 5789,
      "Api": 5790,
      "nsure": 5791,
      "Ġep": 5792,
      "findall": 5793,
      "_%": 5794,
      "aN": 5795,
      "Ġphi": 5796,
      "plugins": 5797,
      "FIX": 5798,
      "FIEL": 5799,
      "uer": 5800,
      "ĊĠĠ": 5801,
      "boolean": 5802,
      "Ġpixels": 5803,
      "Ġscreen": 5804,
      "ĠClient": 5805,
      "kit": 5806,
      "Ġmut": 5807,
      "Ġsampling": 5808,
      "ĠShould": 5809,
      "Ġchoice": 5810,
      "Ġlatest": 5811,
      "isinstance": 5812,
      "II": 5813,
      "HEAD": 5814,
      "itespace": 5815,
      "If": 5816,
      "Ġtimezone": 5817,
      "Ġ'':": 5818,
      "Ġdensity": 5819,
      "()``": 5820,
      "shut": 5821,
      "################################": 5822,
      "Ġsyn": 5823,
      "ĠNOT": 5824,
      "Ġreferences": 5825,
      "Ġdouble": 5826,
      "lang": 5827,
      "Ġnx": 5828,
      "Ġcomputed": 5829,
      "Over": 5830,
      "alth": 5831,
      "Ġlarge": 5832,
      "derer": 5833,
      "external": 5834,
      "strap": 5835,
      "stage": 5836,
      "Ġtraceback": 5837,
      "ixed": 5838,
      "closed": 5839,
      "ĠThese": 5840,
      "uest": 5841,
      "screen": 5842,
      "76": 5843,
      "nr": 5844,
      "endar": 5845,
      "Ġshift": 5846,
      "plots": 5847,
      "flat": 5848,
      "blems": 5849,
      "Ġ])": 5850,
      "ĠST": 5851,
      "06": 5852,
      "machine": 5853,
      "ĠDesc": 5854,
      "255": 5855,
      "Ġframes": 5856,
      "versions": 5857,
      "inger": 5858,
      "publish": 5859,
      "jac": 5860,
      "Sequence": 5861,
      "(\"/": 5862,
      "ĠCO": 5863,
      "ĊĠĠĠĠĠĠĠĠĠĠĠĠĠĠĠĠĠĠĠĠĠĠĠĠĠĠĠĠĠĠĠĠĠĠĠĠĠĠĠĠĠĠĠĠĠĠĠĠĠĠĠ": 5864,
      "ja": 5865,
      "Remove": 5866,
      "_:": 5867,
      "Red": 5868,
      "walk": 5869,
      "runtime": 5870,
      "Ġglob": 5871,
      "credentials": 5872,
      "andling": 5873,
      "prepare": 5874,
      "updated": 5875,
      "ULL": 5876,
      "ĠProcess": 5877,
      "ram": 5878,
      "Ġsender": 5879,
      "week": 5880,
      "CTION": 5881,
      "ired": 5882,
      "Ġwa": 5883,
      "itation": 5884,
      "FS": 5885,
      "Ġderiv": 5886,
      "ĠTuple": 5887,
      "perm": 5888,
      "inds": 5889,
      "moves": 5890,
      "`):": 5891,
      "Ġdescriptor": 5892,
      "Ġdocstring": 5893,
      "21": 5894,
      "Ġauthentic": 5895,
      "Ġquote": 5896,
      "builder": 5897,
      "Ġfh": 5898,
      "Ġms": 5899,
      "Ġtar": 5900,
      "ish": 5901,
      "Ġruntime": 5902,
      "switch": 5903,
      "Values": 5904,
      "aws": 5905,
      "compress": 5906,
      "Ġdocker": 5907,
      "linalg": 5908,
      "=='": 5909,
      "æĸ": 5910,
      "named": 5911,
      "star": 5912,
      "Ġinplace": 5913,
      "Is": 5914,
      "atial": 5915,
      "workflow": 5916,
      "44": 5917,
      "WN": 5918,
      ".'''": 5919,
      ">'": 5920,
      "simple": 5921,
      "XT": 5922,
      "lying": 5923,
      "cap": 5924,
      "Ġmodify": 5925,
      "ĠBack": 5926,
      "bg": 5927,
      "Ġconditions": 5928,
      "scalar": 5929,
      "wt": 5930,
      "åĲ": 5931,
      "':'": 5932,
      "prot": 5933,
      "DU": 5934,
      "Ġssh": 5935,
      "Ġdegrees": 5936,
      "encoded": 5937,
      "Ġradi": 5938,
      "tod": 5939,
      "Ġdry": 5940,
      "Ġsentence": 5941,
      "Ġmime": 5942,
      "Ġflatten": 5943,
      "Ġselector": 5944,
      "Ġunless": 5945,
      "segments": 5946,
      "Ġdelimiter": 5947,
      "Ġlimits": 5948,
      "dependent": 5949,
      "Access": 5950,
      "unset": 5951,
      "yment": 5952,
      "Ġdx": 5953,
      "Ġrh": 5954,
      "ĠOver": 5955,
      "cursively": 5956,
      "atic": 5957,
      "rad": 5958,
      "andatory": 5959,
      "Ġurllib": 5960,
      "Ġassumed": 5961,
      "monitor": 5962,
      "FC": 5963,
      "è¿": 5964,
      "Ġchoices": 5965,
      "tor": 5966,
      "Ġface": 5967,
      "covery": 5968,
      "Ġpopulate": 5969,
      "relative": 5970,
      "osen": 5971,
      "existing": 5972,
      "ĠMethod": 5973,
      "deg": 5974,
      "Ġsubnet": 5975,
      "---+": 5976,
      "ĠStop": 5977,
      "Ġvide": 5978,
      "chars": 5979,
      "future": 5980,
      "logs": 5981,
      "Ġpublish": 5982,
      "rho": 5983,
      "Ġminutes": 5984,
      "Ġqual": 5985,
      "solution": 5986,
      "Ġcontroller": 5987,
      "Ġlevels": 5988,
      "Ġones": 5989,
      "PL": 5990,
      "CODE": 5991,
      "æľ": 5992,
      "Ġcer": 5993,
      "Ġsha": 5994,
      "lapsed": 5995,
      "disable": 5996,
      "SV": 5997,
      "sect": 5998,
      "Ġseg": 5999,
      "Ġband": 6000,
      "threads": 6001,
      "With": 6002,
      "Ġgate": 6003,
      "Ġthreads": 6004,
      "lv": 6005,
      "Ġrc": 6006,
      "grams": 6007,
      "Ġrepresents": 6008,
      "LETE": 6009,
      "cid": 6010,
      "omial": 6011,
      "splitlines": 6012,
      "cally": 6013,
      "ĠOperation": 6014,
      "Ġnu": 6015,
      "aff": 6016,
      "Ġhidden": 6017,
      "Reference": 6018,
      "bottom": 6019,
      "Header": 6020,
      "Ġrecent": 6021,
      "Ġsubclass": 6022,
      "Ġresolution": 6023,
      "ĠElement": 6024,
      "ranches": 6025,
      "ĠAWS": 6026,
      "Names": 6027,
      "Delete": 6028,
      "alet": 6029,
      "Ġmeas": 6030,
      "Ġvertices": 6031,
      "Ġimmediate": 6032,
      "gamma": 6033,
      "mes": 6034,
      "Ġwatch": 6035,
      "Ġsubscription": 6036,
      "Ġtemporary": 6037,
      "ĠResource": 6038,
      "maps": 6039,
      "Ġcloud": 6040,
      "mpler": 6041,
      "SL": 6042,
      "Ġrecur": 6043,
      "curacy": 6044,
      "Collection": 6045,
      "ptime": 6046,
      "Ġ24": 6047,
      "css": 6048,
      "Ġevaluate": 6049,
      "ini": 6050,
      "roid": 6051,
      "cod": 6052,
      "fidence": 6053,
      "sites": 6054,
      "ĠTensor": 6055,
      "Ġspeed": 6056,
      "roles": 6057,
      "Ġalignment": 6058,
      "schedule": 6059,
      "Ġev": 6060,
      "88": 6061,
      "sheet": 6062,
      "splitext": 6063,
      "------------": 6064,
      "latest": 6065,
      "Ġstarted": 6066,
      "semb": 6067,
      "Ġparallel": 6068,
      "Ġvery": 6069,
      "Ġadding": 6070,
      "sel": 6071,
      "ird": 6072,
      "Container": 6073,
      "29": 6074,
      "Ġbasic": 6075,
      "ORY": 6076,
      "Ġfamily": 6077,
      "ientation": 6078,
      "frequency": 6079,
      "padding": 6080,
      "repe": 6081,
      "Ġxy": 6082,
      "Const": 6083,
      "(%": 6084,
      "CF": 6085,
      "double": 6086,
      "liance": 6087,
      "ĠUnicode": 6088,
      "ĠGraph": 6089,
      "Timeout": 6090,
      "Results": 6091,
      "servations": 6092,
      "Ġauthorization": 6093,
      "Ġcos": 6094,
      "nc": 6095,
      "ffset": 6096,
      "pending": 6097,
      "related": 6098,
      "Ġcopi": 6099,
      "virtual": 6100,
      "Ġsuccessfully": 6101,
      "evalu": 6102,
      "pology": 6103,
      "super": 6104,
      "MAP": 6105,
      "izing": 6106,
      "qq": 6107,
      "ĠTake": 6108,
      "ystems": 6109,
      "Ġartifact": 6110,
      "Port": 6111,
      "digit": 6112,
      "ĠWork": 6113,
      "dependencies": 6114,
      "rgb": 6115,
      "ategy": 6116,
      "stmt": 6117,
      "Ġcaller": 6118,
      "fft": 6119,
      "Ġrdf": 6120,
      "Be": 6121,
      "tection": 6122,
      "decor": 6123,
      "primary": 6124,
      "Only": 6125,
      "cost": 6126,
      "Ġdicts": 6127,
      "black": 6128,
      "energy": 6129,
      "trie": 6130,
      "levant": 6131,
      "basic": 6132,
      "Ġtransport": 6133,
      "DATE": 6134,
      "Ġpull": 6135,
      "coming": 6136,
      "Ġconstructor": 6137,
      "Ġaddresses": 6138,
      "Ġinitialize": 6139,
      "complex": 6140,
      "NOT": 6141,
      "Up": 6142,
      "teger": 6143,
      "ĠPlease": 6144,
      "Ġdifference": 6145,
      "Ġcreates": 6146,
      "Ġhappen": 6147,
      "Ġcomma": 6148,
      "ka": 6149,
      "ale": 6150,
      "Gets": 6151,
      "Ġsensor": 6152,
      "Ġ\")": 6153,
      "Ġ19": 6154,
      "Ġ255": 6155,
      "ĠExec": 6156,
      "RR": 6157,
      "mot": 6158,
      "ĊĠĠĠĠĠĠĠĠĠĠĠĠĠĠĠĠĠĠĠĠĠĠĠĠĠĠĠĠĠĠĠĠĠĠĠĠĠĠĠĠĠĠĠĠĠĠĠĠĠ": 6159,
      "bias": 6160,
      "rp": 6161,
      "Ext": 6162,
      "poly": 6163,
      "Property": 6164,
      "MI": 6165,
      "peer": 6166,
      "45": 6167,
      "Ġalle": 6168,
      "}]": 6169,
      ">,": 6170,
      "You": 6171,
      "dm": 6172,
      "hour": 6173,
      "Ġlocations": 6174,
      "Ġpred": 6175,
      "Ġpatterns": 6176,
      "distribution": 6177,
      "Ne": 6178,
      "']):": 6179,
      "using": 6180,
      "inder": 6181,
      "31": 6182,
      "bre": 6183,
      "router": 6184,
      "Ġlongitude": 6185,
      "Speci": 6186,
      "deploy": 6187,
      "Ġear": 6188,
      "Ġraises": 6189,
      "Ġdocs": 6190,
      "CRE": 6191,
      "nx": 6192,
      "average": 6193,
      "Ġdecimal": 6194,
      "acter": 6195,
      "ĠState": 6196,
      "extensions": 6197,
      "Ġfraction": 6198,
      "Ġpress": 6199,
      "Ġ(-": 6200,
      "ĠAd": 6201,
      "makedirs": 6202,
      "Ġhosts": 6203,
      "click": 6204,
      "urations": 6205,
      "Ġaz": 6206,
      "categories": 6207,
      "Ġprobability": 6208,
      "duplic": 6209,
      "lour": 6210,
      "generated": 6211,
      "08": 6212,
      "Ġcontact": 6213,
      "Ġchecking": 6214,
      "umed": 6215,
      "Ġlineno": 6216,
      "ĠSeries": 6217,
      "sizes": 6218,
      "Ġwx": 6219,
      "Ġoverlap": 6220,
      "chr": 6221,
      "!\")": 6222,
      "Ġexecuted": 6223,
      "([\"": 6224,
      "AF": 6225,
      "recv": 6226,
      "phase": 6227,
      "ARNING": 6228,
      "('{}": 6229,
      "ĠCON": 6230,
      "Ġprocesses": 6231,
      "Ġcard": 6232,
      "pab": 6233,
      "OF": 6234,
      "vocab": 6235,
      "Ġiterations": 6236,
      "ropo": 6237,
      "REQU": 6238,
      "Ġlogs": 6239,
      "timedelta": 6240,
      "Ġspecifying": 6241,
      "tle": 6242,
      "joint": 6243,
      "uch": 6244,
      "ĠVM": 6245,
      "Ġanything": 6246,
      "syn": 6247,
      "Ġconstraints": 6248,
      "ĊĠĠĠĠĠĠĠĠĠĠĠĠĠĠĠĠĠĠĠĠĠĠĠĠĠĠĠĠĠĠĠĠĠĠĠĠĠĠĠĠĠĠĠĠĠĠĠĠĠĠ": 6249,
      "%%": 6250,
      "Ġvs": 6251,
      "'},": 6252,
      "Match": 6253,
      "ior": 6254,
      "Ġ50": 6255,
      "specific": 6256,
      "Ġok": 6257,
      "weet": 6258,
      "Ġsigned": 6259,
      "circ": 6260,
      "deepcopy": 6261,
      "Ġcountry": 6262,
      "Ġeditor": 6263,
      "New": 6264,
      "major": 6265,
      "prog": 6266,
      "CESS": 6267,
      "alette": 6268,
      "Ġqueryset": 6269,
      "Ġextracted": 6270,
      "Metadata": 6271,
      "inary": 6272,
      "chrom": 6273,
      "Ġgive": 6274,
      "king": 6275,
      "Thread": 6276,
      "HERE": 6277,
      "Ġ(``": 6278,
      "Ġeverything": 6279,
      "Ġbuilder": 6280,
      "gether": 6281,
      "Ġhard": 6282,
      "erical": 6283,
      "chan": 6284,
      "ATOR": 6285,
      "Ali": 6286,
      "arc": 6287,
      "Ġwhole": 6288,
      "comments": 6289,
      "coordinates": 6290,
      "leaf": 6291,
      "diffe": 6292,
      "Ge": 6293,
      "Ġgamma": 6294,
      "program": 6295,
      "Ġcreation": 6296,
      "--+": 6297,
      "Ġdepending": 6298,
      "decimal": 6299,
      "ĠTable": 6300,
      "Ġchrom": 6301,
      "Ġlatitude": 6302,
      "anization": 6303,
      "ully": 6304,
      "plus": 6305,
      "-+-+-+-+-+-+-+-+": 6306,
      "Ġrho": 6307,
      "ĠSQL": 6308,
      "AA": 6309,
      "ike": 6310,
      "Ġvocab": 6311,
      "gl": 6312,
      "Ġperm": 6313,
      "Ġintegers": 6314,
      "Ġcookie": 6315,
      "ĠExtract": 6316,
      "Ġlang": 6317,
      "bb": 6318,
      "Ġprojection": 6319,
      "Ġstarts": 6320,
      "Ġteam": 6321,
      "gateway": 6322,
      "Ġbus": 6323,
      "Ġboundary": 6324,
      "Configuration": 6325,
      "locations": 6326,
      "Pol": 6327,
      "sparse": 6328,
      "ital": 6329,
      "Ġprevent": 6330,
      "Mem": 6331,
      "Ġcodes": 6332,
      "ĠFROM": 6333,
      "Ġri": 6334,
      "imit": 6335,
      "Ġ'.'": 6336,
      "ned": 6337,
      "9999": 6338,
      "âĶĢâĶĢ": 6339,
      "Ġreduce": 6340,
      "ĠAdditional": 6341,
      "ail": 6342,
      "wraps": 6343,
      "ĠGroup": 6344,
      "fixed": 6345,
      "okies": 6346,
      "Ġcompleted": 6347,
      "Ġrelationship": 6348,
      "MIN": 6349,
      "](": 6350,
      "Ġsv": 6351,
      "Ġhit": 6352,
      "Dataset": 6353,
      "Ġargparse": 6354,
      "æķ": 6355,
      "dep": 6356,
      "rences": 6357,
      "mis": 6358,
      "Ġconnections": 6359,
      "Ġquant": 6360,
      "Ġconcat": 6361,
      "Ġ11": 6362,
      "ĠDef": 6363,
      "Ġboto": 6364,
      "cycle": 6365,
      "čĊĠĠĠĠĠĠĠĠĠĠĠĠĠĠĠĠĠĠĠĠĠĠĠ": 6366,
      "ĠUsed": 6367,
      "Ġstatistics": 6368,
      "Ġprepare": 6369,
      "ĠDelete": 6370,
      "Ġxrange": 6371,
      "Back": 6372,
      "ART": 6373,
      "Ġincludes": 6374,
      "gap": 6375,
      "{})": 6376,
      "_'": 6377,
      "rv": 6378,
      "aster": 6379,
      "ĠOR": 6380,
      "Exit": 6381,
      "ised": 6382,
      "multip": 6383,
      "tep": 6384,
      "Ġnever": 6385,
      "oted": 6386,
      "Generate": 6387,
      "cles": 6388,
      "Ġsymbols": 6389,
      "ĠSend": 6390,
      "manage": 6391,
      "LOGGER": 6392,
      "Ġcred": 6393,
      "Ax": 6394,
      "Ġseparator": 6395,
      "EST": 6396,
      "Ġbehavior": 6397,
      "Ġwrong": 6398,
      "'ll": 6399,
      "icon": 6400,
      "Order": 6401,
      "CI": 6402,
      "Ġrespon": 6403,
      "chat": 6404,
      "Uni": 6405,
      "Func": 6406,
      "ĠRed": 6407,
      ")``": 6408,
      ",,": 6409,
      "corr": 6410,
      "ĠResult": 6411,
      "Ġpages": 6412,
      "Ġ'/'": 6413,
      "Ġduplicate": 6414,
      "Ġaudio": 6415,
      "enter": 6416,
      "moved": 6417,
      "ario": 6418,
      "redis": 6419,
      "Target": 6420,
      "reci": 6421,
      "adjust": 6422,
      "('<": 6423,
      ",),": 6424,
      "Ġasyncio": 6425,
      "LS": 6426,
      "Ġsupports": 6427,
      "Ġ(`": 6428,
      "Ġsol": 6429,
      "'``": 6430,
      "game": 6431,
      "Ġdigest": 6432,
      "transpose": 6433,
      "allable": 6434,
      "lec": 6435,
      "validation": 6436,
      "legend": 6437,
      "ĠGe": 6438,
      "views": 6439,
      "Ġcalculation": 6440,
      "Ġexplicitly": 6441,
      "attice": 6442,
      "Ġperformed": 6443,
      "pointer": 6444,
      "Ġprice": 6445,
      "Module": 6446,
      "descriptor": 6447,
      "Ġeas": 6448,
      "Ġ\"\")": 6449,
      "Formatter": 6450,
      "PT": 6451,
      "Ġclip": 6452,
      "Ġdependency": 6453,
      ")],": 6454,
      "ĠáĦ": 6455,
      "atoms": 6456,
      "algorithm": 6457,
      "Options": 6458,
      "Ġfinished": 6459,
      "Ġplay": 6460,
      "course": 6461,
      "Ġbackup": 6462,
      "Ġrequirements": 6463,
      "CHE": 6464,
      "Ph": 6465,
      "controller": 6466,
      "Ġenough": 6467,
      "adapter": 6468,
      "Ġsimply": 6469,
      "limits": 6470,
      "79": 6471,
      "callable": 6472,
      "imple": 6473,
      "rou": 6474,
      "Ġintervals": 6475,
      "Tuple": 6476,
      "ffic": 6477,
      "ĠLe": 6478,
      "Child": 6479,
      "umbna": 6480,
      "Ġ=>": 6481,
      "Ġdd": 6482,
      "Ġlonger": 6483,
      ":,": 6484,
      "Ġdegree": 6485,
      "Ġmenu": 6486,
      "oked": 6487,
      "angles": 6488,
      "Ġmandatory": 6489,
      "Ġruns": 6490,
      "ĠUnion": 6491,
      "Ġcycle": 6492,
      "contin": 6493,
      "Keys": 6494,
      "video": 6495,
      "Ġvideo": 6496,
      "Ġenviron": 6497,
      "vered": 6498,
      "atives": 6499,
      "osite": 6500,
      "Ġminion": 6501,
      "Meta": 6502,
      "AG": 6503,
      "cnt": 6504,
      "alan": 6505,
      "vertices": 6506,
      "Ġcause": 6507,
      "crement": 6508,
      "anit": 6509,
      "Ġbetter": 6510,
      "Ġtaken": 6511,
      "alignment": 6512,
      "FORMAT": 6513,
      "Ġcontract": 6514,
      "effs": 6515,
      "Initial": 6516,
      "çĶ": 6517,
      "Ġbasis": 6518,
      "ĠCurrent": 6519,
      "FLA": 6520,
      "Ġrestart": 6521,
      "ĠEvent": 6522,
      "Ġchecksum": 6523,
      "Ġserialized": 6524,
      "kip": 6525,
      "Schema": 6526,
      "Ġplan": 6527,
      "Serial": 6528,
      "Ġconsider": 6529,
      "Ġ\"\",": 6530,
      "chunks": 6531,
      "rive": 6532,
      "(('": 6533,
      "Ġlogical": 6534,
      "previous": 6535,
      "white": 6536,
      "dictionary": 6537,
      "Ġspecifies": 6538,
      "ĠDEFAULT": 6539,
      ")')": 6540,
      "mc": 6541,
      "statement": 6542,
      "Ġslot": 6543,
      "Ġshare": 6544,
      "prior": 6545,
      "cognized": 6546,
      "(\"{": 6547,
      "outine": 6548,
      "Ġparents": 6549,
      "FT": 6550,
      "Ġconsole": 6551,
      "Ġgets": 6552,
      "Dist": 6553,
      "Python": 6554,
      ">\\": 6555,
      "vance": 6556,
      "ĊĠĠĠĠĠĠĠĠĊĠĠĠ": 6557,
      "Ġsmooth": 6558,
      "vor": 6559,
      "scripts": 6560,
      "Ġdatasets": 6561,
      "Location": 6562,
      "SK": 6563,
      "cross": 6564,
      "mv": 6565,
      "Cache": 6566,
      "CAL": 6567,
      "ĠPrint": 6568,
      "Ġpresence": 6569,
      "Vector": 6570,
      "luster": 6571,
      "Ġresponses": 6572,
      ":.": 6573,
      "attemp": 6574,
      "Ġresolved": 6575,
      "65": 6576,
      "agraph": 6577,
      "ranges": 6578,
      "Ġgenes": 6579,
      "Com": 6580,
      "Operation": 6581,
      "ali": 6582,
      "pet": 6583,
      "permission": 6584,
      "Ġapproxim": 6585,
      "Ġam": 6586,
      "Ġplugins": 6587,
      "ãĢ": 6588,
      "urther": 6589,
      "setting": 6590,
      "EC": 6591,
      "cookie": 6592,
      "Pl": 6593,
      "ni": 6594,
      "ĠNetwork": 6595,
      "Ġgoogle": 6596,
      "Ġlig": 6597,
      "processor": 6598,
      "tun": 6599,
      "zon": 6600,
      "annotation": 6601,
      "Ġactor": 6602,
      "ĠWill": 6603,
      "Ġblank": 6604,
      "lations": 6605,
      "mx": 6606,
      "Ġsyntax": 6607,
      "coe": 6608,
      "Ġanswer": 6609,
      "yes": 6610,
      "Ġlst": 6611,
      "Ġconsist": 6612,
      "Ġvec": 6613,
      "ĠNow": 6614,
      "ĠEnsure": 6615,
      "fficient": 6616,
      "DR": 6617,
      "getter": 6618,
      "LINE": 6619,
      "Missing": 6620,
      "Ġtogether": 6621,
      "ĠField": 6622,
      "Ġpie": 6623,
      "Document": 6624,
      "riend": 6625,
      "tyle": 6626,
      "\"%": 6627,
      "etc": 6628,
      "outfile": 6629,
      "vectors": 6630,
      "SU": 6631,
      "Send": 6632,
      "Ġcc": 6633,
      "ĠGenerated": 6634,
      "AUT": 6635,
      "Ġvalidator": 6636,
      "Ġ------": 6637,
      ":],": 6638,
      "]}": 6639,
      "Ġpointer": 6640,
      "Ġfactory": 6641,
      "MODE": 6642,
      "Ġspaces": 6643,
      "rozen": 6644,
      "Ġrather": 6645,
      "09": 6646,
      "pat": 6647,
      "watch": 6648,
      "Ġexamples": 6649,
      "Ġpoly": 6650,
      "micro": 6651,
      "locity": 6652,
      "speed": 6653,
      "Ġdjango": 6654,
      "positions": 6655,
      "Ġcertain": 6656,
      "patterns": 6657,
      "ante": 6658,
      "Ġtail": 6659,
      "Ġdates": 6660,
      "ti": 6661,
      "amera": 6662,
      "servers": 6663,
      "ĠMulti": 6664,
      "Ġcoefficients": 6665,
      "Ġcmap": 6666,
      "Ġlegend": 6667,
      "detect": 6668,
      "Union": 6669,
      "SM": 6670,
      "ached": 6671,
      "avg": 6672,
      "Cloud": 6673,
      "oauth": 6674,
      "country": 6675,
      "maximum": 6676,
      "Ġpending": 6677,
      "ĠGET": 6678,
      "><": 6679,
      "ĠSome": 6680,
      "minimum": 6681,
      "wcs": 6682,
      "licies": 6683,
      "ables": 6684,
      "Ġ:,": 6685,
      "posed": 6686,
      "Host": 6687,
      "ildcard": 6688,
      "Ġexecutable": 6689,
      "Feature": 6690,
      "Print": 6691,
      "standard": 6692,
      "Ġreplaced": 6693,
      "Ġstmt": 6694,
      "trip": 6695,
      "Compute": 6696,
      "ĠPOST": 6697,
      "Ġ({": 6698,
      "ropout": 6699,
      "Ġgradient": 6700,
      "YANG": 6701,
      "Ġpush": 6702,
      "Ġsid": 6703,
      "ĠAdds": 6704,
      "Ġ14": 6705,
      "curve": 6706,
      "Ġestimate": 6707,
      "Ġmagic": 6708,
      "))]": 6709,
      "ibration": 6710,
      "OUT": 6711,
      "Ġannotations": 6712,
      "Ids": 6713,
      "ags": 6714,
      "Ġtax": 6715,
      "Ġrevision": 6716,
      "ĠHttp": 6717,
      "anism": 6718,
      "sertion": 6719,
      "Ġabort": 6720,
      "neighbors": 6721,
      "Channel": 6722,
      "zz": 6723,
      "}/{": 6724,
      "tn": 6725,
      "blue": 6726,
      "Ġred": 6727,
      "Ġencrypted": 6728,
      "utool": 6729,
      "ngine": 6730,
      "qs": 6731,
      "Ġbeginning": 6732,
      "entities": 6733,
      "And": 6734,
      "pdb": 6735,
      "sequences": 6736,
      "executable": 6737,
      "Multi": 6738,
      "ov": 6739,
      "Ġdep": 6740,
      "FFFF": 6741,
      "Ġstride": 6742,
      "ĠSp": 6743,
      "Ġsections": 6744,
      "()}": 6745,
      "thresh": 6746,
      "ĠDate": 6747,
      "dates": 6748,
      "ĠIPv": 6749,
      "Ġke": 6750,
      "Ġreceive": 6751,
      "Ġprediction": 6752,
      "develo": 6753,
      "Ġdesign": 6754,
      "absolute": 6755,
      "cutoff": 6756,
      "ee": 6757,
      "scribe": 6758,
      "nsupported": 6759,
      "rouped": 6760,
      "ctools": 6761,
      "Ġ{}).": 6762,
      "ensure": 6763,
      "Ġaccepted": 6764,
      "Struct": 6765,
      "Ġfoo": 6766,
      "\",\"": 6767,
      "Connect": 6768,
      "Ut": 6769,
      "Ġoutside": 6770,
      "azure": 6771,
      "Ġmaps": 6772,
      "Ġformats": 6773,
      "Ġtranslation": 6774,
      "Ġvars": 6775,
      "rees": 6776,
      "Ġtxt": 6777,
      "listdir": 6778,
      "plain": 6779,
      "Ġslug": 6780,
      "Ġwarn": 6781,
      "Ġinitialized": 6782,
      "uggest": 6783,
      "Ġready": 6784,
      "herit": 6785,
      "Pool": 6786,
      "ĠSave": 6787,
      "Ass": 6788,
      "Ġmp": 6789,
      "vertex": 6790,
      "Description": 6791,
      "templates": 6792,
      "ĠSE": 6793,
      "38": 6794,
      "Ġhour": 6795,
      "Ġ|=": 6796,
      "Ġgeneral": 6797,
      "Core": 6798,
      "Pos": 6799,
      "mpls": 6800,
      "ĠServer": 6801,
      "Ġur": 6802,
      "ints": 6803,
      "formats": 6804,
      "cells": 6805,
      "wave": 6806,
      "Ġetree": 6807,
      "ipe": 6808,
      "Ġbundle": 6809,
      "Make": 6810,
      "Ġer": 6811,
      "contract": 6812,
      "projects": 6813,
      "SELECT": 6814,
      "Ġvisual": 6815,
      "('[": 6816,
      "Ġacross": 6817,
      "lid": 6818,
      "backup": 6819,
      "COM": 6820,
      "ExecutionError": 6821,
      ":\"": 6822,
      "Ġobjective": 6823,
      "================================": 6824,
      "Ġexactly": 6825,
      "Ġtimedelta": 6826,
      "Ġdoct": 6827,
      "atting": 6828,
      "how": 6829,
      "Ġsynchronous": 6830,
      "fies": 6831,
      "Ġformatter": 6832,
      "DA": 6833,
      "Ver": 6834,
      "Ġest": 6835,
      "Ġonto": 6836,
      "phab": 6837,
      "authentic": 6838,
      "bbox": 6839,
      "activity": 6840,
      "large": 6841,
      "XML": 6842,
      "ĠMan": 6843,
      "parsers": 6844,
      "FIELD": 6845,
      "Ġsites": 6846,
      "Ġconstraint": 6847,
      "Ġtrunc": 6848,
      "Ġidentify": 6849,
      "Ġthrow": 6850,
      "Bad": 6851,
      "Ġpt": 6852,
      "Ġhistogram": 6853,
      "ulative": 6854,
      "Ġhandlers": 6855,
      "shared": 6856,
      "Ġunable": 6857,
      "locals": 6858,
      "Ġss": 6859,
      "ensors": 6860,
      "ench": 6861,
      "Ġmig": 6862,
      "Ġsever": 6863,
      ")\",": 6864,
      "ev": 6865,
      "ĊĠĠĠĠĠĠĠĠĠĠĠĠĠĠĠĠĠĠĠĠĠĠĠĠĠĠĠĠĠĠĠĠĠĠĠĠĠĠĠĠĠĠĠĠĠĠĠĠĠĠĠĠĠĠĠĠĠĠĠĠĠĠĠĠĠĠĠĠĠĠĠĠ": 6866,
      "bra": 6867,
      "Ġinc": 6868,
      "Ġ'+": 6869,
      "Ġfg": 6870,
      "Ġbbox": 6871,
      "Ġentities": 6872,
      "Template": 6873,
      "Ġcriteria": 6874,
      "imal": 6875,
      "collect": 6876,
      "lengths": 6877,
      "Ġpickle": 6878,
      "AML": 6879,
      "xs": 6880,
      "license": 6881,
      "ĠKeyword": 6882,
      "ĠService": 6883,
      "Ġcandidates": 6884,
      "Ġhandling": 6885,
      "mq": 6886,
      "pient": 6887,
      "sender": 6888,
      "rices": 6889,
      "genes": 6890,
      "ssib": 6891,
      "conver": 6892,
      "Ġdirs": 6893,
      "appro": 6894,
      "gorical": 6895,
      "Enabled": 6896,
      "Helper": 6897,
      "=\"\",": 6898,
      "Ġdisabled": 6899,
      "Ġtransfer": 6900,
      "dimensions": 6901,
      "ability": 6902,
      "Ġdecoded": 6903,
      "58": 6904,
      "åĽ": 6905,
      "amb": 6906,
      "readline": 6907,
      "requencies": 6908,
      "concatenate": 6909,
      "ilio": 6910,
      "symbols": 6911,
      "contact": 6912,
      "chemy": 6913,
      "outer": 6914,
      "Ġweek": 6915,
      "SCRI": 6916,
      "ubclass": 6917,
      "ĠDO": 6918,
      "ĠGets": 6919,
      "versal": 6920,
      "=',": 6921,
      "Dec": 6922,
      "Ab": 6923,
      "Rule": 6924,
      "deleted": 6925,
      "hest": 6926,
      "Ġrout": 6927,
      "fw": 6928,
      "Ġ64": 6929,
      "cel": 6930,
      "ĠAND": 6931,
      "ĠPlot": 6932,
      "Types": 6933,
      "effect": 6934,
      "Ġsizes": 6935,
      "Ġpassing": 6936,
      "37": 6937,
      "mav": 6938,
      "phabet": 6939,
      "ollow": 6940,
      "Ġssl": 6941,
      "callpoint": 6942,
      "Ġtrip": 6943,
      "Reader": 6944,
      "wap": 6945,
      "intervals": 6946,
      "Ġtests": 6947,
      "exe": 6948,
      "tau": 6949,
      "ĠSim": 6950,
      "ĠPass": 6951,
      "Ġranges": 6952,
      "sla": 6953,
      "tran": 6954,
      "()`": 6955,
      "Ġmonitor": 6956,
      "Ġbias": 6957,
      "gu": 6958,
      "æĪ": 6959,
      "Ġcwd": 6960,
      "Ġwave": 6961,
      "expect": 6962,
      "Ġloader": 6963,
      "Ġlisten": 6964,
      "objective": 6965,
      "Ġderived": 6966,
      "cancel": 6967,
      "Ġredis": 6968,
      "analy": 6969,
      "./": 6970,
      "Ġeigen": 6971,
      "issue": 6972,
      "Ġestimated": 6973,
      "pixel": 6974,
      "velength": 6975,
      "Ġpreviously": 6976,
      "esian": 6977,
      "Ġregions": 6978,
      "ylabel": 6979,
      "ipher": 6980,
      "Ġmiddle": 6981,
      "hip": 6982,
      "sol": 6983,
      "rename": 6984,
      "formatter": 6985,
      "ARY": 6986,
      "console": 6987,
      "OB": 6988,
      "âĢ": 6989,
      "duction": 6990,
      "xlabel": 6991,
      "yy": 6992,
      "ĠRetrieve": 6993,
      "RC": 6994,
      "],[": 6995,
      "Ġcategories": 6996,
      "vcf": 6997,
      "some": 6998,
      "Ġassignment": 6999,
      "bet": 7000,
      "background": 7001,
      "Ġverb": 7002,
      "Policy": 7003,
      "itter": 7004,
      "isters": 7005,
      "ĠGo": 7006,
      "pn": 7007,
      "conj": 7008,
      "Ġguess": 7009,
      "tuples": 7010,
      "Creates": 7011,
      "Ġplots": 7012,
      "ingerprint": 7013,
      "green": 7014,
      "]=": 7015,
      "Ġaux": 7016,
      "Ġvariance": 7017,
      "cce": 7018,
      "Ġfully": 7019,
      "]-": 7020,
      "Url": 7021,
      "ĠMark": 7022,
      "voice": 7023,
      "GR": 7024,
      "Var": 7025,
      "Ġrestrict": 7026,
      "processed": 7027,
      "æķ°": 7028,
      "URI": 7029,
      "ffff": 7030,
      "Ġsubstit": 7031,
      "ĠSearch": 7032,
      "Temp": 7033,
      "Import": 7034,
      "trigger": 7035,
      "lu": 7036,
      "adr": 7037,
      "Ġhome": 7038,
      "parents": 7039,
      "timer": 7040,
      "stall": 7041,
      "Ġsla": 7042,
      "Ġstud": 7043,
      "fication": 7044,
      "Ġchat": 7045,
      "subset": 7046,
      "Sec": 7047,
      "Ġtol": 7048,
      "lify": 7049,
      "ĠVer": 7050,
      "Fail": 7051,
      "('/')": 7052,
      "HEADER": 7053,
      "GI": 7054,
      "iving": 7055,
      "LED": 7056,
      "ĠChecks": 7057,
      "Ġage": 7058,
      "curr": 7059,
      "kg": 7060,
      "ĊĠĠĠĠĠĠĠĠĠĠĠĠĠĠĠĠĠĠĠĠĠĠĠĠĠĠĠĠĠĠĠĠĠĠĠĠĠĠĠĠĠĠĠĠĠĠĠĠĠĠĠĠ": 7061,
      "constraints": 7062,
      "Ġbuff": 7063,
      "Ġseparated": 7064,
      "ECT": 7065,
      "EV": 7066,
      "jid": 7067,
      "dicts": 7068,
      "Ġadds": 7069,
      "ĠInstance": 7070,
      "Control": 7071,
      "[::-": 7072,
      "Ġqueries": 7073,
      "Ġconstants": 7074,
      "rypto": 7075,
      "Grid": 7076,
      "Please": 7077,
      "Ġdetected": 7078,
      "Ġutool": 7079,
      "enc": 7080,
      "RES": 7081,
      "Ġclone": 7082,
      "Ġ25": 7083,
      "Ġoptionally": 7084,
      "stdin": 7085,
      "Pass": 7086,
      "ĠISO": 7087,
      "nested": 7088,
      "Ġimmediately": 7089,
      "Ġ/=": 7090,
      "Button": 7091,
      "Ġprops": 7092,
      "\":\"": 7093,
      "READ": 7094,
      "constant": 7095,
      "áħ¡": 7096,
      "Ġinverse": 7097,
      "Ġhyper": 7098,
      ":'": 7099,
      "Char": 7100,
      "Ġwriting": 7101,
      "Ġfallback": 7102,
      "iles": 7103,
      "``)": 7104,
      "Ġcombined": 7105,
      "connections": 7106,
      "umbnail": 7107,
      "Ter": 7108,
      "Test": 7109,
      "ython": 7110,
      "dispatch": 7111,
      "multiple": 7112,
      "construct": 7113,
      "acc": 7114,
      "Ġterminal": 7115,
      "Ġnan": 7116,
      "Ġappear": 7117,
      "å¤": 7118,
      "mega": 7119,
      "Ġrelevant": 7120,
      "dian": 7121,
      "Ġarbit": 7122,
      "Ġrouting": 7123,
      "Ġprobably": 7124,
      "SN": 7125,
      "ĠSign": 7126,
      "Ġcontained": 7127,
      "SQL": 7128,
      "Ġet": 7129,
      "Ġconsumer": 7130,
      "Ġvisible": 7131,
      "phrase": 7132,
      "noise": 7133,
      "integr": 7134,
      "Ġ`~": 7135,
      "general": 7136,
      "choices": 7137,
      "Ġasynchronously": 7138,
      "Ġchosen": 7139,
      "canvas": 7140,
      "Ġtemplates": 7141,
      "bundle": 7142,
      "submit": 7143,
      "LOCK": 7144,
      "ao": 7145,
      "erial": 7146,
      "Ġunderlying": 7147,
      "VALID": 7148,
      "........": 7149,
      "ĠFIX": 7150,
      "geom": 7151,
      "ĠEnt": 7152,
      "subnet": 7153,
      "likelihood": 7154,
      "Ġfragment": 7155,
      "ios": 7156,
      "Ġamp": 7157,
      "experiment": 7158,
      "Ġ*,": 7159,
      "Cons": 7160,
      "Role": 7161,
      "fr": 7162,
      "href": 7163,
      ").__": 7164,
      "Cell": 7165,
      "Queue": 7166,
      "unity": 7167,
      "Ġhref": 7168,
      "inx": 7169,
      "Ġindicate": 7170,
      "visit": 7171,
      "annotations": 7172,
      "Med": 7173,
      "fire": 7174,
      "Ġlogic": 7175,
      "Ġsending": 7176,
      "ĠMaximum": 7177,
      "!!": 7178,
      "Ġconfigure": 7179,
      "Ġbra": 7180,
      "Ġattached": 7181,
      "ĠSequence": 7182,
      "Bytes": 7183,
      "Ġretrieved": 7184,
      "Any": 7185,
      "Ġcr": 7186,
      "mazon": 7187,
      "imuth": 7188,
      "ĠMin": 7189,
      "getLogger": 7190,
      "arrays": 7191,
      "ĠInitialize": 7192,
      "ĠClass": 7193,
      "Ġwhite": 7194,
      "ventory": 7195,
      "iterator": 7196,
      "itable": 7197,
      "')):": 7198,
      "warnings": 7199,
      "Window": 7200,
      "vidence": 7201,
      "audio": 7202,
      ",\"": 7203,
      "fastq": 7204,
      "Ġroles": 7205,
      "Ġembedding": 7206,
      "ĠTest": 7207,
      "INTER": 7208,
      "llo": 7209,
      "Ġaffect": 7210,
      "!')": 7211,
      "Ġcv": 7212,
      "Profile": 7213,
      "completion": 7214,
      "GP": 7215,
      "orization": 7216,
      "Ġpan": 7217,
      "tolist": 7218,
      "same": 7219,
      "Ġbecome": 7220,
      "dataframe": 7221,
      "Ġhuman": 7222,
      "more": 7223,
      "Ġdigits": 7224,
      "Ġobserved": 7225,
      "Ġcomparison": 7226,
      "sequ": 7227,
      "(\"{}": 7228,
      "sentence": 7229,
      "Ġinstanti": 7230,
      "Sets": 7231,
      "ĠBoolean": 7232,
      "VM": 7233,
      "Extract": 7234,
      "Ġneighbors": 7235,
      "So": 7236,
      "ĊĠĠĠĠĠĠĠĠĠĠĠĠĊĠĠĠĠĠĠĠ": 7237,
      "reating": 7238,
      "illi": 7239,
      "Ġstatements": 7240,
      "ĠDescription": 7241,
      "Ġborder": 7242,
      "numbers": 7243,
      "ĠCloud": 7244,
      "åħ": 7245,
      "LOW": 7246,
      "Ġloading": 7247,
      "00000000": 7248,
      "failure": 7249,
      "NotFoundError": 7250,
      "Width": 7251,
      "bf": 7252,
      "ational": 7253,
      "ĠAR": 7254,
      "Ġlocale": 7255,
      "Ġfloats": 7256,
      "Ġcompatibility": 7257,
      "acl": 7258,
      "mediator": 7259,
      "Ġdownloaded": 7260,
      "HA": 7261,
      "mime": 7262,
      "ĠFe": 7263,
      "proj": 7264,
      "Ġshard": 7265,
      "Ġgrad": 7266,
      "lated": 7267,
      "ides": 7268,
      "mts": 7269,
      "lags": 7270,
      "quee": 7271,
      "ĠNaN": 7272,
      "Ġfurther": 7273,
      "ighest": 7274,
      "incip": 7275,
      "Ġcompression": 7276,
      "Ġextended": 7277,
      "riptor": 7278,
      "dom": 7279,
      "hard": 7280,
      "ysql": 7281,
      "_[": 7282,
      "Ġplane": 7283,
      "89": 7284,
      "ĠContent": 7285,
      "assessment": 7286,
      "Ġencoder": 7287,
      "oa": 7288,
      "ony": 7289,
      "Ġcompletion": 7290,
      "ba": 7291,
      "criteria": 7292,
      "ĠFormat": 7293,
      "clone": 7294,
      "ĠCommandExecutionError": 7295,
      "claration": 7296,
      "07": 7297,
      "Ġbook": 7298,
      "ĠAllow": 7299,
      "irt": 7300,
      "aign": 7301,
      "Ġurls": 7302,
      "sat": 7303,
      "dig": 7304,
      "composition": 7305,
      "ĠSup": 7306,
      "fully": 7307,
      "Ġmanifest": 7308,
      "uffle": 7309,
      "Ġdetermined": 7310,
      "surface": 7311,
      "Position": 7312,
      "world": 7313,
      "Directory": 7314,
      "Ġ'\"": 7315,
      "Ġproblems": 7316,
      "ĠWHERE": 7317,
      "Ġquestion": 7318,
      "ĠNAME": 7319,
      "ĠDetermine": 7320,
      "Ġserialize": 7321,
      "Oper": 7322,
      "}},": 7323,
      "training": 7324,
      "hit": 7325,
      "roke": 7326,
      "Ġecho": 7327,
      "may": 7328,
      "team": 7329,
      "Ġmeasurement": 7330,
      "AST": 7331,
      "Ġdialog": 7332,
      "Local": 7333,
      "revision": 7334,
      "Ġmoment": 7335,
      "({\"": 7336,
      "eral": 7337,
      "Ġpip": 7338,
      "ĠDec": 7339,
      "sertionError": 7340,
      "alive": 7341,
      "Ġdaemon": 7342,
      "Ġrecomm": 7343,
      "ĠConnection": 7344,
      "permissions": 7345,
      "Ġproperly": 7346,
      "legal": 7347,
      "Ġincrement": 7348,
      "hand": 7349,
      "Ġsleep": 7350,
      "Iteration": 7351,
      "$',": 7352,
      "ĠTask": 7353,
      "vention": 7354,
      "Ġimported": 7355,
      "Ġcorrelation": 7356,
      "Ġnotebook": 7357,
      "Ġbytearray": 7358,
      "UTP": 7359,
      "alculates": 7360,
      ",-": 7361,
      "union": 7362,
      "Ġadapter": 7363,
      "CB": 7364,
      "äº": 7365,
      "Ġarc": 7366,
      "aging": 7367,
      "Ġports": 7368,
      "flo": 7369,
      "addresses": 7370,
      "Ġroll": 7371,
      "ĠBlock": 7372,
      "VALUE": 7373,
      "Ġmar": 7374,
      "('#": 7375,
      "retcode": 7376,
      ":\",": 7377,
      "Ġwaiting": 7378,
      "ace": 7379,
      "pur": 7380,
      "fh": 7381,
      "rdf": 7382,
      "det": 7383,
      "ĠMag": 7384,
      "compliance": 7385,
      "UST": 7386,
      "Ġcum": 7387,
      "vrf": 7388,
      ":',": 7389,
      "shard": 7390,
      "ynomial": 7391,
      "Ġissubclass": 7392,
      "windows": 7393,
      "enario": 7394,
      "Ġfact": 7395,
      "ĠReferences": 7396,
      "Ġfront": 7397,
      "ific": 7398,
      "``:": 7399,
      "Inv": 7400,
      "Ġlocals": 7401,
      "TYPES": 7402,
      "Ġvertical": 7403,
      "inations": 7404,
      "Ġconflict": 7405,
      "CLA": 7406,
      "()).": 7407,
      "Ġthings": 7408,
      "Storage": 7409,
      "HT": 7410,
      "Ġls": 7411,
      "neighbor": 7412,
      "CR": 7413,
      "Ġbug": 7414,
      "ĠNull": 7415,
      ")`": 7416,
      "eta": 7417,
      "Ġtb": 7418,
      "Ġ'[": 7419,
      "ĠSource": 7420,
      "Ġactivity": 7421,
      "Ġreplacement": 7422,
      "ĠEnd": 7423,
      "Ġmuch": 7424,
      "Ġalternative": 7425,
      "asa": 7426,
      "lstrip": 7427,
      "Ġbg": 7428,
      "iteral": 7429,
      "Ġdecorated": 7430,
      "æĹ": 7431,
      "UTPUT": 7432,
      "))))": 7433,
      "ttributes": 7434,
      "Ġpredicate": 7435,
      "Ġpdf": 7436,
      "Ġblack": 7437,
      "Ġdispatch": 7438,
      "Ġoverrid": 7439,
      "errno": 7440,
      "issues": 7441,
      "sses": 7442,
      "Ġtyping": 7443,
      "CC": 7444,
      "]'": 7445,
      "Ġreversed": 7446,
      "...,": 7447,
      "Ġinstrument": 7448,
      "TEXT": 7449,
      "509": 7450,
      "Ġtrim": 7451,
      "kwds": 7452,
      "contains": 7453,
      "Ġcorrectly": 7454,
      "installed": 7455,
      "Mark": 7456,
      "WORD": 7457,
      "MB": 7458,
      "Ġhours": 7459,
      "Ġzer": 7460,
      "cmap": 7461,
      "Ġgeneric": 7462,
      "ĠFIXME": 7463,
      "intersection": 7464,
      "Ġtoler": 7465,
      "Ġobservation": 7466,
      "Ġscaling": 7467,
      "inja": 7468,
      "encoder": 7469,
      "(\"'": 7470,
      "Ġspecies": 7471,
      "hooks": 7472,
      "expanduser": 7473,
      "taint": 7474,
      "__))": 7475,
      "lecule": 7476,
      "SY": 7477,
      "fits": 7478,
      "heel": 7479,
      "Ġwalk": 7480,
      "ĠRequired": 7481,
      "poll": 7482,
      ":\")": 7483,
      "usr": 7484,
      "Proxy": 7485,
      "Ġoffsets": 7486,
      "Plot": 7487,
      "pillar": 7488,
      "Ġhalf": 7489,
      "ĠOPTION": 7490,
      "Ġgoing": 7491,
      "nm": 7492,
      "Ġable": 7493,
      "Ġpopulation": 7494,
      "sensitive": 7495,
      "Mapping": 7496,
      "precision": 7497,
      "lope": 7498,
      "raft": 7499,
      "JECT": 7500,
      "spy": 7501,
      "([(": 7502,
      "datasets": 7503,
      "IRED": 7504,
      "hdr": 7505,
      "except": 7506,
      "Ġgenome": 7507,
      "Ġevaluation": 7508,
      "checks": 7509,
      "Rel": 7510,
      "Use": 7511,
      "wall": 7512,
      "notify": 7513,
      "subscription": 7514,
      "STAT": 7515,
      "Ġpressure": 7516,
      "Ġ</": 7517,
      "Ġends": 7518,
      "requirements": 7519,
      "001": 7520,
      "Ġrouter": 7521,
      "ponent": 7522,
      "ĠDon": 7523,
      "ĠToken": 7524,
      "Ġcatch": 7525,
      "certificate": 7526,
      "ĠIs": 7527,
      "Ġpat": 7528,
      "Ġnative": 7529,
      "vided": 7530,
      "Ġlengths": 7531,
      "modifi": 7532,
      "Ġinterest": 7533,
      "written": 7534,
      "browser": 7535,
      "critical": 7536,
      "ĠCa": 7537,
      "Ġlarger": 7538,
      "eration": 7539,
      "Ġfw": 7540,
      "STATE": 7541,
      "finite": 7542,
      "Flow": 7543,
      "Ġdocuments": 7544,
      "Ġcovariance": 7545,
      "Ġtesting": 7546,
      "ĠNormal": 7547,
      "Ġklass": 7548,
      "Agent": 7549,
      "Download": 7550,
      "regions": 7551,
      "Sum": 7552,
      "Ġdims": 7553,
      "Ġtwilio": 7554,
      "irtual": 7555,
      "wx": 7556,
      "erce": 7557,
      ">`_": 7558,
      "[_": 7559,
      "degree": 7560,
      "asing": 7561,
      "\"}": 7562,
      "slot": 7563,
      "ĠLine": 7564,
      "ãĢĤ": 7565,
      "Wrapper": 7566,
      "deps": 7567,
      "Ġgame": 7568,
      "PORT": 7569,
      "Style": 7570,
      "udo": 7571,
      "Ġextend": 7572,
      "Ġpredictions": 7573,
      "Ġmagnitude": 7574,
      "codeError": 7575,
      "Ġhigher": 7576,
      "candidate": 7577,
      "çĶ¨": 7578,
      "Pub": 7579,
      "Ġfall": 7580,
      "ravel": 7581,
      "Ġmetavar": 7582,
      "Ġ``(": 7583,
      "Ġsmaller": 7584,
      "cv": 7585,
      "ledge": 7586,
      "Ġthing": 7587,
      "Ġir": 7588,
      "striction": 7589,
      "Ġneighbor": 7590,
      "trieves": 7591,
      "hat": 7592,
      "Ġinline": 7593,
      "extent": 7594,
      "Ġrr": 7595,
      "Ġinterpolation": 7596,
      "urity": 7597,
      "built": 7598,
      "Ġdescribed": 7599,
      "coef": 7600,
      "Ġchars": 7601,
      "URE": 7602,
      "lica": 7603,
      "clusters": 7604,
      "Ġcompress": 7605,
      "Ġmodification": 7606,
      "metry": 7607,
      "Ġcomputation": 7608,
      "cular": 7609,
      "ĊĠĠĠĠĠĠĠĠĠĠĠĠĠĠĠĠĠĠĠĠĠĠĠĠĠĠĠĠĠĠĠĠĠĠĠĠĠĠĠĠĠĠĠĠĠĠĠĠĠĠĠĠĠĠĠ": 7610,
      "supports": 7611,
      "Ġsignals": 7612,
      "48": 7613,
      "UI": 7614,
      "ĠCIM": 7615,
      "Ġcar": 7616,
      "å®": 7617,
      "Ġicon": 7618,
      "ĠSystem": 7619,
      "boto": 7620,
      "ience": 7621,
      "ĠMap": 7622,
      "manifest": 7623,
      "stone": 7624,
      "ĠIgn": 7625,
      "learn": 7626,
      "icipant": 7627,
      "ĠSN": 7628,
      "WARNING": 7629,
      "since": 7630,
      "tb": 7631,
      "Ġconsistent": 7632,
      "letes": 7633,
      "ĠHel": 7634,
      "Identifier": 7635,
      "Param": 7636,
      "Ġqs": 7637,
      "ĠHowever": 7638,
      "ĠEither": 7639,
      "queeze": 7640,
      "balance": 7641,
      "war": 7642,
      "hparams": 7643,
      "Ġsin": 7644,
      "Ġsimulation": 7645,
      "Transform": 7646,
      "finished": 7647,
      "Ġct": 7648,
      "urb": 7649,
      "={},": 7650,
      "Ġcopied": 7651,
      "ssibly": 7652,
      "retries": 7653,
      "Ġdy": 7654,
      "Ġhaving": 7655,
      "osome": 7656,
      "Ġformula": 7657,
      "Ġ90": 7658,
      "Bar": 7659,
      "locale": 7660,
      "'}},": 7661,
      "negative": 7662,
      "Ġtransformation": 7663,
      "WA": 7664,
      "live": 7665,
      "Ġrgb": 7666,
      "Ġ^": 7667,
      "Ġtrying": 7668,
      "/.": 7669,
      "saved": 7670,
      "Ġec": 7671,
      "ĠPh": 7672,
      "RF": 7673,
      "Ġatoms": 7674,
      "filenames": 7675,
      "species": 7676,
      "Ġsq": 7677,
      "Ġbinding": 7678,
      "riendly": 7679,
      "ĠÐ": 7680,
      "dns": 7681,
      "hours": 7682,
      "Ġglyph": 7683,
      "serializer": 7684,
      "median": 7685,
      "Ġdefaultdict": 7686,
      "Ġinterfaces": 7687,
      "latitude": 7688,
      "density": 7689,
      "probab": 7690,
      "è¡": 7691,
      "generic": 7692,
      "SCII": 7693,
      "Ġtimer": 7694,
      "orn": 7695,
      "(\".": 7696,
      "Ġroom": 7697,
      "Ġcap": 7698,
      "character": 7699,
      "izers": 7700,
      "sky": 7701,
      "__[": 7702,
      "Copy": 7703,
      "åŃ": 7704,
      "inct": 7705,
      "Ġattempts": 7706,
      "calculate": 7707,
      "'d": 7708,
      "NUM": 7709,
      "stud": 7710,
      "Save": 7711,
      "aps": 7712,
      "Ġ13": 7713,
      "validator": 7714,
      "Ġspin": 7715,
      "Cursor": 7716,
      "Ġstypes": 7717,
      "numeric": 7718,
      "globals": 7719,
      "sensus": 7720,
      "42": 7721,
      "Ġverbosity": 7722,
      "conditions": 7723,
      "west": 7724,
      "arante": 7725,
      "currency": 7726,
      "interpol": 7727,
      "difference": 7728,
      "Ġops": 7729,
      "Ġwon": 7730,
      "Ġstdin": 7731,
      "Vis": 7732,
      "coun": 7733,
      "agg": 7734,
      "notes": 7735,
      "sampling": 7736,
      "dimensional": 7737,
      "dap": 7738,
      "RPC": 7739,
      "Ġgs": 7740,
      "stand": 7741,
      "Ġreached": 7742,
      "iguous": 7743,
      "ĠStore": 7744,
      "support": 7745,
      "ĠChange": 7746,
      "Ġmicro": 7747,
      "Ġprob": 7748,
      "ĠConstruct": 7749,
      "xc": 7750,
      "Ġgithub": 7751,
      "ĠParameter": 7752,
      "Ġupd": 7753,
      "Admin": 7754,
      "gered": 7755,
      "))[": 7756,
      "Ġacc": 7757,
      "=[],": 7758,
      "statistics": 7759,
      "Ġpillar": 7760,
      "measurement": 7761,
      "/{}": 7762,
      "isode": 7763,
      "Rece": 7764,
      "Ġanchor": 7765,
      "ĠConverts": 7766,
      "Ġprinted": 7767,
      "ĠSetter": 7768,
      "Matrix": 7769,
      "locate": 7770,
      "xyz": 7771,
      "]',": 7772,
      "rem": 7773,
      "ĠAssertionError": 7774,
      "pull": 7775,
      "elta": 7776,
      "Ġtempfile": 7777,
      "('')": 7778,
      "Ġocc": 7779,
      "ultiple": 7780,
      "specs": 7781,
      "LY": 7782,
      "seudo": 7783,
      "Ġbrowser": 7784,
      "ĠĠĠĠĠĠĠĠĠĠĠĠĠĠĠĠĠĠ": 7785,
      "interfaces": 7786,
      "Ġclusters": 7787,
      "Ġcutoff": 7788,
      "Ġdynamic": 7789,
      "UND": 7790,
      "ĠSpecify": 7791,
      "è®": 7792,
      "Ġwhitespace": 7793,
      "Ġcompile": 7794,
      "Ġargv": 7795,
      "LT": 7796,
      "alect": 7797,
      "ĠUsage": 7798,
      "compressed": 7799,
      "callbacks": 7800,
      "Ġconfirm": 7801,
      "ACT": 7802,
      "Ġblue": 7803,
      "Limit": 7804,
      "Val": 7805,
      "ĠCom": 7806,
      "pag": 7807,
      "quant": 7808,
      "configure": 7809,
      "aking": 7810,
      "Ġchoose": 7811,
      "Ġiso": 7812,
      "Ġquiet": 7813,
      "sembly": 7814,
      "native": 7815,
      "genome": 7816,
      "offsets": 7817,
      "timezone": 7818,
      "IR": 7819,
      "Root": 7820,
      "Ġgp": 7821,
      "USE": 7822,
      "station": 7823,
      "Ġdecla": 7824,
      "ye": 7825,
      "Ġsilent": 7826,
      "formatted": 7827,
      "pert": 7828,
      "Comm": 7829,
      "404": 7830,
      "Ġpolygon": 7831,
      "VAR": 7832,
      "ç»": 7833,
      "ATCH": 7834,
      "Ġmaybe": 7835,
      "ances": 7836,
      "rh": 7837,
      "Ġdoctest": 7838,
      "orph": 7839,
      "orator": 7840,
      "Ġcancel": 7841,
      "ilename": 7842,
      "Factory": 7843,
      "traceback": 7844,
      "Ġdistances": 7845,
      "bum": 7846,
      "ĠNum": 7847,
      "MT": 7848,
      "ailab": 7849,
      "Ġwindows": 7850,
      "must": 7851,
      "nor": 7852,
      "structions": 7853,
      "Ġdepends": 7854,
      "SUB": 7855,
      "bp": 7856,
      "Ġpositional": 7857,
      "->": 7858,
      "Hash": 7859,
      "tip": 7860,
      "unded": 7861,
      "ĠAmazon": 7862,
      "ĠPri": 7863,
      "shapes": 7864,
      "gies": 7865,
      ":**": 7866,
      "transfer": 7867,
      "ĊĠĠĠĠĠĠĠĠĠĠĠĠĠĠĠĠĠĠĠĠĠĠĠĠĠĠĠĠĠĠĠĠĠĠĠĠĠĠĠĠĠĠĠĠĠĠĠĠĠĠĠĠĠ": 7868,
      "000000": 7869,
      "98": 7870,
      "repos": 7871,
      "Ġleading": 7872,
      "ĠStr": 7873,
      "mig": 7874,
      "ĠEX": 7875,
      "72": 7876,
      "inition": 7877,
      "Ġpg": 7878,
      "Ġitertools": 7879,
      "Application": 7880,
      "Does": 7881,
      "Ġcoefficient": 7882,
      "Ġtorch": 7883,
      "Ġ(_": 7884,
      "])]": 7885,
      "repeat": 7886,
      "Ġsolver": 7887,
      "bolic": 7888,
      "ĠGit": 7889,
      "ĠDataset": 7890,
      "Ġfasta": 7891,
      "Ġexposure": 7892,
      ")\")": 7893,
      "tm": 7894,
      "rols": 7895,
      "Ġgetting": 7896,
      ">',": 7897,
      "zoom": 7898,
      "ields": 7899,
      "indic": 7900,
      "did": 7901,
      "Ġsquare": 7902,
      "Ġsubmission": 7903,
      "Args": 7904,
      "ĠDist": 7905,
      "Ġordering": 7906,
      "Ġprovides": 7907,
      "Ġexpanded": 7908,
      "________": 7909,
      "hem": 7910,
      "trim": 7911,
      "visor": 7912,
      "Ġhandled": 7913,
      "Ġvox": 7914,
      "transition": 7915,
      "embedding": 7916,
      "means": 7917,
      "appa": 7918,
      "ĠRO": 7919,
      "crypto": 7920,
      "ĠOperationFailed": 7921,
      "ĠPol": 7922,
      "byref": 7923,
      "Ġclients": 7924,
      "venience": 7925,
      "Ġsamp": 7926,
      "Ġbounding": 7927,
      "va": 7928,
      "TEMP": 7929,
      "Ġweighted": 7930,
      "namespaced": 7931,
      "Ġtyp": 7932,
      "Ġnl": 7933,
      "Ġspectrum": 7934,
      "æĸĩ": 7935,
      "daemon": 7936,
      "Ġraster": 7937,
      "ĠPart": 7938,
      "ĠDjango": 7939,
      "mmar": 7940,
      "LATE": 7941,
      "Post": 7942,
      "square": 7943,
      "Ġclassification": 7944,
      "Ġopened": 7945,
      "Ġarbitrary": 7946,
      "Ġol": 7947,
      "Ġ'-'": 7948,
      "LD": 7949,
      "^\\": 7950,
      "Ġstation": 7951,
      "resolution": 7952,
      "workers": 7953,
      "Ġdescribing": 7954,
      "aming": 7955,
      "cay": 7956,
      "ĠUN": 7957,
      "Ġtrailing": 7958,
      "normalized": 7959,
      "=''):": 7960,
      "ĠMet": 7961,
      "Ġserializer": 7962,
      "TRI": 7963,
      "learning": 7964,
      "Ġequation": 7965,
      "Callback": 7966,
      "NN": 7967,
      "pw": 7968,
      "pin": 7969,
      "deriv": 7970,
      "relationship": 7971,
      "Ġepsilon": 7972,
      "AUTH": 7973,
      "processes": 7974,
      "imize": 7975,
      "Ġreally": 7976,
      "margin": 7977,
      "BY": 7978,
      "Ġrename": 7979,
      "DELETE": 7980,
      "two": 7981,
      "django": 7982,
      "mtime": 7983,
      "represent": 7984,
      "Ġten": 7985,
      "Ġtransformed": 7986,
      "Account": 7987,
      "fpath": 7988,
      "six": 7989,
      "rich": 7990,
      "Ġiterate": 7991,
      "actual": 7992,
      "Settings": 7993,
      "ĠWeb": 7994,
      "ctl": 7995,
      "odb": 7996,
      "áħµ": 7997,
      "ĠPerform": 7998,
      "Ġvlan": 7999,
      "Current": 8000,
      "room": 8001,
      "Calculate": 8002,
      "wo": 8003,
      "Ġsoft": 8004,
      "\"{": 8005,
      "UNK": 8006,
      "'})": 8007,
      "wind": 8008,
      "/\"": 8009,
      "CLI": 8010,
      "gence": 8011,
      "Ġxmlns": 8012,
      "URCE": 8013,
      "Unsupported": 8014,
      "(\",": 8015,
      "])[": 8016,
      "agger": 8017,
      "VICE": 8018,
      "solver": 8019,
      "lets": 8020,
      "urnal": 8021,
      "ĠBad": 8022,
      "ttl": 8023,
      "gc": 8024,
      "translate": 8025,
      "ĠAddress": 8026,
      "Ġoccurred": 8027,
      "front": 8028,
      "Ġnotes": 8029,
      "listen": 8030,
      "ĠSince": 8031,
      "Select": 8032,
      "Ġplotting": 8033,
      "Now": 8034,
      "linspace": 8035,
      "uniform": 8036,
      "Ġthresh": 8037,
      "confirm": 8038,
      "Ġpreserve": 8039,
      "Ġcompound": 8040,
      "sequent": 8041,
      "ceil": 8042,
      "tected": 8043,
      "WOR": 8044,
      "Ġ%.": 8045,
      "Ġ\"\".": 8046,
      "incipal": 8047,
      "500": 8048,
      "Ġ1024": 8049,
      "when": 8050,
      "XY": 8051,
      "Ġchart": 8052,
      "matplotlib": 8053,
      "ln": 8054,
      "jectory": 8055,
      "filtered": 8056,
      "Ġhandles": 8057,
      "temperature": 8058,
      "java": 8059,
      "mitive": 8060,
      "working": 8061,
      "Ġcanonical": 8062,
      "Ġnearest": 8063,
      "mapped": 8064,
      "ĠXXX": 8065,
      "Ġdefines": 8066,
      "met": 8067,
      "Ġcompressed": 8068,
      "checksum": 8069,
      "Files": 8070,
      "operations": 8071,
      "Ġnewline": 8072,
      "Register": 8073,
      "ĠStopIteration": 8074,
      "Ġ()": 8075,
      "groupby": 8076,
      "ĠApply": 8077,
      "border": 8078,
      "artifact": 8079,
      "describe": 8080,
      "Batch": 8081,
      "bridge": 8082,
      "CAC": 8083,
      "Ġ{!": 8084,
      "ALI": 8085,
      "Project": 8086,
      "pv": 8087,
      "insum": 8088,
      "Ġcorresponds": 8089,
      "'ve": 8090,
      "ylim": 8091,
      "Track": 8092,
      "digits": 8093,
      "runner": 8094,
      "Ġmaking": 8095,
      "treat": 8096,
      "stor": 8097,
      "Ġlex": 8098,
      "Ġ40": 8099,
      "Ġattachment": 8100,
      "aliases": 8101,
      "xpath": 8102,
      "Ġlisted": 8103,
      "capacity": 8104,
      "Expected": 8105,
      "Ġquality": 8106,
      "Ġfew": 8107,
      "Ġbp": 8108,
      "iodic": 8109,
      "Ġdisplayed": 8110,
      "oute": 8111,
      "54": 8112,
      "meas": 8113,
      "Ġrecursively": 8114,
      "([])": 8115,
      "Ġvisit": 8116,
      "ĠUTC": 8117,
      "countered": 8118,
      "kill": 8119,
      "dfs": 8120,
      "Ġformatting": 8121,
      "Popen": 8122,
      "Ġretries": 8123,
      "(\"\"": 8124,
      "kv": 8125,
      "Ġpin": 8126,
      "Ġphone": 8127,
      "Ġguarante": 8128,
      "Lib": 8129,
      "Ġsubmit": 8130,
      "EXT": 8131,
      "compare": 8132,
      "Ġpredicted": 8133,
      "Ġgap": 8134,
      "limited": 8135,
      "Ġrepresented": 8136,
      "Bind": 8137,
      "BASE": 8138,
      "Font": 8139,
      "hot": 8140,
      "Ġretval": 8141,
      "mkdir": 8142,
      "ailability": 8143,
      "osed": 8144,
      "nonzero": 8145,
      "Interface": 8146,
      "Ġnargs": 8147,
      "Ġ'$": 8148,
      "artesian": 8149,
      "Ġbasename": 8150,
      "Builder": 8151,
      ":].": 8152,
      "examples": 8153,
      "Ġmajor": 8154,
      "Ġallele": 8155,
      "mol": 8156,
      "ĠMay": 8157,
      "beat": 8158,
      "LIST": 8159,
      "Ġmeth": 8160,
      "iming": 8161,
      "longitude": 8162,
      "Ġtolerance": 8163,
      "ixin": 8164,
      "Ġissues": 8165,
      "Ġfilesystem": 8166,
      "separator": 8167,
      "cks": 8168,
      "Ġpersist": 8169,
      "Ġdummy": 8170,
      "ĠWrit": 8171,
      "Ġapplies": 8172,
      "objs": 8173,
      "PREFIX": 8174,
      "\\\"": 8175,
      "keyid": 8176,
      "ĠRecord": 8177,
      "dia": 8178,
      "defs": 8179,
      "ĠThen": 8180,
      "Ġlive": 8181,
      "Flag": 8182,
      "Offset": 8183,
      "Ġpp": 8184,
      "share": 8185,
      "Ġcallbacks": 8186,
      "DP": 8187,
      "Ġminor": 8188,
      "ĠValidate": 8189,
      "Ġtun": 8190,
      "precation": 8191,
      "128": 8192,
      "aux": 8193,
      "Ġrendered": 8194,
      "fcoe": 8195,
      "pip": 8196,
      "Ġlogged": 8197,
      "Ġclosest": 8198,
      "pickle": 8199,
      "Align": 8200,
      "Ġseveral": 8201,
      "rx": 8202,
      "Ġdns": 8203,
      "definitions": 8204,
      "Ġreach": 8205,
      "without": 8206,
      "matching": 8207,
      "fq": 8208,
      "ongs": 8209,
      "__:": 8210,
      "ĠPermission": 8211,
      "Ġactivation": 8212,
      "')))": 8213,
      "EP": 8214,
      "lips": 8215,
      "Ġchan": 8216,
      "overflow": 8217,
      "terminal": 8218,
      "binding": 8219,
      "removed": 8220,
      "Ġpdb": 8221,
      "pher": 8222,
      "funcs": 8223,
      "sterior": 8224,
      "Ġnormalization": 8225,
      "Ġoccurs": 8226,
      "Ġidentical": 8227,
      "Ġmarkers": 8228,
      "assignment": 8229,
      "Ġfiltering": 8230,
      "widths": 8231,
      "Ġzeros": 8232,
      "xlim": 8233,
      "Component": 8234,
      "Ġtreat": 8235,
      "unct": 8236,
      "ĠVersion": 8237,
      "Ġaccepts": 8238,
      "Ġoverla": 8239,
      "Sc": 8240,
      "hazard": 8241,
      "Ġworld": 8242,
      "viders": 8243,
      "Ġmet": 8244,
      "problem": 8245,
      "Ġ\"\":": 8246,
      "LAN": 8247,
      "(',')": 8248,
      "}`": 8249,
      "thers": 8250,
      "quared": 8251,
      "Ġvarious": 8252,
      "evaluate": 8253,
      "BE": 8254,
      "Ġfollows": 8255,
      "cluding": 8256,
      ".+": 8257,
      "æĺ": 8258,
      "ĠColumn": 8259,
      "Ġaff": 8260,
      "Next": 8261,
      "vc": 8262,
      "Ġcd": 8263,
      "Ġcipher": 8264,
      "perms": 8265,
      "Ġdoing": 8266,
      "Ġcombination": 8267,
      "Given": 8268,
      "Ġnewly": 8269,
      "=\"%": 8270,
      "ught": 8271,
      "litude": 8272,
      ".:": 8273,
      "degrees": 8274,
      "Ġbank": 8275,
      "Ġouter": 8276,
      "Ġintersection": 8277,
      "ners": 8278,
      "ĠSort": 8279,
      "ĠSpecifies": 8280,
      "Web": 8281,
      "BR": 8282,
      "Ġfinish": 8283,
      "Ġrestore": 8284,
      "adow": 8285,
      "usion": 8286,
      "~~~~": 8287,
      "getcwd": 8288,
      "Ġ{{": 8289,
      "ĠTemplate": 8290,
      "Ġsucce": 8291,
      "...\")": 8292,
      "Adds": 8293,
      "Descriptor": 8294,
      "OPTION": 8295,
      "constraint": 8296,
      "Ġ500": 8297,
      "Ġstar": 8298,
      "Ġconfigs": 8299,
      "Ġ\"__": 8300,
      "Internal": 8301,
      "Ġsuitable": 8302,
      "ĠIterable": 8303,
      "remaining": 8304,
      "Ġdetail": 8305,
      "wrapped": 8306,
      "Sample": 8307,
      "endor": 8308,
      "ĠContext": 8309,
      "Ġhashlib": 8310,
      "initialized": 8311,
      "tcp": 8312,
      "Ġrs": 8313,
      "Unit": 8314,
      "ĠStream": 8315,
      "`).": 8316,
      "Ġtranslate": 8317,
      "Ġmanually": 8318,
      "cuit": 8319,
      "equ": 8320,
      "ctrl": 8321,
      "isnan": 8322,
      "queryset": 8323,
      "Normal": 8324,
      "NotExist": 8325,
      "completed": 8326,
      "Json": 8327,
      "rea": 8328,
      "moving": 8329,
      "ĠĊĠĠĠĠĠĠĠĠĠĠĠĠĠĠĠ": 8330,
      "mpaign": 8331,
      "buff": 8332,
      "Ġyields": 8333,
      "UNT": 8334,
      "venance": 8335,
      "Ġcov": 8336,
      "xies": 8337,
      "Ġmacro": 8338,
      "Ġadata": 8339,
      "Ġbulk": 8340,
      "(\"_": 8341,
      "svg": 8342,
      "hexdigest": 8343,
      "Ġtic": 8344,
      "adj": 8345,
      "localhost": 8346,
      "Ġlight": 8347,
      "impl": 8348,
      "Show": 8349,
      "ĠTakes": 8350,
      "Stack": 8351,
      "Script": 8352,
      "Ġconfidence": 8353,
      "Ġasc": 8354,
      ")\"\"\",": 8355,
      "land": 8356,
      "Ġatt": 8357,
      "Ġhdr": 8358,
      "spac": 8359,
      "SEPAR": 8360,
      "Ġestimator": 8361,
      "small": 8362,
      "Ġderivative": 8363,
      "mn": 8364,
      "vy": 8365,
      "Ġcs": 8366,
      "thro": 8367,
      "ĠCallable": 8368,
      "ĠConfiguration": 8369,
      "73": 8370,
      "Ġhorizontal": 8371,
      "matched": 8372,
      "ĠBackends": 8373,
      "einsum": 8374,
      "Ġgl": 8375,
      "execution": 8376,
      "Ġtau": 8377,
      "Total": 8378,
      "separated": 8379,
      "Ġrepeat": 8380,
      "compatible": 8381,
      "Ġtc": 8382,
      "Ġstrategy": 8383,
      "Ġindexed": 8384,
      "ArgumentParser": 8385,
      "_=": 8386,
      "scatter": 8387,
      "Ġcapture": 8388,
      "ĠSerial": 8389,
      "Prefix": 8390,
      "REC": 8391,
      "Failure": 8392,
      "Ġbroker": 8393,
      "hide": 8394,
      "Att": 8395,
      "zed": 8396,
      "alo": 8397,
      "Ġproj": 8398,
      "Ġ{}:": 8399,
      "ä½": 8400,
      "ĠthisObj": 8401,
      "ĠYANGDynClass": 8402,
      "YANGDynClass": 8403,
      "Dep": 8404,
      "Ġdl": 8405,
      "Ġappended": 8406,
      "ĠCopy": 8407,
      "ctet": 8408,
      "umption": 8409,
      "Ġgeneration": 8410,
      "Ġexpressions": 8411,
      "llegal": 8412,
      "information": 8413,
      "Ġextent": 8414,
      "Empty": 8415,
      "tailed": 8416,
      "ĠAct": 8417,
      "spin": 8418,
      "Ġlikely": 8419,
      "Ġaws": 8420,
      "preview": 8421,
      "specified": 8422,
      "randint": 8423,
      "pically": 8424,
      "ĠUses": 8425,
      "grp": 8426,
      "Ġmasked": 8427,
      "Generator": 8428,
      "Ġplayer": 8429,
      "SSAGE": 8430,
      "Ġtranscript": 8431,
      "Ġsph": 8432,
      "resolved": 8433,
      "updates": 8434,
      "Ġcorrespond": 8435,
      "Ġflush": 8436,
      "ĊĠĠĠĠĠĠĠĠĠĠĠĠĠĠĠĠĠĠĠĠĠĠĠĠĠĠĠĠĠĠĠĠĠĠĠĠĠĠĠĠĠĠĠĠĠĠĠĠĠĠĠĠĠĠ": 8437,
      "flu": 8438,
      "unicate": 8439,
      "iloc": 8440,
      "take": 8441,
      "ĠCSV": 8442,
      "ĠĠĠĠĠĠĠĠĠĠĠĠĠĠĠĠĠĠĠ": 8443,
      "mul": 8444,
      "decoder": 8445,
      "intf": 8446,
      "classification": 8447,
      "Ġ-----------": 8448,
      "Ġii": 8449,
      "Ġreduced": 8450,
      "Ġcores": 8451,
      "Ġ[('": 8452,
      "Tool": 8453,
      "resolver": 8454,
      "Ġproduce": 8455,
      "ĠProject": 8456,
      "ĠNotFound": 8457,
      "Login": 8458,
      "yntaxError": 8459,
      "}\",": 8460,
      "CMD": 8461,
      "alancer": 8462,
      "eg": 8463,
      "Ġprotein": 8464,
      "ĠEd": 8465,
      "CATION": 8466,
      "Ġexcluded": 8467,
      "ĠĠĠĠĠĠĠĠĠĠĠĠĠĠĠĠĠ": 8468,
      "grains": 8469,
      "Ġusually": 8470,
      "histogram": 8471,
      "_):": 8472,
      "KEN": 8473,
      "lobs": 8474,
      "Ġsudo": 8475,
      "Ġleaf": 8476,
      "compound": 8477,
      "Ġscene": 8478,
      "Ġsatis": 8479,
      "Net": 8480,
      "Ġmk": 8481,
      "']=": 8482,
      "omin": 8483,
      "interp": 8484,
      "TEST": 8485,
      "panel": 8486,
      "Ġxmax": 8487,
      "ĠDoes": 8488,
      "])))": 8489,
      "udit": 8490,
      "trl": 8491,
      "DC": 8492,
      "Ġwho": 8493,
      "pretty": 8494,
      "arrow": 8495,
      "Ġdeviation": 8496,
      "ament": 8497,
      "izable": 8498,
      "Ġjs": 8499,
      "Ġduplicates": 8500,
      "ĠNullArgument": 8501,
      "usted": 8502,
      "registered": 8503,
      "Ġpoll": 8504,
      "Ġcleanup": 8505,
      "Writ": 8506,
      "Ġna": 8507,
      "pabilities": 8508,
      "Ġcss": 8509,
      "SSL": 8510,
      "Ġpercentage": 8511,
      "SR": 8512,
      "nick": 8513,
      "consumer": 8514,
      "apps": 8515,
      "ĠEC": 8516,
      "ĠUsing": 8517,
      "LAB": 8518,
      "SOURCE": 8519,
      "/<": 8520,
      "}',": 8521,
      "Ġwildcard": 8522,
      "person": 8523,
      "crease": 8524,
      "Retrieve": 8525,
      "Ġdiv": 8526,
      "mous": 8527,
      "contrib": 8528,
      "inspect": 8529,
      "ARD": 8530,
      "population": 8531,
      "}\")": 8532,
      "ĠAb": 8533,
      "anging": 8534,
      "Ġmatrices": 8535,
      "between": 8536,
      "recursive": 8537,
      "ordin": 8538,
      "ROOT": 8539,
      "'{": 8540,
      "FIN": 8541,
      "ĠVariable": 8542,
      "Ġjump": 8543,
      "COMP": 8544,
      "ĠWith": 8545,
      "subplot": 8546,
      "ashboard": 8547,
      "Ġipv": 8548,
      "ains": 8549,
      "going": 8550,
      "Hist": 8551,
      "Ġ180": 8552,
      "ĠPost": 8553,
      "ĠKE": 8554,
      "SEPARATOR": 8555,
      "Ġmi": 8556,
      "Ġ18": 8557,
      "Ġrm": 8558,
      "Ġlaunch": 8559,
      "Ġtools": 8560,
      "pie": 8561,
      "abc": 8562,
      "START": 8563,
      "Ġvelocity": 8564,
      "minor": 8565,
      "smooth": 8566,
      "Ġomitted": 8567,
      "rune": 8568,
      "pacing": 8569,
      "MC": 8570,
      "thernet": 8571,
      "notebook": 8572,
      "uming": 8573,
      "Ġorientation": 8574,
      "Ġboard": 8575,
      "Ġroutine": 8576,
      "least": 8577,
      "Ġsink": 8578,
      "ĠTag": 8579,
      "exact": 8580,
      "åį": 8581,
      "Ġwallet": 8582,
      "lax": 8583,
      "mapper": 8584,
      "minutes": 8585,
      "duces": 8586,
      "...')": 8587,
      "Ġgzip": 8588,
      "literal": 8589,
      "collections": 8590,
      "Ġangles": 8591,
      ":]:": 8592,
      "probs": 8593,
      "ann": 8594,
      "masked": 8595,
      "ITS": 8596,
      "Ġbootstrap": 8597,
      "adratic": 8598,
      "Ġtp": 8599,
      "Ġndim": 8600,
      "ĠTarget": 8601,
      "mtree": 8602,
      "Entity": 8603,
      "Ġincoming": 8604,
      "imension": 8605,
      "bases": 8606,
      "Ġfontsize": 8607,
      "Ġtrial": 8608,
      "Ġdecoder": 8609,
      "mpy": 8610,
      "Usage": 8611,
      "gid": 8612,
      "Ġhighest": 8613,
      "ĠAccess": 8614,
      "solve": 8615,
      "Interrupt": 8616,
      "400": 8617,
      "Ġide": 8618,
      "Ġrpc": 8619,
      "levation": 8620,
      "inline": 8621,
      "Ġothers": 8622,
      "allen": 8623,
      "ĠEnvironment": 8624,
      "ĠHttpResponse": 8625,
      "600": 8626,
      "Cells": 8627,
      "rsplit": 8628,
      "Ġrestriction": 8629,
      "recognized": 8630,
      "Ġfits": 8631,
      "quad": 8632,
      "ĠDocument": 8633,
      "letion": 8634,
      "variants": 8635,
      "allele": 8636,
      "Ġlv": 8637,
      "Ġencryption": 8638,
      "Layout": 8639,
      "Title": 8640,
      "asc": 8641,
      "Ġcharset": 8642,
      "ä¸º": 8643,
      "rn": 8644,
      "Ġnor": 8645,
      "Ġ\"+": 8646,
      "olding": 8647,
      "setLevel": 8648,
      "COMM": 8649,
      "Timestamp": 8650,
      "igs": 8651,
      "aring": 8652,
      "Ġbed": 8653,
      "ĠMy": 8654,
      "Ġ','.": 8655,
      "Ġevaluated": 8656,
      "Ġvo": 8657,
      "lapse": 8658,
      "åĽŀ": 8659,
      "Ġreject": 8660,
      "Ġbroadcast": 8661,
      "Edit": 8662,
      "']}": 8663,
      "Ġexchange": 8664,
      "intext": 8665,
      "blank": 8666,
      "ripts": 8667,
      "Ġavg": 8668,
      "Ġobservations": 8669,
      "áĨ«": 8670,
      "rotation": 8671,
      "shutdown": 8672,
      "mainder": 8673,
      "Ġfigs": 8674,
      "coverage": 8675,
      "Ġcomplet": 8676,
      "></": 8677,
      "Volume": 8678,
      "wers": 8679,
      "Ġstand": 8680,
      "Ġorbit": 8681,
      "should": 8682,
      "REF": 8683,
      "Ġhad": 8684,
      "under": 8685,
      "need": 8686,
      "Section": 8687,
      "Ġfilled": 8688,
      "strain": 8689,
      "accounts": 8690,
      "SPACE": 8691,
      "periods": 8692,
      "developer": 8693,
      "boundary": 8694,
      "2000": 8695,
      "Stop": 8696,
      "atural": 8697,
      "routes": 8698,
      "lace": 8699,
      "ĠShow": 8700,
      "ĠColor": 8701,
      "Ġdeli": 8702,
      "('\"": 8703,
      "streams": 8704,
      "Ġinserted": 8705,
      "Ġidentifiers": 8706,
      "Ġobtained": 8707,
      "dy": 8708,
      "routing": 8709,
      "ota": 8710,
      "provision": 8711,
      "Ġlooks": 8712,
      "special": 8713,
      "fragment": 8714,
      "Ġperformance": 8715,
      "Ġcpu": 8716,
      "Ġdeployment": 8717,
      "Ġ;": 8718,
      "ifiers": 8719,
      "statements": 8720,
      "Ġmappings": 8721,
      "Ġdirname": 8722,
      "HI": 8723,
      "Writer": 8724,
      "iline": 8725,
      "parallel": 8726,
      "Ġcoverage": 8727,
      "Ġuniform": 8728,
      "received": 8729,
      "tot": 8730,
      "Ġcrop": 8731,
      "ocus": 8732,
      "tzinfo": 8733,
      "ĠPoint": 8734,
      "59": 8735,
      "but": 8736,
      "Ġnamespaces": 8737,
      "Ġlistener": 8738,
      "Ġzoom": 8739,
      "ĠYAML": 8740,
      "Ġcombine": 8741,
      "Top": 8742,
      "partitions": 8743,
      "46": 8744,
      "MQ": 8745,
      "vcs": 8746,
      "mongo": 8747,
      "syntax": 8748,
      "Ġinject": 8749,
      "strptime": 8750,
      "CACHE": 8751,
      "gui": 8752,
      "Ġcontour": 8753,
      "Ġlearning": 8754,
      "sensor": 8755,
      "middle": 8756,
      "samp": 8757,
      "Ġchr": 8758,
      "ĠURLs": 8759,
      "ä¸Ģ": 8760,
      "STATUS": 8761,
      "hint": 8762,
      "recur": 8763,
      "ctypes": 8764,
      "Ġthro": 8765,
      "theme": 8766,
      "Ġ2016": 8767,
      "lasticsearch": 8768,
      "éĢ": 8769,
      "ĠSu": 8770,
      "void": 8771,
      "nv": 8772,
      "Ð°": 8773,
      "ising": 8774,
      "ĠND": 8775,
      "Ġbases": 8776,
      "Mon": 8777,
      "urname": 8778,
      "spf": 8779,
      "Lookup": 8780,
      "CHAR": 8781,
      "áħ¥": 8782,
      "ambda": 8783,
      "Ġary": 8784,
      "Ġfar": 8785,
      "()])": 8786,
      "istype": 8787,
      "started": 8788,
      "Ġcare": 8789,
      "player": 8790,
      "DoesNotExist": 8791,
      "quis": 8792,
      "Ġshown": 8793,
      "Stat": 8794,
      "Ġdatatype": 8795,
      "vanced": 8796,
      "illiseconds": 8797,
      "((\"": 8798,
      "Den": 8799,
      "Jo": 8800,
      "Ġregard": 8801,
      "Split": 8802,
      "tas": 8803,
      "{'": 8804,
      "Ġdc": 8805,
      "Ġgives": 8806,
      "ĠCustom": 8807,
      "ĠReplace": 8808,
      "quiet": 8809,
      "charge": 8810,
      "macro": 8811,
      "Ġhits": 8812,
      "Ġservers": 8813,
      "hyper": 8814,
      "PM": 8815,
      "Ġln": 8816,
      "Shape": 8817,
      "bon": 8818,
      "caller": 8819,
      "Ġui": 8820,
      "Ġ256": 8821,
      "pixels": 8822,
      "prod": 8823,
      "gradient": 8824,
      "Items": 8825,
      "GO": 8826,
      "chanism": 8827,
      "pients": 8828,
      "serialized": 8829,
      "Ġclause": 8830,
      "hits": 8831,
      "ium": 8832,
      "instrument": 8833,
      "Ġunexpected": 8834,
      "noun": 8835,
      "Definition": 8836,
      "mavlink": 8837,
      "ulations": 8838,
      "Ġpreferred": 8839,
      "Ġcapacity": 8840,
      "Ġidentified": 8841,
      "Ġvtk": 8842,
      "physical": 8843,
      "starting": 8844,
      "Ġmv": 8845,
      "Ġ[{'": 8846,
      "exposure": 8847,
      "Ġcod": 8848,
      "Ġxs": 8849,
      "}:{": 8850,
      "ificant": 8851,
      "Ġtries": 8852,
      "Ġdeep": 8853,
      "Ġforms": 8854,
      "ĠAS": 8855,
      "phan": 8856,
      "phone": 8857,
      "seqs": 8858,
      "bindings": 8859,
      "ĠSplit": 8860,
      "Ġcid": 8861,
      "ĠComm": 8862,
      "Ġdistrib": 8863,
      "Ġartist": 8864,
      "Rect": 8865,
      "Ġcrypto": 8866,
      "Ġpys": 8867,
      "ĠPub": 8868,
      "Ġoverlay": 8869,
      "123": 8870,
      "maybe": 8871,
      "pas": 8872,
      "deserialize": 8873,
      "projection": 8874,
      "readlines": 8875,
      "located": 8876,
      "Ġmeasurements": 8877,
      "Ġscheduler": 8878,
      "unused": 8879,
      "scrib": 8880,
      "licable": 8881,
      "Ġpartitions": 8882,
      "Ġincrease": 8883,
      "TT": 8884,
      "()['": 8885,
      "Ġwebs": 8886,
      "Ġplain": 8887,
      "nom": 8888,
      "Ġ---": 8889,
      "markup": 8890,
      "sci": 8891,
      "Ġindependent": 8892,
      "namespaces": 8893,
      "Ġbeam": 8894,
      "Ġgrouped": 8895,
      "ĠAnd": 8896,
      "Ġsubsequent": 8897,
      "initialize": 8898,
      "raster": 8899,
      "phot": 8900,
      "LOAD": 8901,
      "999": 8902,
      "URN": 8903,
      "}')": 8904,
      "ĠReference": 8905,
      "ERS": 8906,
      "DateTime": 8907,
      "references": 8908,
      "Ġdeal": 8909,
      "Ġprojects": 8910,
      "Ġ128": 8911,
      "Ġperson": 8912,
      "STRING": 8913,
      "101": 8914,
      "Ġlif": 8915,
      "Ġreaction": 8916,
      "igure": 8917,
      "minute": 8918,
      "\"]))": 8919,
      "Ġ{:": 8920,
      "questions": 8921,
      "Unexpected": 8922,
      "typ": 8923,
      "Example": 8924,
      "Ġ---------": 8925,
      "ĠJo": 8926,
      "plt": 8927,
      "ĠTimeout": 8928,
      "leting": 8929,
      "Ġnr": 8930,
      "umor": 8931,
      "prime": 8932,
      "alysistype": 8933,
      "Ġmeaning": 8934,
      "factors": 8935,
      "velope": 8936,
      "Ġconverter": 8937,
      "xt": 8938,
      "Ġance": 8939,
      "Ġaccuracy": 8940,
      "UTF": 8941,
      ")['": 8942,
      "Ð¾": 8943,
      "good": 8944,
      "FLAGS": 8945,
      "!\"": 8946,
      "Gra": 8947,
      "follow": 8948,
      "stable": 8949,
      "ulus": 8950,
      "IDs": 8951,
      "mappings": 8952,
      "Ġupdating": 8953,
      "cus": 8954,
      "Ġfoot": 8955,
      "DED": 8956,
      "ANCE": 8957,
      "secure": 8958,
      "Mag": 8959,
      "Ġconvention": 8960,
      "ĠEl": 8961,
      "Ġaddition": 8962,
      "iterations": 8963,
      "Ġ2015": 8964,
      "}_": 8965,
      "ĠPY": 8966,
      "Ġadjac": 8967,
      "ĊĠĠĠĠĠĠĠĠĠĠĠĠĠĠĠĠĠĠĠĠĠĠĠĠĠĠĠĠĠĠĠĠĠĠĠĠĠĠĠĠĠĠĠĠĠĠĠĠĠĠĠĠĠĠĠĠĠĠĠĠĠĠĠĠĠĠĠĠĠĠĠĠĠĠĠĠĠĠĠĠĠĠĠĠĠĠĠĠ": 8968,
      "Validate": 8969,
      "lr": 8970,
      "mens": 8971,
      "Ġpprint": 8972,
      "Ġencountered": 8973,
      "Ġreadable": 8974,
      "Ġaliases": 8975,
      "WE": 8976,
      "æį": 8977,
      "Ġinstruction": 8978,
      "ĠInt": 8979,
      "Namespace": 8980,
      "directories": 8981,
      "Cluster": 8982,
      "Space": 8983,
      "One": 8984,
      "Ġ'(": 8985,
      "fir": 8986,
      "izations": 8987,
      "(\"[": 8988,
      "Ġkill": 8989,
      "Comple": 8990,
      "Ġdescribe": 8991,
      "Ġcm": 8992,
      "Ġcolour": 8993,
      "ĠSkip": 8994,
      "domains": 8995,
      "decorator": 8996,
      "hierarchy": 8997,
      "ĠRPC": 8998,
      "quality": 8999,
      "Ġins": 9000,
      "plane": 9001,
      "Wait": 9002,
      "åĬ": 9003,
      "utures": 9004,
      "Ġleave": 9005,
      "spacing": 9006,
      "angular": 9007,
      "Ġregistration": 9008,
      "Factor": 9009,
      "Ġinvoked": 9010,
      "lide": 9011,
      "Ġmer": 9012,
      "ATED": 9013,
      "Transaction": 9014,
      "squeeze": 9015,
      "vailable": 9016,
      "ĠRaise": 9017,
      "Ġmargin": 9018,
      "ĠLook": 9019,
      "}-": 9020,
      "Ġspatial": 9021,
      "ĠUp": 9022,
      "Pix": 9023,
      "Ġfour": 9024,
      "Ġinfer": 9025,
      "ansion": 9026,
      "mpath": 9027,
      "ĠFa": 9028,
      "Ġlinked": 9029,
      "ĠHelper": 9030,
      "Ðµ": 9031,
      "celer": 9032,
      "Extra": 9033,
      "RECT": 9034,
      "ĊĠĠĠĠĊĠĠĠĠĠĠĠ": 9035,
      "Ġfire": 9036,
      "ĠValues": 9037,
      "sgi": 9038,
      "Ġremoving": 9039,
      "attachment": 9040,
      "_['": 9041,
      "incomplete": 9042,
      "Ġreload": 9043,
      "Ġtenant": 9044,
      "Loc": 9045,
      "xi": 9046,
      "Ġeq": 9047,
      "ĠRGB": 9048,
      "Ġfaster": 9049,
      "issuer": 9050,
      "Ġarticle": 9051,
      "Ġaggregate": 9052,
      "radians": 9053,
      "mix": 9054,
      "TES": 9055,
      "crop": 9056,
      "tls": 9057,
      "Ġhold": 9058,
      "='%": 9059,
      "Ġunion": 9060,
      "Ġprocessor": 9061,
      "snmp": 9062,
      "activate": 9063,
      "Float": 9064,
      "Flags": 9065,
      "Ġfc": 9066,
      "Ġfu": 9067,
      "protein": 9068,
      "Ġunused": 9069,
      "Ġ\\\"": 9070,
      "Plugin": 9071,
      "/',": 9072,
      "Ġemit": 9073,
      "illa": 9074,
      "ĠSSL": 9075,
      "Ġaggregation": 9076,
      "OM": 9077,
      "Ġrepos": 9078,
      "Ġhazard": 9079,
      "Ġosid": 9080,
      "Ġcomps": 9081,
      "irect": 9082,
      "residue": 9083,
      "vtk": 9084,
      "Ġsolve": 9085,
      "ĠNULL": 9086,
      "boxes": 9087,
      "Ġthreading": 9088,
      ":`~.": 9089,
      "runk": 9090,
      "68": 9091,
      "Ġ'\\\\": 9092,
      "places": 9093,
      "ANGE": 9094,
      "Analysis": 9095,
      "ads": 9096,
      "Ġ([": 9097,
      "Required": 9098,
      "Ġ_(\"": 9099,
      "ĠDownload": 9100,
      "Ġquantity": 9101,
      "Ġskipped": 9102,
      "nonce": 9103,
      "GIN": 9104,
      "scipy": 9105,
      "encryption": 9106,
      "Ġrhs": 9107,
      "Ġymax": 9108,
      "ĠMO": 9109,
      "Ġprobabilities": 9110,
      "Ġoverrides": 9111,
      "enotype": 9112,
      "Ġ\"#": 9113,
      "hashes": 9114,
      "tainty": 9115,
      "Wh": 9116,
      "associ": 9117,
      "Ġresidual": 9118,
      "Pr": 9119,
      "SB": 9120,
      "Ġbs": 9121,
      "Ġmail": 9122,
      "iteration": 9123,
      "Go": 9124,
      "MD": 9125,
      "finish": 9126,
      "Ġminute": 9127,
      "trunc": 9128,
      "cleanup": 9129,
      "lask": 9130,
      "(':')": 9131,
      "Pay": 9132,
      "reated": 9133,
      "Ġphysical": 9134,
      "ä¸ª": 9135,
      "fm": 9136,
      "Ġsoup": 9137,
      "ĠValidationError": 9138,
      "Changed": 9139,
      "Interval": 9140,
      "Close": 9141,
      "predicate": 9142,
      "lest": 9143,
      "Ġsci": 9144,
      "Ġsheet": 9145,
      "Ġoptimization": 9146,
      "CD": 9147,
      "PEN": 9148,
      "topics": 9149,
      "gpu": 9150,
      "inux": 9151,
      "ancy": 9152,
      "Ġ400": 9153,
      "Ġworkers": 9154,
      "ĠJob": 9155,
      "termines": 9156,
      "180": 9157,
      "Ġcanvas": 9158,
      "Ġfollowed": 9159,
      "dry": 9160,
      "seen": 9161,
      "desk": 9162,
      "Ġeg": 9163,
      "queries": 9164,
      "resize": 9165,
      "Ġurlparse": 9166,
      "Attemp": 9167,
      "half": 9168,
      "Ġsear": 9169,
      "vile": 9170,
      "===": 9171,
      "Ġreferenced": 9172,
      "ĠGenerates": 9173,
      "ĠINT": 9174,
      "ĠOPTIONAL": 9175,
      "VA": 9176,
      "branches": 9177,
      "vpc": 9178,
      "Ġscaled": 9179,
      "Ġhierarchy": 9180,
      "Ġcalendar": 9181,
      "Ġ\"{}\"": 9182,
      "Ġdiagonal": 9183,
      "åº": 9184,
      "\")[": 9185,
      "clock": 9186,
      "klass": 9187,
      "rength": 9188,
      "ftp": 9189,
      "'+": 9190,
      "Ġdead": 9191,
      "Ġhide": 9192,
      "Ġencrypt": 9193,
      "Ġmarked": 9194,
      "candidates": 9195,
      "ĠInteger": 9196,
      "overlay": 9197,
      "Authorization": 9198,
      "Ġshutit": 9199,
      "300": 9200,
      "gi": 9201,
      "analysistype": 9202,
      "ĠPage": 9203,
      "Ġletter": 9204,
      "ĠExecute": 9205,
      "67": 9206,
      "PN": 9207,
      "llable": 9208,
      "Ġbi": 9209,
      "Ġprog": 9210,
      "additional": 9211,
      "Ġcompiled": 9212,
      "Stats": 9213,
      "Ġinteractive": 9214,
      "boardInterrupt": 9215,
      "ĠMI": 9216,
      "Ġspecimen": 9217,
      "Ġlikelihood": 9218,
      "extended": 9219,
      ":`\\": 9220,
      "Ġglobals": 9221,
      "Rate": 9222,
      "Ġsd": 9223,
      "rogram": 9224,
      "Ġsen": 9225,
      "orders": 9226,
      "perform": 9227,
[...]
